unsigned char mnist_model_tflite_tflite[] = {
  0x1c, 0x00, 0x00, 0x00, 0x54, 0x46, 0x4c, 0x33, 0x00, 0x00, 0x00, 0x00,
  0x00, 0x00, 0x0e, 0x00, 0x18, 0x00, 0x04, 0x00, 0x08, 0x00, 0x0c, 0x00,
  0x10, 0x00, 0x14, 0x00, 0x0e, 0x00, 0x00, 0x00, 0x03, 0x00, 0x00, 0x00,
  0x40, 0xfd, 0x00, 0x00, 0x0c, 0x00, 0x00, 0x00, 0x10, 0x00, 0x00, 0x00,
  0x20, 0x00, 0x00, 0x00, 0x01, 0x00, 0x00, 0x00, 0x54, 0xf7, 0x00, 0x00,
  0x0f, 0x00, 0x00, 0x00, 0x54, 0x4f, 0x43, 0x4f, 0x20, 0x43, 0x6f, 0x6e,
  0x76, 0x65, 0x72, 0x74, 0x65, 0x64, 0x2e, 0x00, 0x0a, 0x00, 0x00, 0x00,
  0x34, 0xf7, 0x00, 0x00, 0x04, 0xf6, 0x00, 0x00, 0xfc, 0xf5, 0x00, 0x00,
  0xf4, 0xf5, 0x00, 0x00, 0x64, 0xf5, 0x00, 0x00, 0x2c, 0xf5, 0x00, 0x00,
  0x24, 0xf5, 0x00, 0x00, 0x1c, 0xf5, 0x00, 0x00, 0x14, 0xf5, 0x00, 0x00,
  0x04, 0x00, 0x00, 0x00, 0x3e, 0x04, 0xff, 0xff, 0x04, 0x00, 0x00, 0x00,
  0x00, 0xf5, 0x00, 0x00, 0xa2, 0xa2, 0xa4, 0xa0, 0xa3, 0xa4, 0x99, 0x9e,
  0x9f, 0xa0, 0xa3, 0xa2, 0x9f, 0xa3, 0x9d, 0x9f, 0xa2, 0xa1, 0xa0, 0xae,
  0xa1, 0x9e, 0xa6, 0xa2, 0xa5, 0xa5, 0xad, 0x9e, 0xa5, 0xa2, 0x9f, 0x9f,
  0x9f, 0xa2, 0xa5, 0xa5, 0x9f, 0xa4, 0xa5, 0xa1, 0x9d, 0xa2, 0xa1, 0xa2,
  0x9f, 0x9f, 0xa1, 0xa0, 0xa2, 0xa0, 0xa0, 0xae, 0x9d, 0xa4, 0xa2, 0xa3,
  0xa5, 0xa3, 0xab, 0xa3, 0xaa, 0xa1, 0xa1, 0xa1, 0xa9, 0x9f, 0xa3, 0xa3,
  0x9e, 0x9f, 0xa0, 0x9f, 0x9d, 0x9e, 0xa5, 0x9e, 0x9e, 0xa0, 0x9a, 0x9d,
  0xa3, 0xa0, 0x9f, 0xb3, 0xa1, 0xa0, 0x97, 0x9e, 0xab, 0xa2, 0xab, 0x9f,
  0xa2, 0x9d, 0xa2, 0x9e, 0x9e, 0x9d, 0xa6, 0x9e, 0x9b, 0x9a, 0x9a, 0x9b,
  0xa3, 0x9d, 0xab, 0x9b, 0x9e, 0x9e, 0xa0, 0x9b, 0x9e, 0x9d, 0x9b, 0xb5,
  0x9c, 0xa1, 0x92, 0xa3, 0xa9, 0x9e, 0xad, 0x9f, 0xa2, 0x9c, 0x9d, 0xa1,
  0x9c, 0x9d, 0x82, 0x97, 0x8b, 0x8e, 0xa5, 0x9a, 0x9f, 0x9f, 0xa7, 0x98,
  0x99, 0x95, 0x79, 0x9b, 0xaa, 0x9a, 0x8e, 0xab, 0xa5, 0x9b, 0xa1, 0xa6,
  0xa7, 0x9f, 0xab, 0x96, 0x86, 0x9b, 0x9e, 0x9b, 0x7e, 0xa9, 0xa4, 0xa1,
  0x9e, 0xa7, 0x9d, 0x9d, 0x9c, 0x9f, 0xa0, 0x99, 0x74, 0x9c, 0x93, 0x9d,
  0x7c, 0x9c, 0x82, 0xae, 0x9c, 0xa6, 0x9d, 0x97, 0x93, 0x90, 0xa6, 0x9a,
  0x88, 0xaa, 0x8b, 0xa6, 0x8f, 0xa1, 0x70, 0x97, 0x91, 0xa2, 0xa5, 0x9d,
  0x9e, 0x9a, 0xa9, 0xa0, 0x9b, 0x9b, 0x6f, 0x9f, 0x9e, 0x93, 0xa0, 0xaf,
  0x9a, 0x97, 0xa4, 0xa3, 0x84, 0xa8, 0xab, 0x8d, 0x80, 0x98, 0xa0, 0xa2,
  0x79, 0x9b, 0x97, 0x96, 0x85, 0xa5, 0x9a, 0x96, 0x96, 0xa1, 0xb1, 0x94,
  0x79, 0x9d, 0x96, 0x96, 0x76, 0x99, 0x79, 0xb4, 0x90, 0xa3, 0xa8, 0x91,
  0x79, 0x91, 0xa7, 0x92, 0x82, 0xa4, 0x92, 0xaf, 0x8e, 0xa8, 0x70, 0x9d,
  0x94, 0xa4, 0x9b, 0x9a, 0xa5, 0xa1, 0xab, 0x9f, 0x99, 0xa6, 0x6e, 0x9d,
  0x98, 0x9c, 0x92, 0xb4, 0x9e, 0xad, 0xab, 0xa3, 0x94, 0xa5, 0xa9, 0x96,
  0x90, 0x9c, 0x9b, 0xa4, 0x82, 0x9d, 0x85, 0x96, 0x88, 0xa1, 0x9f, 0x9a,
  0x9f, 0x9a, 0xab, 0x92, 0x6d, 0x97, 0x7f, 0x98, 0x8c, 0x9c, 0x7a, 0xb4,
  0x88, 0x9d, 0xae, 0xa4, 0x8b, 0xa8, 0xa8, 0x92, 0x6b, 0x9e, 0x91, 0xa0,
  0x75, 0x9f, 0x99, 0x9b, 0x8f, 0x9a, 0xa4, 0x97, 0xa4, 0x9a, 0xa0, 0x96,
  0x71, 0x9d, 0x8e, 0x99, 0x7a, 0x9c, 0x87, 0xb4, 0x8b, 0x9f, 0x9d, 0x96,
  0x9c, 0x89, 0xa9, 0x99, 0x74, 0xa0, 0x96, 0x9f, 0x86, 0x9d, 0xa5, 0xa3,
  0x9d, 0x9c, 0x9f, 0xa0, 0x9c, 0x9e, 0xaa, 0x9a, 0x8e, 0x9d, 0x9c, 0x9e,
  0x88, 0x9d, 0x98, 0xa7, 0x95, 0x9d, 0x9c, 0x9c, 0xa9, 0x96, 0xab, 0x9e,
  0x91, 0xa2, 0x9c, 0xa1, 0x9c, 0x9e, 0xa3, 0xa1, 0xa1, 0xa2, 0x9b, 0xa1,
  0xa2, 0xa1, 0xa5, 0x9f, 0x9c, 0xa2, 0x9c, 0xa3, 0x9c, 0xa2, 0x9f, 0xb4,
  0x9d, 0xa2, 0xa4, 0xa1, 0xaa, 0xa2, 0xa9, 0xa2, 0xa0, 0x9f, 0x9e, 0xa4,
  0x9b, 0xa0, 0x9f, 0xa2, 0xa3, 0xa0, 0x9b, 0x9e, 0xa0, 0x9e, 0xa5, 0xa1,
  0xa0, 0x9e, 0x9c, 0xa1, 0xa2, 0x9f, 0x9e, 0xb1, 0x9c, 0x9f, 0xa2, 0x9c,
  0xa6, 0xa3, 0xa8, 0xa1, 0xa1, 0xa1, 0xa1, 0x9e, 0xa2, 0xa2, 0xa2, 0xa3,
  0xa5, 0xa0, 0x9a, 0xa1, 0x9d, 0x9e, 0xaa, 0xa3, 0x9f, 0xa3, 0x9f, 0xa2,
  0xa2, 0xa2, 0x9e, 0xb0, 0x9f, 0xa3, 0x9d, 0xa0, 0xa2, 0xa5, 0xa6, 0xa0,
  0xa4, 0xa0, 0x9c, 0xa2, 0xa7, 0xa3, 0x9c, 0xa2, 0xa0, 0x9e, 0xa4, 0x9d,
  0x9d, 0x9e, 0xa8, 0xa3, 0x9e, 0xa0, 0x91, 0xa0, 0xa2, 0x9e, 0x9e, 0xb7,
  0x9f, 0xab, 0x9f, 0xa1, 0xad, 0xa1, 0xb1, 0xa0, 0x9c, 0x9e, 0x9f, 0xa3,
  0x8b, 0x86, 0x89, 0x8f, 0x85, 0x85, 0x9b, 0x97, 0x90, 0x99, 0xa9, 0x93,
  0x9a, 0x96, 0x82, 0x96, 0x91, 0x91, 0x91, 0xab, 0x89, 0x83, 0x97, 0x96,
  0x8b, 0x94, 0xb0, 0x97, 0x7c, 0x8b, 0x99, 0x91, 0x85, 0x98, 0x9f, 0x92,
  0x94, 0x9b, 0xa3, 0x90, 0x9f, 0x94, 0xb8, 0x8e, 0x7f, 0x96, 0x9e, 0x8e,
  0x93, 0xa4, 0x8a, 0xbb, 0x86, 0x9d, 0xaa, 0x93, 0x87, 0x88, 0xb5, 0xa0,
  0x94, 0x9e, 0x8c, 0x8d, 0x9d, 0x9d, 0x9e, 0xaa, 0xac, 0xa4, 0xa6, 0x9c,
  0xa9, 0x93, 0xa5, 0x9a, 0x9e, 0x9d, 0x9b, 0x9c, 0x81, 0x9f, 0xa7, 0xa8,
  0x94, 0xa8, 0x95, 0x95, 0x9d, 0xa1, 0xab, 0xa5, 0xa3, 0xa1, 0xa0, 0x98,
  0xa8, 0x8d, 0x8e, 0x8e, 0x9c, 0x96, 0x9c, 0xa6, 0x98, 0x9e, 0xb1, 0xa5,
  0x9f, 0xa6, 0x91, 0xa5, 0x8b, 0x98, 0x9e, 0xb1, 0xa1, 0x95, 0x8d, 0x8b,
  0xa8, 0x93, 0xb6, 0xa6, 0xa0, 0x8c, 0x97, 0x9a, 0x9b, 0x9d, 0x8d, 0x9a,
  0xa4, 0x9a, 0x9d, 0x9b, 0x9c, 0x9b, 0xad, 0x9d, 0x9b, 0x9d, 0x85, 0xa1,
  0x91, 0x90, 0xa6, 0xac, 0x94, 0x87, 0x92, 0x93, 0xa2, 0x93, 0xb6, 0xac,
  0x96, 0x90, 0x99, 0xa1, 0xac, 0x94, 0x94, 0x92, 0x8d, 0x93, 0xac, 0x9d,
  0x9b, 0x7e, 0xa5, 0x9a, 0xa4, 0x9b, 0x96, 0x91, 0x9e, 0x82, 0x99, 0xab,
  0x9e, 0x93, 0x98, 0x92, 0x9c, 0x9f, 0xb3, 0x92, 0x9b, 0x8a, 0x9e, 0x8e,
  0x8e, 0x7a, 0x92, 0x93, 0x9e, 0x81, 0x9c, 0x8c, 0xa4, 0x8d, 0xab, 0x8d,
  0x89, 0x86, 0x83, 0x8e, 0x94, 0x8b, 0x93, 0xa1, 0x8f, 0x7b, 0x8f, 0x8e,
  0x9d, 0x87, 0xac, 0x9b, 0x9b, 0x7d, 0x85, 0x85, 0x96, 0x8c, 0x92, 0x99,
  0x9d, 0x90, 0xa8, 0x8e, 0x94, 0x96, 0xa2, 0x8d, 0x95, 0x92, 0x96, 0x8d,
  0x86, 0x96, 0x91, 0x9b, 0x8a, 0xa6, 0x79, 0x81, 0x9b, 0x8c, 0xa1, 0x97,
  0x91, 0xae, 0x8c, 0x89, 0x9a, 0xa2, 0xa8, 0x9c, 0xa3, 0x98, 0x97, 0x8a,
  0xaa, 0x93, 0xa4, 0x92, 0x8e, 0x89, 0xaa, 0x8b, 0x9c, 0xa3, 0x8c, 0x95,
  0x92, 0xa3, 0x99, 0x91, 0x96, 0x8a, 0x99, 0x94, 0x8b, 0xa7, 0x94, 0x92,
  0x95, 0x94, 0x96, 0xa0, 0xa1, 0x9b, 0xa3, 0xa1, 0x9e, 0xa2, 0x9f, 0xa2,
  0x8f, 0x9e, 0x8b, 0x98, 0x92, 0x9d, 0x9c, 0xa5, 0x97, 0x97, 0x89, 0x95,
  0xa2, 0x89, 0xa5, 0x8c, 0xa4, 0x9c, 0xa5, 0x96, 0x9a, 0x9b, 0x99, 0x9e,
  0x95, 0xa6, 0xa5, 0x9b, 0x9e, 0x9d, 0x9d, 0xa0, 0x98, 0xa4, 0x93, 0x9d,
  0xa5, 0x9f, 0x9e, 0xae, 0x9c, 0x9a, 0xab, 0xa1, 0x9c, 0xa0, 0xa3, 0x99,
  0x8c, 0x9e, 0x9f, 0xa8, 0x94, 0xa1, 0xa0, 0xa2, 0x9d, 0xa1, 0xa8, 0x9e,
  0xa0, 0x9d, 0xa5, 0x9b, 0x8d, 0x9b, 0x9d, 0x9d, 0x98, 0xa2, 0x9a, 0xad,
  0x93, 0x9f, 0x9f, 0x92, 0x98, 0xaa, 0xac, 0x9c, 0x9a, 0xa0, 0x98, 0xa1,
  0x9e, 0xa0, 0xa7, 0xa4, 0xa3, 0x9d, 0xa5, 0x9e, 0x9e, 0x9e, 0xab, 0x9f,
  0x9e, 0xa1, 0x9b, 0xa1, 0xa1, 0x9f, 0xa1, 0xa6, 0x9f, 0xa2, 0x9f, 0xa1,
  0xa0, 0xa4, 0xab, 0xa3, 0xa2, 0xa1, 0x9f, 0xa1, 0x93, 0x9d, 0x86, 0x98,
  0x9c, 0x92, 0x9b, 0x94, 0x99, 0x98, 0xa2, 0x9a, 0xa2, 0x91, 0x88, 0x9b,
  0x99, 0x93, 0x9d, 0xa4, 0x93, 0xa3, 0x9c, 0x9c, 0xa4, 0x9f, 0xaf, 0x9b,
  0x85, 0x94, 0xa0, 0x92, 0x85, 0x89, 0x95, 0x99, 0xa3, 0x98, 0xa6, 0x94,
  0xad, 0x88, 0x8d, 0x8b, 0x91, 0x95, 0x95, 0x8e, 0x8f, 0x9a, 0x84, 0x8b,
  0x7f, 0x8b, 0x8d, 0x8c, 0x8e, 0x90, 0xaa, 0x92, 0xa0, 0x93, 0x8e, 0x89,
  0xa7, 0x89, 0x95, 0x96, 0xa2, 0x9a, 0xa7, 0xa0, 0xac, 0x9a, 0x97, 0x9e,
  0x8c, 0xa8, 0x97, 0x9e, 0x7c, 0x9b, 0x97, 0x9d, 0x9f, 0x8a, 0x86, 0x7c,
  0xa9, 0x80, 0xa8, 0x93, 0xa2, 0x90, 0x9a, 0x97, 0xa3, 0x9d, 0x9d, 0x9f,
  0xa7, 0xad, 0xa2, 0xb2, 0x98, 0xb0, 0x91, 0xa6, 0x8b, 0xa6, 0xa0, 0xa6,
  0x7b, 0xb2, 0x96, 0x8c, 0xa0, 0xa5, 0x82, 0x8d, 0x8c, 0x93, 0x93, 0xa7,
  0xa5, 0x9e, 0x9d, 0xab, 0x9c, 0x96, 0x95, 0xa0, 0x98, 0xac, 0xaa, 0xa4,
  0x96, 0xa3, 0x87, 0xa4, 0x9e, 0x9d, 0x92, 0xa3, 0x91, 0xa1, 0xa6, 0x86,
  0x9f, 0x91, 0x90, 0x92, 0x9e, 0xaa, 0x8d, 0xac, 0x94, 0x94, 0xa3, 0x9d,
  0x95, 0x9e, 0xa4, 0xa9, 0xa8, 0x9e, 0x9a, 0xa7, 0xa9, 0x9e, 0x8e, 0x9f,
  0x91, 0xa6, 0xa5, 0xa5, 0x9e, 0xb0, 0x91, 0x96, 0x9b, 0x9a, 0x8b, 0x94,
  0x95, 0x93, 0x98, 0x96, 0x9e, 0xa2, 0x99, 0x9a, 0xa7, 0xa4, 0x9e, 0x96,
  0x9f, 0xa0, 0xa6, 0x9d, 0x92, 0xa2, 0x9f, 0xa5, 0xa4, 0x9f, 0xa2, 0xa5,
  0xa2, 0x9f, 0xb3, 0xa3, 0xa6, 0x96, 0x9e, 0x94, 0xa0, 0xa6, 0xa5, 0xa9,
  0xa2, 0x9a, 0xa1, 0xa3, 0xa7, 0xa4, 0xa8, 0x9f, 0x96, 0xa2, 0x9f, 0xa3,
  0x9e, 0x9a, 0x96, 0x9a, 0x9a, 0xa0, 0xa3, 0x9b, 0x99, 0xa0, 0x9b, 0xa8,
  0xaa, 0x9c, 0x85, 0x88, 0x9a, 0x91, 0xa6, 0x9d, 0x9a, 0xa8, 0x9b, 0x9e,
  0x9f, 0xa8, 0x93, 0x9d, 0xa3, 0xb0, 0xaa, 0xa0, 0xa3, 0xa1, 0xa9, 0xa7,
  0xac, 0xa7, 0x9b, 0xa8, 0x93, 0xa6, 0xb0, 0xa6, 0xa5, 0x9d, 0x7a, 0x7f,
  0xa1, 0xa2, 0x9f, 0xa3, 0xa2, 0xa6, 0xa6, 0xac, 0xa2, 0x9f, 0xa3, 0xa9,
  0xa2, 0xa4, 0xa9, 0xa1, 0xa2, 0x9f, 0x7f, 0xa4, 0x9a, 0xae, 0x97, 0xa6,
  0x90, 0xa7, 0x9e, 0x80, 0xa5, 0x91, 0x8d, 0x9f, 0xa3, 0xa2, 0x94, 0xa8,
  0xaa, 0x99, 0x96, 0x9e, 0xa5, 0xa6, 0x80, 0x99, 0x95, 0x97, 0xa4, 0xa3,
  0x9b, 0xa1, 0x96, 0xad, 0xaa, 0x98, 0x85, 0xaa, 0xae, 0xa5, 0xa8, 0x83,
  0xa9, 0xa0, 0x97, 0x9b, 0xb1, 0xa4, 0x88, 0xac, 0x9a, 0x96, 0xaa, 0x9c,
  0x96, 0x9a, 0x82, 0x8d, 0x97, 0x83, 0xa1, 0x93, 0x9a, 0x90, 0xa6, 0x91,
  0x92, 0x98, 0x85, 0x92, 0x90, 0x9d, 0x8c, 0x96, 0x91, 0xa2, 0x94, 0x96,
  0x8c, 0x96, 0xa6, 0x92, 0x85, 0xa2, 0x96, 0x8a, 0x71, 0x94, 0xa6, 0x99,
  0x83, 0x86, 0xaa, 0x90, 0x97, 0x93, 0x97, 0x93, 0x79, 0x8c, 0x9e, 0x93,
  0x6d, 0x96, 0x84, 0x98, 0x6d, 0x9e, 0x88, 0x88, 0x7d, 0x73, 0x9e, 0x93,
  0x7e, 0x9c, 0x94, 0x8d, 0xa8, 0xa2, 0xa5, 0x9f, 0xa2, 0xa1, 0xa4, 0xa2,
  0xa3, 0x9f, 0xa4, 0xa4, 0xa2, 0xa1, 0x99, 0xa2, 0xb2, 0xa2, 0xa0, 0xa7,
  0xa7, 0xa2, 0x9d, 0xa4, 0xb1, 0xa3, 0xa3, 0xa0, 0xa9, 0x9e, 0xa0, 0xa0,
  0xa1, 0x97, 0x75, 0x92, 0x90, 0x8d, 0x9e, 0x91, 0x98, 0x99, 0x90, 0x94,
  0x9d, 0x8e, 0x7b, 0x9e, 0x9b, 0x8c, 0x9d, 0x7f, 0x9c, 0x8f, 0x94, 0x9a,
  0xa7, 0x9c, 0x90, 0x9d, 0x84, 0x89, 0x9c, 0x91, 0x93, 0x92, 0x99, 0x9f,
  0x8d, 0x92, 0xa6, 0x99, 0xab, 0x90, 0x9f, 0x97, 0x91, 0x9c, 0xa1, 0x8d,
  0x9b, 0x9b, 0x7d, 0x9e, 0x93, 0x97, 0x8f, 0x8d, 0x86, 0x92, 0x9b, 0x8b,
  0x99, 0xac, 0x8d, 0x96, 0x99, 0x98, 0x97, 0x9c, 0x9d, 0x9e, 0x9c, 0xaa,
  0xa6, 0xa3, 0x79, 0x9d, 0x8e, 0x9a, 0x94, 0xa1, 0x8c, 0x9d, 0x8e, 0x81,
  0x9a, 0x91, 0x8f, 0x8a, 0x8e, 0x83, 0x85, 0xa8, 0x9f, 0x94, 0xa1, 0x9c,
  0x96, 0xa0, 0x9a, 0x9e, 0xa2, 0xa0, 0xab, 0xa3, 0xa3, 0xa0, 0x81, 0xa0,
  0x95, 0xa5, 0x99, 0x9d, 0x87, 0xa8, 0x90, 0x76, 0x9a, 0x97, 0x99, 0x8f,
  0x99, 0x8f, 0x6c, 0xa2, 0xa7, 0xa3, 0x9e, 0x95, 0xac, 0xa0, 0x99, 0xa3,
  0xa7, 0xa4, 0xb1, 0xa5, 0x94, 0xa3, 0x82, 0xa4, 0x9e, 0x9c, 0x8f, 0xa8,
  0x89, 0xab, 0x9a, 0x7d, 0xa2, 0x98, 0x88, 0x83, 0x90, 0x98, 0x83, 0x9f,
  0xa3, 0x99, 0xa5, 0xa1, 0xa5, 0x9c, 0x92, 0x9d, 0x9c, 0xa8, 0x92, 0xa7,
  0x94, 0x9e, 0x90, 0x9d, 0x95, 0xab, 0x98, 0xa8, 0x8e, 0x9c, 0xa1, 0x95,
  0x9e, 0x8c, 0x88, 0x8d, 0x7f, 0x98, 0x8c, 0xa8, 0xa0, 0x8d, 0xa8, 0xa8,
  0x9e, 0xa9, 0x8e, 0xa3, 0xa1, 0xa3, 0xa4, 0xa7, 0x9c, 0xa6, 0x9d, 0xa0,
  0x9b, 0xa8, 0x96, 0xa9, 0x86, 0xa5, 0x95, 0x9f, 0x96, 0x97, 0x91, 0x91,
  0xa1, 0x9b, 0x9e, 0xa8, 0x9c, 0x96, 0xa8, 0xa5, 0xa3, 0xab, 0xa9, 0x9b,
  0xa4, 0x97, 0xbf, 0xa6, 0x8e, 0x9c, 0x9a, 0x9b, 0xab, 0x9d, 0xb1, 0x9d,
  0x8c, 0xa5, 0xae, 0xa1, 0x9e, 0x9f, 0x7d, 0x8e, 0xb5, 0xa3, 0x90, 0xa3,
  0x98, 0xa7, 0xa5, 0x9e, 0x9b, 0xaa, 0xad, 0xa7, 0xa7, 0x9b, 0xba, 0x9d,
  0x9b, 0x9c, 0x9f, 0x9f, 0xac, 0xa0, 0xaf, 0xa2, 0x9e, 0xa8, 0xab, 0x8f,
  0x96, 0xad, 0x8e, 0x8f, 0xa9, 0xa1, 0x8e, 0xac, 0x9f, 0xae, 0xa3, 0xa9,
  0x9d, 0xb3, 0x9f, 0xa9, 0xb1, 0xa7, 0xa1, 0xa9, 0x92, 0xad, 0xa1, 0xa3,
  0x9d, 0xa2, 0x9c, 0xa5, 0x96, 0xb6, 0x9b, 0x97, 0xa9, 0xb3, 0x7a, 0x86,
  0xa4, 0xa2, 0x89, 0xa3, 0x97, 0xb3, 0x9f, 0xa3, 0xaa, 0xbe, 0x7f, 0xa7,
  0xb7, 0xb1, 0xb0, 0xa1, 0x8d, 0xa6, 0x9a, 0xac, 0xab, 0xa8, 0x8d, 0xb1,
  0xa2, 0xab, 0xb2, 0x9f, 0xac, 0xb0, 0x9f, 0xa6, 0xac, 0xb2, 0xa1, 0xae,
  0xa1, 0xbd, 0xb3, 0xae, 0xa8, 0x9d, 0x7a, 0x93, 0x96, 0xab, 0xa7, 0x9e,
  0x9d, 0x91, 0x7d, 0x9d, 0xa9, 0xa6, 0x88, 0xa0, 0xa7, 0x89, 0xb1, 0x7f,
  0xac, 0x9c, 0xa1, 0xa7, 0xb1, 0xa7, 0x73, 0xa7, 0xa0, 0x9f, 0xa5, 0xae,
  0xa7, 0x89, 0xa4, 0x99, 0x7e, 0x9f, 0x97, 0x8f, 0x9c, 0x91, 0xa3, 0x87,
  0x8a, 0x93, 0xa0, 0x8f, 0x8d, 0x8f, 0x81, 0x76, 0x99, 0x8a, 0x98, 0x9b,
  0xa7, 0x8f, 0x7c, 0x96, 0x97, 0x89, 0x8c, 0x89, 0xab, 0xa5, 0xae, 0xa6,
  0xa5, 0xa6, 0x96, 0xa0, 0xa6, 0xa2, 0xb4, 0xa0, 0xa2, 0xa8, 0xb4, 0xa3,
  0xae, 0xa2, 0xa0, 0xb5, 0xa8, 0xa2, 0xae, 0xac, 0xad, 0xab, 0xb5, 0xa3,
  0xb5, 0xa1, 0xa2, 0xa3, 0xa9, 0xa0, 0x84, 0x97, 0x8f, 0x98, 0x9e, 0x9d,
  0x99, 0x9d, 0x8f, 0x9c, 0xa9, 0x93, 0x81, 0xa4, 0xa9, 0x93, 0xa6, 0x85,
  0x94, 0x8b, 0xa8, 0xa5, 0xac, 0xab, 0x99, 0xa5, 0x9e, 0x92, 0xa0, 0x9e,
  0xa2, 0x91, 0xa0, 0x96, 0x9a, 0x9d, 0xaa, 0x9d, 0xb0, 0x93, 0x94, 0x8d,
  0x8a, 0xa1, 0xa0, 0x92, 0x89, 0x96, 0x85, 0x92, 0x9e, 0x9c, 0x87, 0x8a,
  0x90, 0x86, 0x98, 0x91, 0xb1, 0x9a, 0x90, 0x97, 0xb0, 0xad, 0xa3, 0xa3,
  0xa6, 0xad, 0xa7, 0xa3, 0xa8, 0xa2, 0x91, 0xa6, 0x9a, 0x99, 0xa3, 0xa3,
  0x99, 0xa1, 0x90, 0x93, 0xa6, 0xa6, 0xa4, 0x9a, 0xa0, 0xa6, 0x8d, 0xa8,
  0xa5, 0xa1, 0x9d, 0xa5, 0xa6, 0x94, 0x9b, 0x9f, 0x98, 0xaa, 0xb1, 0xab,
  0x9f, 0xa5, 0x9c, 0xa4, 0x8e, 0xae, 0xa1, 0xa7, 0x9f, 0xa3, 0x9f, 0x94,
  0xa0, 0x9b, 0x8d, 0x9d, 0xa2, 0x90, 0x96, 0xa7, 0x9c, 0x9d, 0xa4, 0xa5,
  0x9d, 0xa2, 0xa0, 0xa7, 0x95, 0xa2, 0xb2, 0xa9, 0x9f, 0xa5, 0x90, 0xa9,
  0x9f, 0x9a, 0x9b, 0x9d, 0xa9, 0xa5, 0x9e, 0x91, 0x9c, 0xa5, 0xa8, 0xb0,
  0xa5, 0xa5, 0x91, 0x94, 0xa0, 0xa6, 0xa6, 0xa6, 0xa0, 0xa6, 0xa8, 0xa6,
  0xa7, 0xa8, 0x9f, 0xa1, 0xa4, 0xaf, 0x95, 0xa1, 0xa3, 0x9f, 0xa5, 0xa8,
  0x9a, 0xaa, 0xa2, 0x99, 0x9a, 0x9d, 0x98, 0x9e, 0x97, 0x9c, 0x94, 0xa4,
  0x94, 0xa2, 0xa5, 0xa3, 0x9f, 0xb7, 0xa7, 0xb0, 0xa9, 0xa6, 0xa4, 0xa7,
  0x92, 0xad, 0x97, 0xa8, 0xa3, 0x9c, 0xa9, 0xad, 0x98, 0xb2, 0xa4, 0x91,
  0xa0, 0xa3, 0x87, 0x96, 0x95, 0xab, 0x8a, 0xb3, 0x97, 0xa0, 0xaf, 0xab,
  0x9b, 0xa3, 0xa7, 0xa5, 0xa6, 0xa7, 0xb1, 0xa7, 0x7f, 0xa9, 0xa4, 0xa2,
  0xb4, 0xa9, 0xac, 0xad, 0xa3, 0xac, 0xbe, 0x97, 0x96, 0x99, 0x8a, 0x9e,
  0xac, 0xb6, 0x93, 0xb6, 0x95, 0xa0, 0xb6, 0x9a, 0x9e, 0xc0, 0xba, 0xc0,
  0xb0, 0xa2, 0xb7, 0x97, 0x6e, 0xae, 0xa7, 0x9c, 0xad, 0xa0, 0xcd, 0xa9,
  0x9c, 0xb8, 0xad, 0x99, 0xa3, 0xbe, 0x84, 0xa0, 0xb4, 0xb0, 0x9c, 0xab,
  0x86, 0xc1, 0xa1, 0xa0, 0x94, 0xa3, 0xb2, 0xa5, 0xa4, 0xa0, 0xa9, 0x96,
  0x7c, 0xa1, 0x97, 0xaa, 0xb7, 0x9e, 0xb9, 0xa0, 0xa9, 0xa7, 0xbb, 0x96,
  0x99, 0xb3, 0x9c, 0x9d, 0xb4, 0xb2, 0x84, 0xa6, 0x87, 0xa9, 0xa7, 0xa2,
  0x9a, 0xb2, 0xbd, 0xb4, 0xaa, 0xa7, 0xa2, 0x9e, 0x95, 0xa7, 0xa3, 0x9e,
  0xb4, 0x9d, 0xbd, 0xa5, 0xa4, 0xb1, 0xa1, 0xad, 0x95, 0xc0, 0xa6, 0xa3,
  0xa9, 0xa3, 0x9d, 0xb4, 0x8e, 0xbd, 0x9f, 0xaa, 0x98, 0xb4, 0xa2, 0xa3,
  0xad, 0x9d, 0x9e, 0x91, 0x95, 0xa4, 0x91, 0xa5, 0xac, 0x9d, 0xae, 0x9f,
  0xa6, 0xb1, 0xae, 0x95, 0x9e, 0xae, 0xac, 0xb1, 0xa7, 0xa6, 0x94, 0xb4,
  0x96, 0xa7, 0xa5, 0xa2, 0x91, 0x83, 0xa0, 0x97, 0x9e, 0x7d, 0x94, 0x95,
  0xa4, 0x98, 0x97, 0x96, 0x9d, 0x9b, 0xa1, 0x93, 0x98, 0x89, 0x92, 0x94,
  0x92, 0x85, 0xa1, 0x9b, 0x9a, 0x9a, 0x9f, 0x8f, 0x80, 0x8c, 0x97, 0x87,
  0xaa, 0xa3, 0xb1, 0xa8, 0xa3, 0xad, 0x95, 0xa0, 0x99, 0xa5, 0xb8, 0xa6,
  0x9f, 0xa5, 0xae, 0x9d, 0xa4, 0xa3, 0x9e, 0xb5, 0xb5, 0xa3, 0xa0, 0xa2,
  0xaa, 0xa1, 0xb2, 0xa1, 0xb5, 0x9f, 0xa4, 0xa9, 0xaf, 0xa4, 0x93, 0x9e,
  0x9f, 0xa1, 0xa2, 0x9f, 0x9a, 0xa4, 0xa8, 0xa2, 0x9a, 0x9f, 0x8e, 0xa0,
  0xaa, 0x98, 0xa2, 0xa8, 0xb1, 0xa7, 0xb5, 0xaa, 0xac, 0xa0, 0xab, 0x9b,
  0x9f, 0x9f, 0x9d, 0xa9, 0x9e, 0x97, 0xa7, 0xa3, 0x92, 0x9d, 0xa0, 0x9b,
  0xa2, 0x9c, 0xa4, 0x93, 0xa0, 0x9f, 0xb1, 0x97, 0x9e, 0xa8, 0x99, 0xaf,
  0x9d, 0xa2, 0xad, 0x9c, 0x8b, 0xa2, 0x97, 0x9f, 0xa3, 0x9c, 0x96, 0x96,
  0xa4, 0xab, 0xaa, 0x9f, 0xa4, 0xa4, 0x96, 0xa7, 0xa0, 0xa4, 0x84, 0xa5,
  0x97, 0xa8, 0x9a, 0xa1, 0xa2, 0xaa, 0x91, 0x7c, 0x9f, 0xa4, 0xa3, 0xa1,
  0x99, 0x94, 0x81, 0xa5, 0x9f, 0xaf, 0xae, 0xaa, 0x91, 0x93, 0xa0, 0x97,
  0x9e, 0xa0, 0x85, 0xa0, 0xaf, 0xa8, 0x9e, 0x96, 0x9b, 0xab, 0xaa, 0xa4,
  0xaa, 0x9f, 0x94, 0x9b, 0xa3, 0x98, 0xad, 0xaa, 0x8e, 0x9e, 0x9d, 0x9d,
  0xa3, 0x9c, 0xa6, 0x9c, 0xb4, 0xa9, 0xa5, 0xaa, 0xad, 0xa3, 0x86, 0xa3,
  0xa4, 0xa4, 0x99, 0x9d, 0x9e, 0xa8, 0x9c, 0xa2, 0xa1, 0xab, 0x9e, 0x94,
  0xa5, 0xa2, 0xa5, 0xb3, 0x9e, 0xa6, 0x8f, 0xa9, 0xa9, 0xa9, 0xa6, 0xa9,
  0xa1, 0xab, 0xa0, 0x9e, 0xae, 0x99, 0x7a, 0xa1, 0xa3, 0xa7, 0x91, 0x9d,
  0xa3, 0x9b, 0x94, 0x9d, 0x98, 0xa7, 0x9e, 0x94, 0xad, 0xa2, 0x96, 0xaa,
  0x87, 0x9e, 0x8b, 0xa0, 0xa3, 0xa1, 0xa3, 0x9d, 0x91, 0xb8, 0xab, 0xa9,
  0xa8, 0x9e, 0xaf, 0xa3, 0x90, 0xa9, 0xa2, 0x9d, 0xa8, 0x9c, 0xad, 0x9d,
  0xa5, 0xa7, 0x9e, 0xa3, 0x9e, 0xb4, 0xa4, 0xb2, 0x89, 0xad, 0x8f, 0x9d,
  0x7f, 0xb4, 0x9e, 0xb1, 0x89, 0xb9, 0xb2, 0xaf, 0xa2, 0xa2, 0xc8, 0xa0,
  0x82, 0x9f, 0x9a, 0xa4, 0xb0, 0xa5, 0xb4, 0xa2, 0x9d, 0xae, 0xad, 0x94,
  0x91, 0xba, 0x9b, 0xae, 0xa2, 0xb1, 0x81, 0xa4, 0x80, 0xc0, 0xa7, 0xaa,
  0x7c, 0xaf, 0xae, 0xab, 0xa4, 0xa3, 0xb0, 0xa3, 0x98, 0xaa, 0x94, 0xa8,
  0xad, 0xaa, 0xb7, 0xa6, 0xa2, 0xad, 0xb8, 0x94, 0x7a, 0xa5, 0x9c, 0xb2,
  0xad, 0xad, 0x7e, 0xa7, 0x7b, 0xa8, 0xa4, 0xa1, 0x8c, 0xb9, 0xc1, 0xad,
  0xb0, 0xa9, 0xad, 0x9b, 0x96, 0xa9, 0x98, 0xa3, 0xb8, 0xa0, 0xb8, 0xaa,
  0xa1, 0xae, 0xae, 0x9a, 0x8c, 0xbc, 0xa1, 0xaa, 0xab, 0xaf, 0x7e, 0xa4,
  0x8f, 0xaf, 0xa2, 0xab, 0x9e, 0xb0, 0xba, 0xa5, 0xa5, 0xac, 0x9e, 0xa0,
  0xa1, 0xa1, 0x9d, 0xaa, 0xae, 0xa3, 0xc4, 0xa5, 0xa7, 0xa2, 0xb0, 0x8f,
  0xa6, 0xac, 0xa7, 0x9f, 0xac, 0xae, 0x81, 0xab, 0x92, 0xa9, 0xa9, 0xa3,
  0xab, 0xab, 0xae, 0xa6, 0xb1, 0xa5, 0xa7, 0x93, 0x94, 0x98, 0x94, 0x98,
  0xaa, 0x94, 0xa6, 0x91, 0xae, 0xa6, 0xa9, 0x9a, 0xa5, 0xb8, 0xad, 0xb0,
  0xae, 0xa8, 0x97, 0xad, 0x99, 0xaf, 0x92, 0x93, 0x6f, 0x90, 0xab, 0x98,
  0x92, 0x77, 0x98, 0x9a, 0xa1, 0x9a, 0x8f, 0x97, 0x90, 0x9a, 0xa0, 0x9a,
  0x88, 0x97, 0x9e, 0x71, 0x78, 0x96, 0x8d, 0x98, 0x95, 0x92, 0x7d, 0x99,
  0x83, 0x91, 0x9c, 0x8d, 0xa1, 0x9f, 0xb0, 0xa0, 0x9d, 0x9b, 0x9d, 0x9d,
  0xa4, 0xa0, 0xac, 0x9f, 0xa0, 0x9d, 0xa2, 0x9d, 0xa8, 0xa1, 0xa1, 0xba,
  0x9b, 0xa2, 0xb2, 0xa1, 0xa3, 0xa4, 0xb3, 0xa1, 0xa1, 0x9f, 0xa0, 0xa3,
  0x8f, 0x9a, 0x96, 0xa2, 0x99, 0x96, 0xa2, 0x9e, 0x9d, 0xa2, 0x94, 0x9b,
  0xa3, 0x9c, 0x9f, 0x9f, 0xa0, 0xa0, 0xac, 0x8f, 0x93, 0x96, 0xa6, 0x9e,
  0xa8, 0x9e, 0x92, 0x9b, 0x9f, 0xa1, 0x9f, 0x9b, 0x9d, 0x8e, 0xa8, 0xa4,
  0x9d, 0x96, 0x9e, 0x9e, 0xad, 0x96, 0x94, 0x96, 0x9e, 0xa4, 0xae, 0x90,
  0xad, 0xa3, 0x96, 0x8e, 0x9b, 0x9c, 0xbe, 0xbd, 0x95, 0xad, 0x72, 0x9d,
  0xa2, 0xa4, 0x95, 0x93, 0xa9, 0xab, 0xa9, 0xb0, 0xac, 0xa0, 0x7c, 0xac,
  0xb0, 0xa2, 0x85, 0xab, 0xaa, 0x9a, 0xaa, 0xa8, 0xb7, 0xa8, 0xad, 0x7c,
  0xa4, 0xa1, 0xb9, 0xb4, 0x8f, 0xac, 0x84, 0xa3, 0xac, 0xa5, 0xa9, 0x9a,
  0xb5, 0x90, 0xac, 0x9e, 0xaa, 0x9c, 0x61, 0xa4, 0xb6, 0xa2, 0x93, 0xa6,
  0xa8, 0xac, 0xab, 0x9f, 0xaf, 0xa8, 0xa1, 0x9a, 0xb2, 0x98, 0xb1, 0xb8,
  0xa1, 0xb9, 0x92, 0xa1, 0xba, 0x99, 0xa7, 0x99, 0xb5, 0xa9, 0xa2, 0xa3,
  0xac, 0xab, 0x8d, 0xb4, 0xa3, 0xa8, 0x8e, 0xad, 0xa7, 0xab, 0xa2, 0xa4,
  0xad, 0xa8, 0xac, 0x86, 0xb5, 0x9c, 0xa8, 0xaa, 0x9b, 0xb3, 0x85, 0xb3,
  0xaa, 0x9c, 0xa0, 0xa2, 0x96, 0x9d, 0x93, 0x97, 0x94, 0x8c, 0x9f, 0x9e,
  0x98, 0x95, 0x8e, 0x9a, 0xb5, 0x95, 0x9d, 0x9b, 0xb7, 0x96, 0xb1, 0x8a,
  0x96, 0xa5, 0xb3, 0xb9, 0x8f, 0xbd, 0x8d, 0x98, 0x7d, 0x95, 0x9f, 0x97,
  0x73, 0x8f, 0xbc, 0x8e, 0x97, 0x7d, 0xb9, 0x91, 0x81, 0x8b, 0x8c, 0x8d,
  0xae, 0x7d, 0xad, 0x94, 0xa3, 0x98, 0x9e, 0x99, 0x75, 0x9e, 0xa4, 0xb7,
  0x92, 0xbd, 0x8b, 0x93, 0x6a, 0x9d, 0x88, 0x82, 0x70, 0xaa, 0xc1, 0xab,
  0x98, 0x8b, 0xa5, 0x8c, 0xa1, 0x96, 0x98, 0x91, 0xa4, 0x88, 0xc5, 0x93,
  0x9c, 0xaa, 0x9c, 0x91, 0x65, 0xb0, 0x95, 0xb0, 0x79, 0xa9, 0x88, 0xa1,
  0x78, 0xae, 0x8b, 0x98, 0x90, 0xa1, 0xab, 0xac, 0x9a, 0x9f, 0x9e, 0x9a,
  0xae, 0x9d, 0x95, 0xa8, 0xaa, 0x9c, 0xa8, 0xa2, 0xa5, 0xa5, 0x9f, 0x95,
  0x83, 0xae, 0x95, 0xab, 0x98, 0x9d, 0x8d, 0xa1, 0x9d, 0xaa, 0xa0, 0xa2,
  0x87, 0xae, 0xba, 0xae, 0xa5, 0xa0, 0x8a, 0x9d, 0xb3, 0x9f, 0x9f, 0xa4,
  0xa4, 0x9a, 0xb6, 0xa8, 0xa3, 0xa4, 0xa8, 0x9e, 0x8c, 0xb1, 0xa4, 0xa9,
  0x98, 0xac, 0x87, 0x99, 0x92, 0xaa, 0xa8, 0x9f, 0x9b, 0xb2, 0xc0, 0xa6,
  0xab, 0x99, 0x9b, 0x9f, 0xad, 0xa6, 0x91, 0xa3, 0xb2, 0xa3, 0xbf, 0x9a,
  0xb3, 0xa3, 0xaf, 0x8f, 0x93, 0xac, 0xaa, 0xab, 0xa7, 0xad, 0x7b, 0xab,
  0x8a, 0xad, 0xaa, 0xa3, 0x93, 0xb2, 0xae, 0xad, 0xad, 0xa0, 0x9f, 0x9b,
  0x9e, 0x9b, 0x86, 0x9d, 0xad, 0x9e, 0xaf, 0x95, 0xaa, 0xaf, 0xae, 0x7e,
  0x9c, 0xa6, 0xa4, 0xab, 0xa8, 0xac, 0x8a, 0xa2, 0x7c, 0xa5, 0xa8, 0x96,
  0x9c, 0x95, 0x98, 0x9d, 0x97, 0x87, 0x9e, 0x9e, 0xa2, 0x9c, 0x7d, 0x9b,
  0xa7, 0xa3, 0x9e, 0xa0, 0x9a, 0x9a, 0xa1, 0x72, 0x9d, 0x95, 0x96, 0x95,
  0x92, 0x93, 0x71, 0xa1, 0x8c, 0x97, 0x9e, 0x90, 0x9f, 0xa1, 0xa1, 0xa2,
  0xa2, 0xa0, 0xa0, 0xa1, 0x9b, 0xa0, 0xa8, 0xa1, 0x9d, 0x9d, 0x94, 0xa0,
  0xa0, 0xa3, 0xa1, 0xad, 0x9e, 0x9f, 0x9a, 0xa0, 0xa6, 0xa3, 0xad, 0xa0,
  0x9e, 0xa0, 0xa2, 0xa0, 0x8e, 0x89, 0x95, 0x98, 0x83, 0x82, 0xa2, 0x98,
  0x95, 0x91, 0x9c, 0x8f, 0x9a, 0x92, 0x97, 0x9a, 0x9c, 0x94, 0x95, 0xa0,
  0x83, 0x86, 0xa3, 0x9f, 0xa0, 0xa0, 0x99, 0x9c, 0x8e, 0x8f, 0x92, 0x7f,
  0xa5, 0xa3, 0xb1, 0xa5, 0xb4, 0x99, 0x8c, 0x9a, 0xb1, 0x9f, 0x9e, 0x9b,
  0xa1, 0xab, 0xa8, 0x94, 0xb7, 0xa3, 0x95, 0x9d, 0xa0, 0xab, 0xbb, 0xb7,
  0x89, 0x9d, 0x89, 0x9a, 0xac, 0xad, 0x94, 0x9f, 0xaa, 0xaa, 0xaa, 0xa8,
  0xaf, 0xac, 0x78, 0xa4, 0xb0, 0xae, 0x82, 0xa6, 0xaa, 0xb1, 0xb5, 0xa5,
  0xb5, 0xa5, 0xa1, 0x7f, 0xb1, 0xa6, 0xb3, 0xbb, 0x85, 0xb8, 0x74, 0xb0,
  0xa8, 0xa5, 0xaa, 0xaf, 0xac, 0x9c, 0xb2, 0xa8, 0xac, 0xa9, 0x70, 0xb1,
  0xb2, 0xa6, 0x87, 0xaf, 0xa6, 0xad, 0xa4, 0xa8, 0xb0, 0xa9, 0xa2, 0x7c,
  0xb7, 0xa1, 0xb0, 0xb3, 0x8b, 0xb6, 0x7f, 0xa1, 0xad, 0x9d, 0xaa, 0xa3,
  0xa3, 0xa7, 0xab, 0xa3, 0xa6, 0x9c, 0x91, 0xa2, 0x9e, 0x9d, 0x92, 0xaa,
  0xb5, 0x9f, 0xa4, 0xa8, 0xb2, 0xa0, 0xb0, 0x90, 0x9b, 0xa5, 0xb0, 0xb6,
  0x9e, 0xb3, 0x93, 0xa5, 0x9c, 0xa3, 0xa8, 0xa0, 0x86, 0x9c, 0xa1, 0x90,
  0x8c, 0x96, 0x97, 0x9a, 0x9b, 0x99, 0x82, 0xa1, 0xb5, 0x8a, 0xa0, 0x9b,
  0xb9, 0x92, 0xb3, 0x83, 0x8a, 0x8c, 0xb0, 0xc5, 0xa6, 0xbf, 0x76, 0xa7,
  0x7e, 0x8b, 0x9d, 0x94, 0x7a, 0x91, 0x91, 0x8d, 0x98, 0x84, 0xbe, 0x7e,
  0x9c, 0x88, 0x7c, 0x7a, 0x9e, 0x77, 0x96, 0x83, 0xa1, 0x8f, 0x9f, 0x73,
  0x74, 0x90, 0x9b, 0xac, 0x9f, 0xb4, 0x74, 0x96, 0x84, 0x9b, 0x7a, 0x85,
  0x9c, 0x8a, 0xb7, 0x99, 0x8d, 0x91, 0xaf, 0x92, 0xad, 0x88, 0x8d, 0x8d,
  0xa3, 0x95, 0xb3, 0x82, 0x9a, 0x94, 0x8c, 0x8b, 0x86, 0x99, 0x96, 0xaa,
  0x8b, 0xa3, 0x7b, 0x8a, 0xa3, 0x94, 0x87, 0x81, 0x95, 0xa4, 0xaa, 0xa4,
  0x9d, 0x9f, 0x74, 0xa2, 0xa9, 0xa7, 0x94, 0x98, 0x9b, 0x9c, 0xa1, 0xa2,
  0x9c, 0x9e, 0x9b, 0x93, 0x93, 0xa6, 0xa3, 0xa2, 0x8e, 0xa0, 0x7c, 0x9d,
  0x8f, 0xa5, 0x9c, 0x9d, 0x9e, 0xaa, 0xb9, 0xa2, 0xa7, 0x9a, 0x92, 0xa5,
  0xa2, 0xa3, 0x99, 0xa2, 0xa1, 0x9b, 0xa9, 0xa5, 0xa5, 0xaa, 0x96, 0x8f,
  0xa2, 0xa9, 0x9e, 0xa7, 0x9f, 0xa9, 0x86, 0xa5, 0x9c, 0xab, 0x9c, 0xac,
  0x9e, 0xab, 0xbf, 0xa3, 0xb1, 0x9d, 0x86, 0x9b, 0xb0, 0x98, 0xa7, 0xa1,
  0xaa, 0xa9, 0xbf, 0x9d, 0xae, 0x9c, 0xa7, 0xa4, 0x98, 0xac, 0xa9, 0xa6,
  0xa2, 0xb4, 0x9f, 0xa1, 0x90, 0xab, 0x98, 0x97, 0xab, 0xa3, 0xaf, 0xa4,
  0x98, 0xa4, 0x9e, 0xa7, 0x9c, 0xa5, 0x95, 0xac, 0x9e, 0xa7, 0x99, 0xa9,
  0xa9, 0x9d, 0xad, 0x99, 0xac, 0xa9, 0xa2, 0xa8, 0xa6, 0xa9, 0x91, 0xa8,
  0x7e, 0xa1, 0xb4, 0xa9, 0x83, 0x96, 0xa0, 0x9c, 0x96, 0x96, 0xa1, 0x95,
  0xa9, 0x9d, 0x9b, 0x99, 0x9c, 0x9f, 0x9d, 0x9e, 0x93, 0x99, 0xa4, 0x99,
  0x74, 0x96, 0xa7, 0xa4, 0x92, 0xa3, 0xa4, 0x90, 0x83, 0x9e, 0x99, 0x96,
  0x9d, 0xa0, 0x9a, 0x9d, 0x9e, 0x9c, 0x9f, 0x9e, 0xa2, 0xa2, 0xa6, 0x9f,
  0xa1, 0x9e, 0x8e, 0x9f, 0xa2, 0x9b, 0x9f, 0xaa, 0xa1, 0x9e, 0x9b, 0xa1,
  0xa5, 0xa3, 0xab, 0x9f, 0x95, 0x9b, 0x9f, 0x9b, 0xa0, 0x80, 0x9e, 0x8e,
  0xa6, 0xa1, 0x9e, 0x98, 0xa3, 0x90, 0x95, 0x8f, 0x9a, 0x95, 0xa8, 0x8b,
  0x95, 0x99, 0x93, 0x9c, 0xa1, 0x89, 0x9a, 0x9c, 0x91, 0x96, 0x95, 0x87,
  0xa7, 0x8e, 0x9c, 0x8d, 0xba, 0xa5, 0xb1, 0xa8, 0xa0, 0x9f, 0x9a, 0xa2,
  0xad, 0xa0, 0xa2, 0xad, 0xac, 0xaa, 0xa2, 0x9a, 0xbc, 0xa8, 0xa0, 0xa3,
  0xc2, 0xa9, 0xba, 0xc2, 0x98, 0xa7, 0x9f, 0xa6, 0xb4, 0xa1, 0x9b, 0xa2,
  0xa6, 0xa7, 0xae, 0xa7, 0xa8, 0xae, 0x91, 0xae, 0xa4, 0xa4, 0xa6, 0xa1,
  0xac, 0xa4, 0xab, 0x9f, 0xb3, 0xa3, 0xb1, 0xa0, 0xac, 0xa5, 0xb4, 0xaf,
  0x9a, 0xad, 0x9e, 0xab, 0xa8, 0xa7, 0xa1, 0xa0, 0xa5, 0xa7, 0xaa, 0xa9,
  0xb3, 0xa3, 0x8f, 0xab, 0xac, 0xac, 0x88, 0xab, 0xb5, 0xa3, 0xad, 0xa9,
  0xb7, 0xa7, 0xa8, 0x8a, 0xa3, 0xa6, 0xb4, 0xad, 0xa2, 0xb6, 0x67, 0xa1,
  0xa3, 0xa7, 0xa6, 0xa7, 0xa1, 0x9e, 0x99, 0x9c, 0xab, 0x99, 0x8a, 0xa4,
  0x9e, 0x9f, 0x7c, 0xa2, 0xad, 0xa2, 0x9d, 0xa3, 0xb2, 0x9f, 0xac, 0x6c,
  0xa1, 0x8a, 0xb4, 0xb9, 0x9e, 0xaa, 0x71, 0xa7, 0xa3, 0x91, 0xa5, 0xa0,
  0x91, 0x86, 0x9a, 0x83, 0x98, 0x8f, 0xa3, 0x8d, 0xb7, 0x8a, 0x84, 0x93,
  0xb1, 0x8e, 0x9c, 0x91, 0xb9, 0x84, 0xa9, 0x7a, 0xa2, 0x82, 0xb7, 0xc8,
  0xab, 0xb9, 0x88, 0x93, 0x92, 0x8d, 0x91, 0x94, 0x9a, 0x89, 0xa3, 0x95,
  0x9d, 0x8e, 0xa7, 0x9a, 0xa9, 0x8c, 0x6f, 0x8a, 0x93, 0x8b, 0xaa, 0x90,
  0x8b, 0x8d, 0x8e, 0x6b, 0x97, 0x96, 0x8a, 0x9f, 0x8d, 0xa4, 0x70, 0x81,
  0xa0, 0x87, 0x85, 0x87, 0xaa, 0x8e, 0xa4, 0x91, 0x88, 0x9a, 0x9f, 0x95,
  0xa7, 0x93, 0x83, 0x9c, 0x9e, 0x92, 0xa3, 0x96, 0x9c, 0x8c, 0x8d, 0x7c,
  0xa0, 0x92, 0xa7, 0xa9, 0x93, 0xa6, 0x7e, 0x8a, 0xa0, 0x93, 0x94, 0x95,
  0x9b, 0x96, 0xb7, 0x96, 0x99, 0x9f, 0x7b, 0x9c, 0xbd, 0x9a, 0x9d, 0x95,
  0x8d, 0x9a, 0xaa, 0x96, 0xa6, 0x9e, 0x92, 0x9d, 0x93, 0xa0, 0xa6, 0xa6,
  0x87, 0x9b, 0xa0, 0x98, 0xaa, 0x90, 0x97, 0x98, 0x9e, 0xa9, 0xae, 0xa6,
  0x99, 0x92, 0x8e, 0x9e, 0xab, 0xa3, 0xa3, 0xa0, 0x9f, 0x99, 0xa8, 0x9e,
  0xa0, 0x9d, 0x97, 0x9c, 0x9f, 0xae, 0xa6, 0x9e, 0x9a, 0x9b, 0x9f, 0xa6,
  0xa0, 0xac, 0xa1, 0x9b, 0xa5, 0x9e, 0xae, 0x9d, 0xa1, 0x8d, 0x95, 0xa9,
  0xab, 0xa3, 0x98, 0xa5, 0xa0, 0xab, 0xb1, 0xab, 0xa3, 0x98, 0xa3, 0x99,
  0x9b, 0x9e, 0xa7, 0xa1, 0x8b, 0xab, 0xa0, 0x98, 0xa8, 0x95, 0xa6, 0x9a,
  0x77, 0xac, 0x9c, 0x9d, 0x93, 0x80, 0x99, 0x99, 0xa5, 0xa1, 0x90, 0xa6,
  0xac, 0x98, 0x9a, 0xa3, 0xab, 0x9c, 0xab, 0x9b, 0x89, 0xa2, 0xa9, 0xa7,
  0xa8, 0xad, 0xa1, 0xa4, 0x82, 0xa8, 0xa3, 0xa1, 0x80, 0x8d, 0xad, 0x9b,
  0x89, 0x87, 0xa2, 0x92, 0xa4, 0x90, 0x86, 0x92, 0x8d, 0x8d, 0xb2, 0x93,
  0x8f, 0x8f, 0x86, 0x8d, 0x8e, 0x9a, 0x8a, 0x8c, 0x8e, 0x81, 0x8c, 0x8b,
  0x9d, 0x8c, 0x93, 0x8e, 0xa2, 0xa2, 0x97, 0x9f, 0x9d, 0x9d, 0xa4, 0x9e,
  0x9a, 0x9f, 0xa2, 0xa4, 0xa0, 0xa0, 0x95, 0xa0, 0xa1, 0x9d, 0xa1, 0xa9,
  0x9d, 0x9e, 0xa3, 0xa0, 0xaf, 0x9d, 0xa3, 0xa0, 0x98, 0x9c, 0xa1, 0xa2,
  0x8a, 0x7e, 0xa0, 0x9f, 0x9b, 0xad, 0xa6, 0x9b, 0xaa, 0x96, 0x9a, 0x92,
  0xa1, 0x9f, 0x9d, 0x86, 0xb3, 0x9f, 0x98, 0xa0, 0x99, 0x8f, 0xac, 0xa4,
  0x9d, 0xa1, 0x93, 0x97, 0xa2, 0xa1, 0x97, 0x89, 0xa1, 0xa9, 0xa5, 0xa0,
  0x98, 0xa8, 0x99, 0xa0, 0xa3, 0x9e, 0xa8, 0xa6, 0xbb, 0xa2, 0xa5, 0x9e,
  0xa7, 0xa0, 0xb5, 0xa7, 0x9d, 0xa4, 0x96, 0xaa, 0x9a, 0xaf, 0xa4, 0xaa,
  0xa5, 0xa7, 0xa7, 0xa3, 0x9a, 0xa4, 0x9d, 0xa5, 0xa4, 0xac, 0x9d, 0xae,
  0x9a, 0xa6, 0x98, 0xa3, 0x9d, 0xa2, 0xae, 0x9d, 0x99, 0xaf, 0x9c, 0x9a,
  0x95, 0xab, 0xa0, 0xaa, 0x94, 0x9c, 0x8f, 0x99, 0x9a, 0xa3, 0xa6, 0xa4,
  0x90, 0xa7, 0xb2, 0xa0, 0xa0, 0xab, 0x8f, 0xa1, 0x9a, 0xb2, 0xab, 0x9d,
  0xaf, 0xa8, 0xaa, 0xa9, 0xb8, 0xa1, 0xb6, 0xa6, 0x94, 0xa7, 0xb1, 0xb5,
  0xa9, 0xbb, 0x92, 0xa5, 0x94, 0xa8, 0xa0, 0xa5, 0xa0, 0xaa, 0xb4, 0xa2,
  0x9e, 0x9b, 0x9c, 0x99, 0xab, 0x9c, 0x9b, 0xa5, 0xb6, 0xa1, 0xac, 0xa1,
  0xc1, 0xa2, 0xa1, 0x9e, 0xa2, 0xb0, 0xbf, 0xc5, 0xa2, 0xb2, 0x8f, 0xa5,
  0x9b, 0xa4, 0x9a, 0xa1, 0x9d, 0x8b, 0xb8, 0x93, 0xaa, 0x9a, 0xaa, 0x8d,
  0xc5, 0x96, 0x8e, 0x9b, 0xa8, 0x97, 0xa1, 0x9a, 0xa6, 0x9a, 0xae, 0x88,
  0x98, 0x84, 0x9f, 0xa9, 0xb3, 0xaf, 0x90, 0xa8, 0xa3, 0x84, 0x9f, 0x97,
  0xae, 0x86, 0xa4, 0x92, 0x99, 0x98, 0xb5, 0x91, 0xa9, 0x97, 0xa3, 0x9e,
  0x9c, 0x98, 0xa0, 0x90, 0x9a, 0x8f, 0x93, 0xa3, 0xb3, 0x92, 0x9e, 0x99,
  0xa7, 0x9b, 0xa3, 0x91, 0xa9, 0x8b, 0x95, 0x9b, 0xa7, 0x90, 0xa9, 0x95,
  0x9c, 0x9e, 0x86, 0x90, 0xb1, 0x93, 0xaa, 0x8f, 0x95, 0x9b, 0xa0, 0x94,
  0xa4, 0x8d, 0x8a, 0xb0, 0xa1, 0x94, 0xb0, 0xaf, 0x93, 0x9e, 0xb1, 0x8e,
  0xa5, 0x95, 0x85, 0x99, 0xb9, 0x81, 0x9c, 0x92, 0x94, 0x95, 0x84, 0xa1,
  0x9c, 0x9b, 0xa0, 0xa0, 0x90, 0x9d, 0x96, 0x98, 0x9f, 0x95, 0x98, 0x9f,
  0xa7, 0x7d, 0xaa, 0xa6, 0x92, 0x95, 0xa8, 0x95, 0xad, 0x8a, 0x97, 0x96,
  0x9f, 0x8e, 0xaf, 0x94, 0x82, 0x9e, 0x96, 0x97, 0xaa, 0x98, 0xa4, 0x9e,
  0x9d, 0x9e, 0xa2, 0x94, 0xa2, 0x92, 0x9e, 0x9f, 0x96, 0xac, 0xa3, 0xa1,
  0x95, 0x9a, 0xa9, 0x91, 0xa4, 0x91, 0x9d, 0x9d, 0x9c, 0x97, 0x93, 0x9a,
  0x9d, 0x9a, 0x89, 0xa6, 0xa0, 0xa3, 0xa2, 0xa7, 0x9e, 0xa5, 0x90, 0x9b,
  0xa7, 0x95, 0x9d, 0x9f, 0x98, 0x93, 0xa5, 0xa5, 0x84, 0x9c, 0xa7, 0xa2,
  0x9b, 0x93, 0xa2, 0x9f, 0x7c, 0x98, 0x8d, 0x94, 0xa7, 0x8e, 0x9a, 0xa1,
  0x9c, 0xa1, 0x9a, 0xa4, 0x9d, 0x97, 0x8c, 0xa0, 0x9f, 0x91, 0x9d, 0x9e,
  0x7f, 0x8c, 0x9b, 0xa4, 0x9c, 0x9f, 0x98, 0x9e, 0x7c, 0x90, 0xa4, 0x9f,
  0x81, 0x96, 0xae, 0xa2, 0x94, 0x9c, 0xa0, 0x94, 0x9b, 0x9a, 0xad, 0x93,
  0x8d, 0x8b, 0xb0, 0x9b, 0x88, 0x94, 0x89, 0xa4, 0x7b, 0xa4, 0x97, 0x7e,
  0x8f, 0x8b, 0xa0, 0x97, 0x90, 0x94, 0x94, 0x91, 0xa0, 0xa5, 0x9a, 0xa1,
  0x94, 0x98, 0xa5, 0x9a, 0x93, 0xa1, 0x9a, 0xa2, 0xa0, 0x91, 0x96, 0xa0,
  0xa2, 0x9a, 0xa2, 0xa0, 0x98, 0x9c, 0xaa, 0xa1, 0xa3, 0xa4, 0xad, 0xa1,
  0x8d, 0x97, 0xa0, 0xa2, 0x97, 0x9c, 0x9e, 0x9b, 0x90, 0x99, 0xa1, 0x98,
  0x96, 0x94, 0xa1, 0x99, 0x9d, 0x9d, 0xa7, 0x96, 0xa9, 0x9e, 0xa9, 0xa6,
  0x9f, 0x9e, 0xae, 0xad, 0xa6, 0xad, 0x97, 0x98, 0x96, 0x9c, 0x93, 0x94,
  0x8a, 0xa5, 0xa0, 0x9f, 0x9f, 0x93, 0xa4, 0x9c, 0x91, 0xa0, 0x98, 0x9a,
  0xaa, 0x94, 0x9c, 0xa6, 0x8c, 0xad, 0xab, 0x97, 0x81, 0xa6, 0x8c, 0xa3,
  0x9a, 0xb3, 0x8f, 0xb9, 0x91, 0xa8, 0xa2, 0xa5, 0x82, 0x9d, 0xab, 0xa4,
  0x93, 0x92, 0xb6, 0xa3, 0xa5, 0x9f, 0x8e, 0xa1, 0xa8, 0x9f, 0xa5, 0x9b,
  0x96, 0xae, 0xa0, 0x92, 0x89, 0xa9, 0xa3, 0xa6, 0xa4, 0xa0, 0x96, 0x9d,
  0x94, 0xa9, 0xa7, 0x95, 0x7a, 0xab, 0xb0, 0x9b, 0xad, 0x9a, 0x8a, 0x9b,
  0x88, 0xa3, 0x9a, 0x9c, 0xad, 0xa4, 0xa0, 0xa1, 0xa3, 0x9e, 0xa7, 0x8f,
  0x8b, 0x9d, 0xa7, 0xb2, 0x9b, 0xa7, 0x90, 0xab, 0x8b, 0xa2, 0xa3, 0xa5,
  0x98, 0xa8, 0xc1, 0xa5, 0xab, 0x9e, 0x89, 0xa2, 0x6b, 0xa4, 0xa7, 0xa3,
  0xa1, 0x9e, 0xc9, 0xa8, 0x9c, 0xa7, 0xaf, 0xac, 0x9e, 0xb2, 0x94, 0xa7,
  0xab, 0xae, 0x9d, 0xa1, 0x8e, 0xa5, 0xa1, 0xa4, 0xa3, 0xa4, 0x8b, 0xa0,
  0xa9, 0x9f, 0x96, 0x9c, 0x83, 0xa2, 0x9c, 0xa4, 0x99, 0x9f, 0x89, 0xa4,
  0xa7, 0x9e, 0xa9, 0xa0, 0xa5, 0x96, 0x9c, 0x9e, 0xa6, 0xa7, 0xaa, 0xa3,
  0x9d, 0x98, 0xaa, 0xa6, 0xb0, 0x8e, 0x8a, 0x92, 0xa3, 0x9c, 0x89, 0xa6,
  0xa5, 0x99, 0x9f, 0xa2, 0x86, 0x98, 0x87, 0xa1, 0x8e, 0x93, 0x90, 0xa5,
  0xa7, 0x7b, 0xa4, 0x87, 0x8f, 0x8e, 0xaa, 0x9d, 0x9f, 0x84, 0xa8, 0x94,
  0xb1, 0x7f, 0x8c, 0x99, 0x92, 0xa1, 0xa0, 0x9d, 0x93, 0xa8, 0x9e, 0x9f,
  0x82, 0xa8, 0x87, 0x99, 0x95, 0x90, 0x88, 0x98, 0xae, 0x83, 0x9b, 0x98,
  0x99, 0x93, 0xa6, 0x9c, 0xa4, 0x82, 0x99, 0x9c, 0xa1, 0x7c, 0x7c, 0x88,
  0x90, 0x93, 0x82, 0xa0, 0xac, 0x9d, 0x9b, 0x9a, 0x7f, 0xa0, 0x7b, 0x9d,
  0x95, 0x9e, 0x96, 0x9e, 0x97, 0x89, 0x9a, 0x8f, 0x6c, 0x96, 0xa7, 0x9a,
  0x9b, 0x81, 0xa4, 0x8f, 0xa7, 0x8d, 0x8c, 0x92, 0xa2, 0x8d, 0x9c, 0x92,
  0xa8, 0x8b, 0x9b, 0x8d, 0x8d, 0x9e, 0x82, 0x8c, 0x93, 0x99, 0x99, 0x9c,
  0x9b, 0x89, 0x9e, 0x99, 0x7d, 0x9a, 0xa3, 0x92, 0xad, 0x92, 0x8f, 0x90,
  0xa9, 0x85, 0x81, 0x8a, 0x9f, 0x8b, 0xaa, 0xa9, 0xa5, 0xa7, 0x8d, 0xae,
  0x95, 0x9a, 0x79, 0xa8, 0x9d, 0x8c, 0x91, 0x8c, 0x9f, 0x7e, 0x9d, 0x91,
  0x83, 0x93, 0x9a, 0x9e, 0xa0, 0x81, 0xaa, 0x93, 0x9c, 0x8f, 0x8f, 0x8f,
  0x88, 0x82, 0x9b, 0x9c, 0x9c, 0x8f, 0x9d, 0x91, 0x9d, 0x91, 0x90, 0x90,
  0x9f, 0x8f, 0x99, 0x9c, 0x92, 0x89, 0x97, 0x97, 0x96, 0xa1, 0xa0, 0x98,
  0xae, 0x90, 0x91, 0x8d, 0xa0, 0xa1, 0xae, 0xa1, 0x8a, 0x92, 0xa2, 0x9a,
  0x9b, 0x9d, 0x98, 0x9d, 0x87, 0x98, 0x9f, 0x9c, 0x86, 0x99, 0x8f, 0x8a,
  0x92, 0xa1, 0x8a, 0x83, 0x9d, 0x85, 0x92, 0x9e, 0xb5, 0x99, 0x9a, 0x9b,
  0x94, 0x9e, 0x8a, 0x9e, 0xa1, 0x9e, 0xa2, 0x9f, 0x9d, 0xa1, 0x90, 0x9c,
  0x9e, 0xa0, 0x8e, 0xa0, 0xa0, 0x9e, 0x9f, 0x96, 0x9d, 0x97, 0xa5, 0x9d,
  0xa7, 0xa1, 0x90, 0xa1, 0x9c, 0x9f, 0xa1, 0x9e, 0x99, 0x99, 0x8d, 0x98,
  0x8e, 0x8b, 0x91, 0x9c, 0x9d, 0x9c, 0x8d, 0x9d, 0xa1, 0xa2, 0x89, 0x9d,
  0x98, 0x8e, 0x97, 0x8c, 0x94, 0x93, 0x8d, 0xa1, 0xa6, 0xa2, 0x9b, 0x9d,
  0x8c, 0x95, 0x99, 0x97, 0x97, 0x87, 0xa5, 0x9d, 0x96, 0x8c, 0xa2, 0x9e,
  0x9a, 0x99, 0xa3, 0x92, 0xa2, 0xa5, 0xa9, 0x8e, 0x90, 0xab, 0x9a, 0xa2,
  0x81, 0x97, 0x8e, 0x99, 0x9d, 0xa3, 0x98, 0x95, 0x98, 0x9f, 0x99, 0x92,
  0x96, 0xaa, 0xa5, 0xaa, 0x9f, 0xa6, 0xa5, 0xa8, 0x89, 0xaa, 0xa1, 0xaa,
  0xab, 0xa4, 0xa7, 0xae, 0x91, 0xa8, 0xaf, 0xa0, 0x8f, 0xac, 0x90, 0x98,
  0xb9, 0xa0, 0x94, 0xb2, 0x76, 0xae, 0xa5, 0xb2, 0x81, 0xb4, 0xa0, 0xa9,
  0xa7, 0xa7, 0xb4, 0xa1, 0x71, 0xa9, 0xa7, 0xa5, 0xb3, 0xaa, 0x9e, 0xa8,
  0x96, 0xa3, 0xad, 0xa4, 0x86, 0xa2, 0x8f, 0x93, 0xba, 0xa6, 0x91, 0xac,
  0x7b, 0xae, 0xaa, 0xa8, 0x9a, 0xad, 0xaa, 0x97, 0xa3, 0xa3, 0xb7, 0xa5,
  0x61, 0xa2, 0xaa, 0xa5, 0xa2, 0xa6, 0xac, 0xa3, 0xa0, 0x96, 0xa7, 0xa9,
  0x9b, 0xa2, 0x94, 0x98, 0xc1, 0xab, 0x9c, 0xaf, 0x87, 0x9e, 0xa9, 0xa4,
  0xa4, 0xb5, 0x9d, 0xa8, 0xbb, 0xac, 0xaf, 0x9c, 0x59, 0xa7, 0xaa, 0xa5,
  0x8e, 0xa7, 0xa9, 0xa4, 0x97, 0xa4, 0xad, 0xa8, 0xa7, 0xa0, 0x99, 0x96,
  0xb0, 0xa3, 0x9e, 0x9a, 0xa0, 0xaa, 0xa7, 0xa9, 0xab, 0xab, 0x5c, 0xa2,
  0xa4, 0xb4, 0xa3, 0xae, 0x6d, 0xb2, 0xa7, 0xae, 0x73, 0xb2, 0x68, 0xae,
  0x80, 0xa6, 0x7d, 0xa3, 0xb1, 0x99, 0x8e, 0x80, 0x8b, 0x7d, 0xa9, 0x98,
  0xa4, 0xa3, 0xab, 0xaf, 0xae, 0x9e, 0x4e, 0x95, 0xa3, 0xac, 0xab, 0xb1,
  0x9a, 0xbc, 0x9e, 0xad, 0x82, 0xae, 0x50, 0xbc, 0x95, 0x9a, 0x82, 0xa3,
  0xaa, 0x92, 0x94, 0x95, 0x79, 0x8d, 0xa6, 0x93, 0x9b, 0xa4, 0xb3, 0xb7,
  0xac, 0x86, 0x67, 0x83, 0x8f, 0xa5, 0xa6, 0xa7, 0xb2, 0xa5, 0x9e, 0xa7,
  0x93, 0xb2, 0x57, 0x9d, 0x9c, 0x86, 0x91, 0x9a, 0xaf, 0x7b, 0x9a, 0x99,
  0x67, 0x99, 0xa2, 0x97, 0xb2, 0x91, 0xa1, 0xa5, 0xaf, 0x8b, 0x5b, 0x99,
  0x8d, 0xa4, 0x9a, 0xb1, 0xaa, 0xa0, 0x9c, 0xa3, 0x7e, 0xab, 0x59, 0x96,
  0x8c, 0x8d, 0x82, 0xa0, 0xaa, 0x8e, 0x96, 0x8b, 0x6c, 0x83, 0x9c, 0x95,
  0xb2, 0x93, 0x90, 0xa8, 0x9a, 0x9e, 0x7b, 0x92, 0xa3, 0x98, 0x9d, 0xad,
  0xa6, 0xa7, 0xa3, 0xb6, 0x96, 0x9c, 0x79, 0xae, 0x9d, 0xa0, 0x91, 0x9b,
  0x9e, 0x94, 0xa5, 0x9b, 0x77, 0x97, 0xa6, 0xad, 0x95, 0x9e, 0xa8, 0xab,
  0x94, 0x87, 0xb4, 0x9a, 0x98, 0x8e, 0x9f, 0x95, 0xa1, 0x91, 0x9c, 0x90,
  0x94, 0x92, 0xa8, 0x90, 0x92, 0x98, 0x92, 0x96, 0x9c, 0x85, 0x95, 0x94,
  0x93, 0x92, 0x9f, 0x86, 0x9b, 0x8a, 0x8d, 0x92, 0x9a, 0xa6, 0xa6, 0xa4,
  0xa0, 0x9c, 0xa8, 0xa0, 0x96, 0xa0, 0xb4, 0xa3, 0x9c, 0xa1, 0xac, 0xa0,
  0xad, 0xa1, 0x9e, 0xaf, 0x98, 0xb2, 0xa8, 0xa5, 0x9c, 0xa5, 0xa9, 0xa3,
  0xa2, 0xa4, 0x9f, 0xa2, 0xa1, 0xa4, 0x9f, 0xa5, 0xa4, 0xa0, 0xaa, 0xa0,
  0x9e, 0x9f, 0xa6, 0x9f, 0x9e, 0xa1, 0x9c, 0xa2, 0xa1, 0x9f, 0xa0, 0xaf,
  0xa0, 0x9e, 0x9a, 0xa2, 0xa8, 0xa4, 0xa6, 0x9e, 0xa4, 0xa0, 0x9e, 0xa2,
  0x9c, 0x9e, 0x80, 0x9f, 0x9f, 0x9b, 0xab, 0x9c, 0xa3, 0x9d, 0x8e, 0x98,
  0x9f, 0x9f, 0x91, 0x9c, 0xa3, 0x9c, 0xa2, 0x84, 0xa6, 0x97, 0xa1, 0xa0,
  0xa7, 0xa0, 0x92, 0x9d, 0x9d, 0x9b, 0x9c, 0xa1, 0xa7, 0x9a, 0x94, 0x98,
  0x8f, 0xa8, 0xa3, 0x92, 0xa0, 0x97, 0x98, 0xaa, 0xa3, 0xa4, 0x8e, 0x9d,
  0xa0, 0x8d, 0xa2, 0x96, 0xa8, 0x9c, 0xa2, 0xa7, 0xa5, 0x9f, 0x9c, 0xa5,
  0x9a, 0x98, 0x97, 0xab, 0x79, 0x9f, 0x9a, 0x98, 0x95, 0x9c, 0x9c, 0x93,
  0x9f, 0xa4, 0x9f, 0x99, 0x96, 0x95, 0x95, 0xa0, 0x81, 0x9f, 0x9f, 0x9c,
  0x86, 0x9e, 0x94, 0x87, 0xa1, 0x91, 0x9c, 0x93, 0x78, 0x9b, 0x8e, 0x9a,
  0x82, 0x9f, 0x99, 0x9d, 0xa0, 0x9e, 0x9e, 0x94, 0x98, 0x9a, 0xa7, 0x9f,
  0x9b, 0x97, 0x8b, 0xa0, 0x8e, 0xa4, 0x98, 0xa4, 0x76, 0x97, 0x97, 0x7f,
  0xa6, 0x77, 0xa5, 0x9e, 0x73, 0x9f, 0x97, 0x91, 0x76, 0x9d, 0x98, 0x8c,
  0xb2, 0x88, 0xa2, 0x91, 0x89, 0x97, 0x9e, 0x86, 0x7f, 0x83, 0x8f, 0x95,
  0x87, 0x9d, 0x8e, 0xa2, 0x64, 0x99, 0x95, 0x8f, 0xa5, 0x7a, 0xa2, 0x90,
  0x74, 0x8b, 0x96, 0x85, 0x8c, 0xa0, 0xa3, 0xa4, 0xab, 0x88, 0x9a, 0x8e,
  0x86, 0xa4, 0xa3, 0x99, 0x70, 0x8a, 0xa7, 0xa3, 0x8a, 0x99, 0x76, 0xa4,
  0x8a, 0xa7, 0x94, 0x8c, 0x85, 0x81, 0xa9, 0x84, 0x88, 0x9a, 0x9d, 0x90,
  0x94, 0x90, 0x64, 0x9f, 0x9b, 0xa3, 0xab, 0xa6, 0xa2, 0xa8, 0x9f, 0xa8,
  0x6d, 0xab, 0x6f, 0xa3, 0x90, 0xac, 0x66, 0xa8, 0xa3, 0xa8, 0x95, 0x73,
  0x5c, 0x69, 0xaa, 0x8b, 0x90, 0xad, 0x9d, 0xa3, 0x98, 0x97, 0x5b, 0x90,
  0xad, 0x93, 0xaa, 0x9a, 0xa3, 0xa3, 0xab, 0x9b, 0x69, 0xa1, 0x73, 0x9d,
  0x94, 0xba, 0x64, 0xb0, 0x9b, 0xa0, 0x9d, 0x88, 0x56, 0x72, 0xb6, 0x8d,
  0x8d, 0xa9, 0x90, 0xa4, 0x85, 0x8b, 0x61, 0x99, 0xa8, 0x88, 0xa8, 0x8b,
  0xa6, 0x91, 0x9c, 0x8d, 0x93, 0x80, 0x6a, 0x8d, 0x92, 0xa4, 0x8a, 0xaa,
  0x88, 0x95, 0x9b, 0x9e, 0x6b, 0x8a, 0xa7, 0x8e, 0x90, 0x9c, 0x8b, 0x92,
  0x97, 0x89, 0x6a, 0x92, 0x90, 0x7c, 0xa4, 0x95, 0xa7, 0x92, 0x91, 0x94,
  0x76, 0x92, 0x6d, 0x90, 0x7e, 0xa6, 0x74, 0x8d, 0x98, 0x9d, 0x83, 0x7e,
  0x80, 0x79, 0x91, 0x85, 0x8a, 0xa4, 0x8f, 0x85, 0x8f, 0x8d, 0x80, 0x8c,
  0x99, 0x80, 0xac, 0x96, 0xa7, 0x94, 0x92, 0x92, 0x7a, 0x90, 0x83, 0x92,
  0x8b, 0xa0, 0x79, 0x8a, 0x8c, 0x9d, 0x9a, 0x99, 0x8b, 0x81, 0x97, 0x8f,
  0x96, 0x91, 0x8f, 0x88, 0x91, 0x8a, 0xa4, 0x9d, 0x8d, 0x90, 0x9c, 0x96,
  0x9c, 0x95, 0x93, 0x91, 0x85, 0x99, 0x90, 0x9a, 0x87, 0x93, 0x89, 0x84,
  0x93, 0x8b, 0x8c, 0x8d, 0x9f, 0x8a, 0x8d, 0x8e, 0xa0, 0x8f, 0x90, 0x90,
  0x9e, 0xa3, 0x9c, 0xa2, 0x9e, 0xa2, 0x9d, 0xa2, 0xa2, 0xa1, 0xa3, 0xa2,
  0x9d, 0xa3, 0x9b, 0xa0, 0x9f, 0xa1, 0xa1, 0xad, 0xa3, 0xa1, 0xa8, 0xa1,
  0xa3, 0xa0, 0xa6, 0x9f, 0xa5, 0xa0, 0xa1, 0xa1, 0x9d, 0x9d, 0xa0, 0xa0,
  0xa1, 0x9c, 0x99, 0xa0, 0x9f, 0xa2, 0xa4, 0xa0, 0x9f, 0xa2, 0xa1, 0xa3,
  0xa3, 0xa4, 0xa1, 0xb2, 0x9c, 0xa3, 0xa4, 0x9d, 0xa7, 0xa1, 0xa8, 0xa3,
  0xa2, 0x9f, 0x9e, 0x9f, 0xa0, 0x9f, 0xa2, 0x9f, 0xa4, 0xa1, 0xa3, 0xa1,
  0x9f, 0xa0, 0xa3, 0x9f, 0xa2, 0x9e, 0x9b, 0x9f, 0xa2, 0x9f, 0xa2, 0xac,
  0x9e, 0xa0, 0xa5, 0xa2, 0xa9, 0xa4, 0xa9, 0xa2, 0xa0, 0xa2, 0x9f, 0xa2,
  0x8c, 0x9b, 0x7a, 0x95, 0x9c, 0x98, 0xa2, 0x97, 0x9c, 0x98, 0x8c, 0x98,
  0xa1, 0x94, 0x72, 0x9d, 0xa0, 0x96, 0x9d, 0x7a, 0x98, 0x7a, 0x9f, 0x9c,
  0xa9, 0xa2, 0x8d, 0x9f, 0x98, 0x8f, 0x9d, 0x97, 0x97, 0x7f, 0x74, 0x8d,
  0x79, 0x90, 0xa3, 0x9a, 0xa3, 0x91, 0x84, 0x94, 0x93, 0x92, 0x82, 0x97,
  0x77, 0x83, 0x98, 0x80, 0x96, 0x7f, 0x82, 0x86, 0xaa, 0x7f, 0x81, 0x93,
  0x99, 0x7d, 0x97, 0x92, 0x7c, 0x8a, 0x81, 0x93, 0x90, 0x91, 0xa7, 0x92,
  0xa7, 0x92, 0x81, 0x96, 0x94, 0x8d, 0x88, 0x95, 0x7f, 0x97, 0x8d, 0x79,
  0x91, 0x89, 0x82, 0x91, 0xa7, 0x8d, 0x8e, 0x94, 0x8c, 0x8c, 0x93, 0x8c,
  0x82, 0x85, 0x7d, 0x97, 0x7e, 0x88, 0x9e, 0x95, 0xa5, 0x8a, 0x7e, 0x91,
  0x85, 0x8d, 0x80, 0x94, 0x72, 0x96, 0x81, 0x7a, 0x8e, 0x8b, 0x82, 0x6d,
  0xa3, 0x67, 0x89, 0x88, 0x92, 0x9b, 0x92, 0x84, 0x85, 0x87, 0x6d, 0x90,
  0x85, 0x89, 0xaa, 0x96, 0xa2, 0x90, 0x7a, 0x90, 0x82, 0x8a, 0x73, 0x95,
  0x7e, 0x91, 0x89, 0x80, 0x8a, 0x85, 0x82, 0x83, 0xa8, 0x6f, 0x82, 0x7f,
  0x8e, 0x9d, 0x91, 0x88, 0x82, 0x7f, 0x66, 0x90, 0x84, 0x87, 0xa0, 0x92,
  0xaa, 0x8f, 0x72, 0x89, 0x88, 0x88, 0x68, 0x94, 0x84, 0x85, 0x86, 0x73,
  0x87, 0x84, 0x88, 0x84, 0xa3, 0x7a, 0x7f, 0x88, 0x90, 0x8b, 0x92, 0x87,
  0x87, 0x82, 0x7f, 0x94, 0x85, 0x8c, 0xb3, 0x94, 0xa9, 0x8d, 0x73, 0x8f,
  0x82, 0x93, 0x81, 0x96, 0x78, 0x8c, 0x81, 0x6f, 0x8f, 0x7a, 0x7d, 0x7c,
  0x98, 0x73, 0x6c, 0x90, 0x9a, 0x86, 0x92, 0x86, 0x94, 0x7e, 0x84, 0x92,
  0x83, 0x8e, 0xa7, 0x97, 0xa4, 0x8c, 0x82, 0x96, 0x85, 0x97, 0x77, 0x97,
  0x79, 0x84, 0x87, 0x77, 0x97, 0x7b, 0x84, 0x85, 0xa7, 0x7e, 0x7c, 0x95,
  0x92, 0x86, 0x92, 0x92, 0x93, 0x89, 0x83, 0x96, 0x87, 0x8f, 0xa7, 0x9a,
  0xa8, 0x93, 0x86, 0x97, 0x8c, 0x91, 0x83, 0x9a, 0x82, 0x95, 0x8b, 0x7a,
  0x91, 0x85, 0x7c, 0x81, 0xa4, 0x89, 0x80, 0x94, 0x9b, 0x8d, 0x96, 0x8c,
  0x9e, 0x97, 0x95, 0xa0, 0x90, 0x94, 0xa1, 0x9a, 0xa2, 0x99, 0x92, 0x9a,
  0x87, 0x9c, 0x91, 0x96, 0x8c, 0x97, 0x8b, 0x81, 0x98, 0x8d, 0x84, 0x87,
  0xa0, 0x88, 0x89, 0x9a, 0x9f, 0x94, 0x99, 0x99, 0x9b, 0x9c, 0xa7, 0xa0,
  0x98, 0x9c, 0x98, 0x9d, 0x9a, 0x9f, 0x97, 0x9d, 0x9c, 0xa1, 0x9e, 0x9d,
  0x97, 0x99, 0x9c, 0xa6, 0x9b, 0x95, 0x9a, 0x94, 0x9f, 0x96, 0x9e, 0xa0,
  0xa2, 0x9c, 0x9e, 0x9f, 0x9f, 0xa4, 0xa6, 0xa1, 0xa4, 0xa1, 0x9d, 0xa0,
  0x9f, 0x9e, 0xa3, 0xa0, 0xa3, 0x9f, 0x9e, 0xa2, 0xa0, 0xa4, 0x9d, 0xb3,
  0x9c, 0xa3, 0xa1, 0xa1, 0xa4, 0xa1, 0xaa, 0x9f, 0xa2, 0x9f, 0xa0, 0xa0,
  0xa2, 0xa3, 0xa1, 0xa1, 0xa5, 0xa6, 0xa2, 0xa3, 0xa4, 0xa2, 0xb5, 0xa4,
  0xa2, 0xa2, 0xa2, 0xa3, 0xa2, 0xa3, 0xa0, 0xb1, 0xa7, 0xa5, 0xa3, 0xa1,
  0x9e, 0xa2, 0xa9, 0xa2, 0xa4, 0xa5, 0xa3, 0xa3, 0xa3, 0xa1, 0xa3, 0xa0,
  0xa9, 0xa4, 0xa6, 0xa1, 0xab, 0xa6, 0xc2, 0xa1, 0xa0, 0xa4, 0xa3, 0xa1,
  0xa0, 0xa3, 0xa1, 0xb7, 0xb0, 0xa4, 0xa0, 0xa3, 0xa2, 0xa4, 0xa8, 0xa1,
  0xa7, 0xa5, 0xa1, 0xa6, 0xa3, 0xa0, 0x9d, 0xa2, 0xa6, 0xa3, 0xb1, 0xa2,
  0xa2, 0xa4, 0xb5, 0xa6, 0x9f, 0xa4, 0xa2, 0xa2, 0xa2, 0xa0, 0xa0, 0xaf,
  0xa6, 0xa5, 0xa5, 0xa2, 0x9b, 0xa6, 0xa4, 0xa1, 0xa1, 0xa3, 0xa3, 0xa5,
  0xa3, 0xa1, 0x8f, 0xa1, 0x9e, 0x9c, 0xaa, 0x9d, 0xa7, 0xa2, 0xae, 0xa1,
  0xa1, 0xa1, 0x93, 0xa0, 0x9f, 0x9e, 0x9e, 0xb1, 0xa3, 0xa5, 0x9f, 0xa2,
  0x9e, 0xa1, 0xa2, 0xa0, 0x9b, 0xa2, 0xa5, 0xa3, 0x8e, 0x9e, 0x8d, 0x9e,
  0x97, 0x9b, 0xa9, 0x9b, 0xa8, 0xa0, 0xbd, 0x9a, 0x91, 0x9d, 0x8f, 0x9a,
  0xa3, 0x9a, 0x91, 0xb3, 0x9b, 0xa4, 0xa4, 0xa4, 0x91, 0x9c, 0xa1, 0x97,
  0x8b, 0xa1, 0x9f, 0xa4, 0x91, 0x9e, 0x8e, 0x9e, 0x91, 0x99, 0xa8, 0x9c,
  0xad, 0x9b, 0xb6, 0x98, 0x94, 0x9a, 0x8b, 0x9c, 0x8f, 0x9b, 0x90, 0xb1,
  0x93, 0x9c, 0xab, 0x96, 0x95, 0x8b, 0xa5, 0x96, 0x8c, 0x9a, 0x9e, 0x9e,
  0xae, 0xa1, 0xc3, 0xa6, 0x9a, 0xac, 0xa3, 0xa6, 0xb3, 0xa3, 0xb7, 0xa0,
  0xae, 0xa8, 0xc9, 0x9d, 0x9b, 0xa4, 0x7f, 0xb1, 0xa8, 0xad, 0x96, 0xa1,
  0xa4, 0x98, 0xa6, 0xb3, 0xac, 0xad, 0xa7, 0xa7, 0xc6, 0xa5, 0xad, 0xb0,
  0xa3, 0xa8, 0xae, 0xa3, 0xab, 0xa6, 0xbb, 0xb6, 0xb7, 0xa8, 0xa9, 0xad,
  0xc2, 0xa1, 0xbf, 0xa9, 0xbe, 0xb3, 0xa9, 0xc1, 0xc9, 0xba, 0xa6, 0xc4,
  0xb7, 0x9d, 0xb4, 0xa4, 0xa7, 0x8b, 0x9b, 0x97, 0xad, 0x8a, 0xaa, 0xa3,
  0xa4, 0xa4, 0xb3, 0x98, 0xab, 0xa1, 0xaa, 0x9b, 0xa8, 0x98, 0x9c, 0xaf,
  0xa3, 0x8e, 0xaa, 0xaa, 0xb0, 0x9f, 0xa5, 0xa4, 0xac, 0x8d, 0x9c, 0x8e,
  0xa0, 0xa7, 0xa5, 0xa4, 0xa7, 0xa0, 0xac, 0x9b, 0xa7, 0xa1, 0xb4, 0xa0,
  0xa7, 0x9d, 0xaf, 0x9e, 0x99, 0xa2, 0xaa, 0xb0, 0xa2, 0xa2, 0x8c, 0x9f,
  0xac, 0x94, 0xa2, 0xab, 0xaf, 0xa2, 0xa4, 0xa1, 0xb6, 0xa4, 0x98, 0xa3,
  0xa4, 0x9f, 0xaa, 0x9e, 0xa4, 0xa3, 0xbf, 0xa0, 0xad, 0xa1, 0x9b, 0xa2,
  0xb4, 0xa1, 0xa1, 0xb1, 0xb6, 0xa2, 0xab, 0xb0, 0xb2, 0xad, 0xa5, 0xa3,
  0xab, 0xa2, 0xa4, 0xa5, 0x9e, 0xa0, 0x95, 0xa1, 0x9b, 0xa2, 0xab, 0xa0,
  0xac, 0xa3, 0xb6, 0xa0, 0x9a, 0xa3, 0x99, 0x9e, 0x9a, 0x9d, 0xa1, 0xb2,
  0xa2, 0xa2, 0x9a, 0xa0, 0xa1, 0x9f, 0xa3, 0x9e, 0x93, 0xa2, 0xa0, 0xa3,
  0x9c, 0xa2, 0x9f, 0xa2, 0xa4, 0xa4, 0xa8, 0xa0, 0xa7, 0xa1, 0xb6, 0xa2,
  0x9b, 0xa5, 0xa3, 0xa0, 0x96, 0xa2, 0xa1, 0xad, 0x9c, 0xa2, 0x99, 0x9f,
  0xa3, 0xa3, 0xa8, 0xa5, 0x9a, 0xa4, 0xa2, 0xa4, 0xa3, 0xa2, 0xa0, 0xa0,
  0xa7, 0xa2, 0xa4, 0xa1, 0xa3, 0xa4, 0xb4, 0xa2, 0xa3, 0xa5, 0xa4, 0xa3,
  0x9d, 0xa6, 0xa2, 0xae, 0xa3, 0xa2, 0xa4, 0xa0, 0x9d, 0xa5, 0xa4, 0xa1,
  0xa7, 0xa2, 0xa1, 0xa6, 0xa3, 0xa2, 0xac, 0xa6, 0xa5, 0xa8, 0xb0, 0xa1,
  0xa4, 0xa2, 0xb3, 0xa6, 0xa2, 0xa8, 0xae, 0xa2, 0xa1, 0xa4, 0xa1, 0xb1,
  0xa6, 0xa5, 0x9e, 0xa3, 0x9f, 0xa9, 0xa2, 0xa1, 0xb0, 0xa3, 0xa2, 0xa6,
  0xb4, 0xa0, 0xa7, 0xa1, 0xa1, 0xa7, 0xb0, 0xa4, 0xab, 0xa6, 0xb3, 0xa8,
  0xb0, 0xa2, 0x99, 0xa4, 0xb6, 0x9f, 0xa2, 0xac, 0xaf, 0xa5, 0x9b, 0xad,
  0xac, 0xae, 0xa7, 0xa3, 0xad, 0xa1, 0xa8, 0xa6, 0xa1, 0x9c, 0xa7, 0xa7,
  0xaa, 0x9e, 0xa8, 0x9f, 0xa6, 0xa1, 0xb5, 0xa4, 0xa2, 0xa6, 0xa0, 0xa3,
  0x9c, 0xa3, 0xaf, 0xb0, 0x9b, 0xa1, 0x9c, 0x9a, 0xa8, 0x9f, 0xa7, 0xad,
  0xa5, 0xa1, 0xa4, 0xa1, 0xa5, 0x92, 0x8e, 0x95, 0x8b, 0x8e, 0xae, 0x9f,
  0x9b, 0x91, 0xa2, 0x98, 0xad, 0x97, 0x89, 0x9e, 0xa8, 0x8f, 0xa9, 0x9b,
  0x9e, 0x92, 0x9b, 0x9c, 0xa5, 0xaa, 0xa4, 0xb0, 0x98, 0x94, 0xa8, 0x94,
  0xa0, 0x96, 0xa4, 0x94, 0x89, 0x98, 0xb4, 0x8e, 0xb5, 0x8e, 0xa1, 0x8a,
  0xad, 0x86, 0xa8, 0x92, 0xb6, 0x8d, 0x8a, 0x9d, 0xa1, 0x9a, 0x9c, 0xaa,
  0xa9, 0x99, 0xa7, 0x8d, 0x9b, 0x96, 0x92, 0x8d, 0x9e, 0x9e, 0xa7, 0x91,
  0x8f, 0x97, 0xb2, 0x86, 0xaf, 0x8a, 0xa3, 0x8f, 0x98, 0x8f, 0xa7, 0x87,
  0xd2, 0x90, 0x82, 0xa7, 0x9f, 0xa3, 0xc3, 0xc5, 0xa7, 0x9a, 0xa7, 0x90,
  0x9c, 0xa5, 0x90, 0x99, 0xa0, 0xb3, 0xa8, 0xb9, 0x8f, 0x9c, 0xa4, 0xa0,
  0xab, 0xa0, 0x8b, 0xa1, 0x94, 0xa2, 0xa3, 0xa6, 0x98, 0xb1, 0xa8, 0x8a,
  0x9c, 0xab, 0xa5, 0x9b, 0x99, 0x9b, 0x90, 0xb2, 0xb1, 0xb0, 0xa3, 0x92,
  0x9c, 0x89, 0xa5, 0xab, 0xab, 0x92, 0x98, 0xb0, 0xac, 0xa2, 0x6d, 0xa8,
  0x95, 0x9e, 0x9d, 0xa1, 0xb9, 0xa7, 0x91, 0x6f, 0x94, 0x91, 0xb8, 0xc0,
  0x98, 0xa8, 0x7a, 0x97, 0x9f, 0x98, 0xa5, 0x88, 0x9c, 0x7d, 0x96, 0x9e,
  0xab, 0x88, 0x9f, 0xa6, 0xa9, 0x9f, 0x7a, 0xa7, 0x9e, 0x9d, 0x9b, 0xa4,
  0xa4, 0xa0, 0x9e, 0x74, 0x97, 0x73, 0xaa, 0xa9, 0xa0, 0xa3, 0x86, 0x9d,
  0x9d, 0x78, 0x9f, 0x91, 0x9c, 0x99, 0xc8, 0xa8, 0xae, 0x87, 0x9c, 0x9d,
  0xbb, 0x9d, 0xa2, 0x9e, 0x9c, 0x9c, 0xbd, 0x8d, 0xae, 0xae, 0x98, 0xa6,
  0xa2, 0x97, 0xb0, 0xae, 0x9e, 0x9b, 0xa3, 0xa0, 0xa3, 0x9f, 0x94, 0x82,
  0xa2, 0x9a, 0x9f, 0x9f, 0x96, 0x8e, 0xa2, 0x98, 0xa9, 0x99, 0xb8, 0x9b,
  0xa6, 0x96, 0x98, 0x9f, 0xb2, 0x9d, 0xa1, 0xb1, 0x9b, 0x96, 0xa6, 0xae,
  0xa2, 0xa2, 0xac, 0x9d, 0x8f, 0x9b, 0x9b, 0x8f, 0x96, 0x9a, 0x93, 0x9d,
  0x99, 0x9a, 0xa4, 0x8f, 0xae, 0x9f, 0xb1, 0x92, 0x91, 0x8a, 0x97, 0x95,
  0x92, 0x9e, 0x94, 0xae, 0x91, 0x96, 0x90, 0x92, 0x97, 0x85, 0xa0, 0x97,
  0x8d, 0x98, 0x98, 0x9d, 0x92, 0x9f, 0x89, 0x9a, 0x8d, 0x92, 0xa7, 0x92,
  0xa2, 0x9d, 0xb8, 0x92, 0x8b, 0x91, 0x95, 0x98, 0x8e, 0x9a, 0x8c, 0xab,
  0x95, 0x9e, 0x8f, 0x93, 0x8c, 0x89, 0x9f, 0x99, 0x8b, 0x9f, 0x96, 0x99,
  0x84, 0xa2, 0xa0, 0xa1, 0x9e, 0x96, 0xad, 0x9e, 0xa4, 0x9e, 0xb7, 0x9f,
  0x8d, 0x9e, 0xa3, 0x99, 0x88, 0xa1, 0x90, 0xb3, 0x89, 0xa3, 0x98, 0x8e,
  0x8e, 0x8d, 0xa0, 0x9d, 0x89, 0xa4, 0x9d, 0xa3, 0xa9, 0xa6, 0xb5, 0xa4,
  0xa3, 0xa9, 0x9f, 0xa1, 0xa3, 0xa2, 0xbb, 0xa3, 0xa3, 0xa2, 0xb0, 0x9f,
  0xa6, 0xa2, 0xa3, 0xc5, 0xab, 0xab, 0xa2, 0xa0, 0xa2, 0xa3, 0xae, 0xa2,
  0xaf, 0xa5, 0xa3, 0xa8, 0xae, 0xab, 0xad, 0xa1, 0xa0, 0xa8, 0xa7, 0xa0,
  0xa9, 0xa2, 0xbb, 0xa4, 0xad, 0xa3, 0xa7, 0xa9, 0xae, 0x9d, 0xaf, 0xbc,
  0xb5, 0xaa, 0xb4, 0xb1, 0xac, 0xb2, 0xb3, 0xa1, 0xa7, 0x9d, 0xa8, 0xa4,
  0xad, 0xae, 0xa6, 0xad, 0xa5, 0xab, 0xa4, 0xa8, 0xa8, 0xa9, 0xab, 0xb0,
  0x9e, 0xa7, 0xb1, 0xae, 0xa2, 0xab, 0xad, 0xab, 0xb4, 0xad, 0x9d, 0xa0,
  0x9f, 0x9e, 0x95, 0xb1, 0x9f, 0xad, 0xad, 0xb5, 0xa3, 0x9d, 0x83, 0x8c,
  0x8f, 0xa0, 0xb8, 0x9f, 0x95, 0x9b, 0xb5, 0x95, 0xbd, 0x98, 0x8f, 0x9d,
  0x96, 0xa7, 0xb6, 0xb5, 0x9b, 0x99, 0x96, 0x95, 0xb8, 0xbc, 0x99, 0xa7,
  0x90, 0x99, 0xab, 0x98, 0x88, 0xb1, 0xab, 0xa1, 0x88, 0x9e, 0xb6, 0x93,
  0xa0, 0x93, 0xa1, 0x8b, 0xb0, 0x99, 0xb1, 0x9b, 0xac, 0xa5, 0xa5, 0x9d,
  0x92, 0xb3, 0x80, 0xaf, 0xa7, 0xb8, 0x7c, 0xa6, 0x8e, 0xb7, 0x98, 0xaa,
  0x8e, 0xbb, 0xbc, 0xaf, 0x99, 0x9a, 0xa7, 0x98, 0xb4, 0x93, 0x82, 0x9b,
  0xb9, 0x93, 0xb1, 0x9d, 0xcc, 0xa7, 0xac, 0x88, 0x95, 0xb4, 0xad, 0xd7,
  0xaf, 0xc0, 0x88, 0xab, 0x97, 0xb6, 0x9a, 0x9a, 0xa3, 0xad, 0xb1, 0xb0,
  0xa4, 0xa1, 0xa4, 0xaf, 0xab, 0xa4, 0x7f, 0xa6, 0xa8, 0x9b, 0xb0, 0x9f,
  0xb6, 0xb2, 0x9c, 0x82, 0xa3, 0xa9, 0xb2, 0xc8, 0x98, 0xa0, 0x86, 0xa5,
  0xa8, 0xa5, 0xa8, 0x9b, 0x9f, 0x98, 0xba, 0x9a, 0x9d, 0xa3, 0x96, 0xa2,
  0xc5, 0x9f, 0x79, 0xa8, 0xa6, 0xa1, 0xae, 0x9e, 0xc0, 0x97, 0xa1, 0x78,
  0xa7, 0x9f, 0xbc, 0xc8, 0xa3, 0xb0, 0x7f, 0xa3, 0xa5, 0x9c, 0xab, 0xa0,
  0x9c, 0x9c, 0xae, 0xa2, 0x95, 0x9f, 0xa5, 0xa1, 0xbc, 0xa2, 0x71, 0xa2,
  0xa1, 0x9a, 0xa2, 0xaa, 0xae, 0x98, 0xa0, 0x7c, 0x9c, 0x95, 0xa9, 0xb4,
  0x9e, 0xaf, 0x78, 0xa2, 0xa0, 0x9b, 0xa3, 0xa8, 0xa0, 0x8a, 0xb5, 0xa1,
  0x9b, 0x90, 0x9a, 0x9d, 0xc8, 0x9b, 0x77, 0xa8, 0xa3, 0xa6, 0xb1, 0xa2,
  0xab, 0x97, 0x9a, 0x70, 0xa8, 0x86, 0xae, 0xaf, 0xa0, 0xae, 0x6e, 0x9f,
  0xa1, 0x84, 0x99, 0x9d, 0xa1, 0x9f, 0xba, 0xa2, 0xad, 0xa2, 0x9c, 0x9f,
  0xb7, 0xa1, 0x8d, 0x9d, 0xa7, 0x9f, 0xb4, 0xa1, 0xab, 0x9d, 0xac, 0x7e,
  0xa4, 0x97, 0xb0, 0xaa, 0xa2, 0xa7, 0x8f, 0x99, 0xa5, 0x96, 0x9e, 0xa3,
  0xa8, 0x9b, 0xb2, 0xa3, 0x9d, 0xa0, 0xa1, 0xa4, 0xae, 0xa3, 0x85, 0xac,
  0xa2, 0xa7, 0xa3, 0xa3, 0xa9, 0x97, 0xa3, 0x84, 0xae, 0x94, 0xa2, 0xa4,
  0xac, 0xad, 0x82, 0xa0, 0x9c, 0x8c, 0xa8, 0x9d, 0x9f, 0x91, 0x7e, 0x9d,
  0x8d, 0x93, 0xa9, 0x98, 0xaa, 0x96, 0x8a, 0x93, 0x96, 0x9e, 0x95, 0x96,
  0x9d, 0x97, 0x95, 0x84, 0x9a, 0x8c, 0xa1, 0x9f, 0x96, 0x9c, 0x8a, 0x8e,
  0x84, 0x8f, 0x96, 0x92, 0x86, 0x9c, 0x97, 0x9e, 0x88, 0x8c, 0xa3, 0x97,
  0xa7, 0x98, 0x9a, 0x99, 0x80, 0x93, 0xa1, 0x9a, 0x7c, 0xa0, 0x89, 0x8e,
  0x86, 0xa2, 0x7f, 0x80, 0x8c, 0x7b, 0x87, 0x9d, 0x91, 0xa1, 0x98, 0x97,
  0xa3, 0xa2, 0x94, 0x9f, 0x9a, 0x9a, 0xa0, 0xa1, 0xa4, 0xa0, 0xb9, 0xa0,
  0xa1, 0x9b, 0x90, 0x9f, 0xa2, 0x9d, 0xa1, 0xb7, 0xa4, 0x9d, 0x9f, 0xa2,
  0xa1, 0xa5, 0xa6, 0xa0, 0x92, 0x98, 0xa3, 0x9e, 0x97, 0x94, 0xaa, 0x98,
  0xac, 0x9c, 0xaa, 0xa2, 0xb5, 0xa2, 0xaa, 0x98, 0x91, 0x93, 0xa8, 0x9f,
  0x9b, 0x97, 0x96, 0xac, 0xa7, 0xa2, 0x9a, 0x97, 0x94, 0x97, 0xbf, 0x9f,
  0x9a, 0x9b, 0xa0, 0x9e, 0x9f, 0xb1, 0xa4, 0xa1, 0x98, 0x9a, 0xae, 0x91,
  0x9c, 0x97, 0xa7, 0x96, 0xb0, 0x93, 0x98, 0x9a, 0xb2, 0xa5, 0xb0, 0xaa,
  0xa0, 0xaf, 0x9a, 0xb4, 0xa3, 0xae, 0xb2, 0x97, 0x9a, 0xa7, 0xa4, 0xa3,
  0x92, 0xa9, 0x8b, 0x9f, 0x9e, 0x9d, 0xb6, 0x8e, 0x99, 0x95, 0x93, 0x92,
  0xa9, 0x83, 0x89, 0xa1, 0x9e, 0xa0, 0xa7, 0x9b, 0x9c, 0x9a, 0x8f, 0xa6,
  0xa4, 0xa8, 0x98, 0xab, 0x86, 0x9a, 0x96, 0x96, 0x8e, 0x9a, 0x9a, 0x8d,
  0xa2, 0x90, 0xc2, 0x83, 0x93, 0x8d, 0xac, 0x88, 0xa5, 0x92, 0xaa, 0x88,
  0x70, 0x9e, 0xaa, 0xa0, 0x8f, 0xa1, 0x7a, 0x92, 0xbf, 0x9b, 0x99, 0x8e,
  0x95, 0xa7, 0x8e, 0x96, 0x9e, 0xb7, 0xae, 0xaf, 0x9c, 0x9e, 0xba, 0x98,
  0x8f, 0x9f, 0x8a, 0xa4, 0xad, 0x9b, 0xac, 0xa8, 0x9d, 0xa4, 0xab, 0x8e,
  0x99, 0xab, 0x98, 0xb1, 0xa8, 0xbb, 0x7e, 0xb4, 0x95, 0xb0, 0x9a, 0xa4,
  0x89, 0x9f, 0xa2, 0xa9, 0x9a, 0xa3, 0xc3, 0xab, 0xb1, 0x98, 0x83, 0xa4,
  0xad, 0xa1, 0xa1, 0xa2, 0xa9, 0x9c, 0x9e, 0x83, 0x92, 0x9d, 0xb0, 0xb7,
  0x9d, 0xaf, 0x7e, 0xa6, 0x97, 0xa4, 0xa3, 0xa6, 0x97, 0x97, 0xa1, 0x9d,
  0x93, 0x91, 0xa1, 0xa7, 0xae, 0x9c, 0x71, 0x9d, 0xb1, 0x9a, 0xa2, 0xa3,
  0xa9, 0x9d, 0xae, 0x6c, 0x95, 0x90, 0xad, 0xb8, 0x94, 0xaa, 0x7d, 0xa4,
  0xa4, 0x8f, 0xaa, 0x94, 0x8f, 0x8b, 0xb8, 0xa1, 0x94, 0x9a, 0x94, 0xa7,
  0xcf, 0x9d, 0x56, 0x9d, 0xa2, 0x9b, 0xb2, 0xa1, 0xa6, 0xa2, 0x98, 0x5c,
  0x93, 0x9a, 0xa6, 0xad, 0x9c, 0xa2, 0x63, 0x9a, 0xa5, 0x94, 0x9e, 0x96,
  0x93, 0x8d, 0xb8, 0x9d, 0xa6, 0x9b, 0x8e, 0xa1, 0xd4, 0xa2, 0x72, 0xac,
  0x9a, 0x9f, 0xaa, 0xa5, 0x9e, 0x92, 0xae, 0x6a, 0xa7, 0x7d, 0xa9, 0xa8,
  0x94, 0x9f, 0x7e, 0xa0, 0xaa, 0x7a, 0xa8, 0x97, 0xb3, 0x9a, 0xbc, 0x9f,
  0x99, 0x9b, 0x9e, 0xa0, 0xb0, 0x9a, 0x73, 0x9e, 0xa7, 0x99, 0xae, 0xa4,
  0xab, 0x9a, 0xa6, 0x74, 0xae, 0x86, 0xaa, 0xa8, 0x90, 0xa6, 0x88, 0xae,
  0xbb, 0x7e, 0x9d, 0xa0, 0x9d, 0x95, 0xa7, 0xa8, 0xa8, 0x93, 0xaf, 0xa3,
  0xb1, 0x96, 0x7c, 0x9a, 0xa3, 0x91, 0xa5, 0x9e, 0xaf, 0x9b, 0xa2, 0x7a,
  0x98, 0x82, 0xa7, 0xa5, 0x94, 0xa5, 0x84, 0xa7, 0x9f, 0x8e, 0x9d, 0x97,
  0x8e, 0x81, 0x7d, 0x8f, 0x96, 0x88, 0xa4, 0x95, 0xa6, 0x90, 0x83, 0x91,
  0xa3, 0x9b, 0x89, 0x8d, 0x9d, 0x89, 0x9c, 0x82, 0x8e, 0x87, 0x9a, 0x9e,
  0x9b, 0x99, 0x80, 0x94, 0x7a, 0x86, 0x9b, 0x89, 0x6e, 0x96, 0x9a, 0x9c,
  0x82, 0x81, 0xad, 0x93, 0xa7, 0x94, 0x9b, 0x91, 0x74, 0x80, 0xa0, 0x91,
  0x70, 0x95, 0x80, 0x88, 0x73, 0x97, 0x7d, 0x7d, 0x7c, 0x71, 0x90, 0x91,
  0x8c, 0x99, 0x8f, 0x8d, 0x9f, 0xa0, 0x8d, 0x9e, 0xa4, 0x9e, 0xac, 0x9a,
  0x9c, 0xa0, 0xaf, 0x9e, 0x9f, 0x9b, 0x97, 0xa1, 0x9f, 0x9e, 0x9d, 0x9f,
  0x9c, 0x96, 0x9f, 0xa2, 0x9c, 0xa2, 0x9a, 0xa5, 0x9c, 0x9a, 0xa4, 0xa0,
  0x8c, 0x8a, 0x9d, 0x9e, 0x90, 0x9a, 0xa4, 0x9e, 0xac, 0x9d, 0x91, 0x9b,
  0x91, 0xa6, 0x93, 0x9c, 0x91, 0xa6, 0x94, 0x8b, 0x8f, 0xa5, 0x98, 0x99,
  0x9c, 0x92, 0x82, 0x9b, 0xa4, 0xa6, 0x98, 0x91, 0x92, 0x95, 0x98, 0x93,
  0x93, 0x98, 0xa0, 0x8b, 0xa7, 0x94, 0x83, 0x9a, 0xa8, 0x90, 0xa2, 0x84,
  0xb0, 0x94, 0xaa, 0x8b, 0xa1, 0x8d, 0xb1, 0xb0, 0xac, 0xa7, 0x86, 0xa1,
  0x92, 0x9d, 0xa2, 0x96, 0xa7, 0xac, 0xa2, 0xab, 0xa2, 0xa4, 0xa9, 0x98,
  0xab, 0xa0, 0x90, 0xa2, 0xa3, 0x97, 0xa2, 0xa5, 0x90, 0xa7, 0xa8, 0x92,
  0xa7, 0xa1, 0x8d, 0x9d, 0xa9, 0x9f, 0x88, 0xa9, 0x9a, 0xa9, 0x98, 0xa6,
  0xa6, 0x8a, 0x8d, 0x85, 0x98, 0x9c, 0xab, 0x93, 0x97, 0x9f, 0x9d, 0x9c,
  0x9f, 0xa4, 0x8b, 0x9c, 0x77, 0x8e, 0x9e, 0x9b, 0x9d, 0x9a, 0x71, 0x62,
  0xad, 0x9b, 0x95, 0x9c, 0x95, 0x92, 0x9d, 0x96, 0x9a, 0xb4, 0x95, 0xa8,
  0xad, 0x8f, 0xb8, 0xa0, 0x90, 0x9d, 0x8e, 0xa1, 0x80, 0xa2, 0x95, 0x9e,
  0x8d, 0xac, 0x9b, 0x92, 0x99, 0xa0, 0x8e, 0x8e, 0xa3, 0x8f, 0x91, 0xac,
  0x8c, 0xa7, 0xa3, 0x9a, 0x91, 0xa6, 0x9c, 0xa7, 0xa2, 0x99, 0xc9, 0xa7,
  0x9a, 0xa1, 0x8c, 0x9c, 0x8b, 0xab, 0xa6, 0x9e, 0x79, 0xab, 0x86, 0x7f,
  0x90, 0x9a, 0x79, 0x85, 0x8f, 0x89, 0x89, 0x9c, 0x96, 0xa6, 0xa1, 0x96,
  0x83, 0xa7, 0x9c, 0xa5, 0x9f, 0xa2, 0xaa, 0x9f, 0xc5, 0xaa, 0x83, 0x9f,
  0xa8, 0xa4, 0xa9, 0xb2, 0xa7, 0xab, 0x9f, 0x83, 0x88, 0x93, 0x9f, 0xa6,
  0x95, 0x9e, 0x74, 0xab, 0x9a, 0xa0, 0xa7, 0xa5, 0x86, 0x97, 0xa6, 0xa2,
  0xa1, 0xa7, 0xac, 0xb5, 0xc8, 0xa5, 0x5f, 0xa5, 0x9e, 0xa7, 0x9e, 0xb1,
  0x9a, 0x9d, 0x9d, 0x69, 0x84, 0x8b, 0xa4, 0xa9, 0x96, 0x97, 0x59, 0xa5,
  0x9b, 0x95, 0xb0, 0xa8, 0x8e, 0x97, 0x8e, 0x99, 0x99, 0xa3, 0x91, 0xaa,
  0xcf, 0xa6, 0x6d, 0xab, 0x9e, 0xab, 0x89, 0xb3, 0xab, 0x98, 0xa0, 0x6e,
  0x93, 0x76, 0xa3, 0xa0, 0x8d, 0xa4, 0x6a, 0xaa, 0x94, 0x7d, 0xa8, 0xaa,
  0xa3, 0x94, 0xa0, 0x9b, 0xaa, 0x9a, 0x9c, 0xa4, 0xae, 0xa3, 0x97, 0xa2,
  0x96, 0xab, 0xa9, 0xa5, 0x9a, 0x98, 0x8e, 0x93, 0xa3, 0x87, 0xa2, 0xa3,
  0x72, 0x9c, 0x97, 0x9d, 0xa7, 0x89, 0x9e, 0xa0, 0x9b, 0x9d, 0x98, 0x9c,
  0xa0, 0xa4, 0xa1, 0xab, 0xa3, 0xa2, 0x88, 0xa0, 0xa4, 0xa2, 0xa2, 0xa6,
  0xa1, 0x94, 0xa9, 0x8b, 0x99, 0x8c, 0xab, 0xaf, 0x96, 0xa9, 0x94, 0xa3,
  0x92, 0x8c, 0x9c, 0xa2, 0x73, 0x8b, 0xaa, 0x94, 0x8b, 0x90, 0xaa, 0x8d,
  0xb1, 0x97, 0x75, 0x97, 0x9f, 0x82, 0xaa, 0xa0, 0x9f, 0x7e, 0xa5, 0x73,
  0x75, 0x72, 0x9e, 0x9f, 0x9e, 0x9c, 0x84, 0x9b, 0x74, 0x7f, 0x9e, 0x95,
  0x8f, 0x92, 0xa1, 0x9d, 0x76, 0x76, 0xa8, 0x98, 0xab, 0x92, 0x9b, 0x93,
  0x6b, 0x91, 0x9e, 0x92, 0x6b, 0x90, 0x80, 0x73, 0x86, 0x9a, 0x70, 0x69,
  0x82, 0x65, 0x7d, 0x9b, 0x99, 0x93, 0x8e, 0x8d, 0xa6, 0xa1, 0x95, 0xa0,
  0xa2, 0xa0, 0xa6, 0xa0, 0xa8, 0xa0, 0xa7, 0xa1, 0x9f, 0x9e, 0x9c, 0xa0,
  0xa9, 0x9b, 0xa1, 0xae, 0xad, 0x9f, 0xa0, 0xa5, 0xa1, 0xa0, 0xa7, 0xa5,
  0x99, 0x9d, 0xa5, 0xa5, 0x98, 0x93, 0xa6, 0xa9, 0x96, 0x9b, 0xa8, 0xa0,
  0xac, 0x9d, 0xa8, 0xa0, 0x9a, 0xac, 0x9f, 0x9a, 0x95, 0xaa, 0x94, 0x97,
  0x96, 0xa6, 0x9a, 0x9d, 0x9d, 0x9a, 0x84, 0x9c, 0x9a, 0xac, 0x99, 0x98,
  0x97, 0x94, 0xa1, 0x91, 0x83, 0x80, 0xae, 0x83, 0xa4, 0x8c, 0x97, 0x90,
  0xa9, 0x90, 0x85, 0x93, 0xab, 0x81, 0xad, 0x90, 0x98, 0x8f, 0xac, 0xb0,
  0xb6, 0xa5, 0x92, 0xa6, 0x87, 0x86, 0x99, 0x7b, 0x99, 0xa2, 0xa7, 0x9e,
  0x93, 0x8a, 0xae, 0x8a, 0xa1, 0x9a, 0xb2, 0x9b, 0x9a, 0x7f, 0x9d, 0x89,
  0x94, 0x9b, 0x9d, 0xa6, 0x8f, 0xa4, 0x95, 0x99, 0xb9, 0x98, 0xa7, 0x96,
  0x8e, 0xa2, 0x7f, 0x99, 0x9a, 0x90, 0x87, 0x87, 0x9c, 0x89, 0xaf, 0x88,
  0xa8, 0x90, 0xaf, 0x92, 0x6a, 0x90, 0x8d, 0x86, 0x96, 0x91, 0x72, 0xa8,
  0x8b, 0x90, 0xa3, 0x8b, 0x8d, 0x72, 0xb4, 0x87, 0xa3, 0x94, 0x8d, 0x90,
  0xaf, 0x9e, 0x98, 0x9f, 0xa8, 0x8e, 0xba, 0x99, 0x9c, 0x97, 0xa2, 0x98,
  0x5c, 0x9e, 0x94, 0x9b, 0x85, 0x9e, 0x69, 0xa1, 0xa5, 0x9a, 0xa9, 0x8a,
  0x6e, 0x5f, 0x99, 0x8c, 0x95, 0xa4, 0x86, 0x96, 0x9e, 0x92, 0x9b, 0xa0,
  0xac, 0xa2, 0xca, 0xa1, 0xb7, 0xac, 0x85, 0xa3, 0x89, 0xa7, 0x98, 0xa4,
  0x8c, 0xaa, 0x88, 0x7b, 0x92, 0x90, 0x95, 0x9d, 0x6c, 0x7d, 0x89, 0x94,
  0xa8, 0xa2, 0xa5, 0x9e, 0xa2, 0xa1, 0xaf, 0xb1, 0xa2, 0xa2, 0xe4, 0xae,
  0xd5, 0xac, 0x7f, 0xae, 0x9a, 0xad, 0xa9, 0xae, 0xa3, 0xa5, 0x9f, 0x83,
  0x99, 0x9a, 0x9c, 0xa5, 0x9e, 0x90, 0x87, 0xa3, 0xb4, 0x9f, 0xb1, 0xae,
  0x83, 0x9e, 0x9d, 0xae, 0x9d, 0xa6, 0xd3, 0xaf, 0xba, 0xac, 0x71, 0xae,
  0xa1, 0xb2, 0xa2, 0xb5, 0xa7, 0xad, 0x9f, 0x65, 0x7e, 0x9e, 0xa1, 0xa8,
  0xa8, 0x9e, 0x4c, 0xa6, 0x94, 0xaa, 0xb2, 0xb5, 0x7f, 0xa9, 0x8a, 0xa5,
  0xa7, 0xa5, 0x9f, 0xa3, 0xcd, 0xab, 0x81, 0xa8, 0xa7, 0x9b, 0x94, 0xad,
  0xaa, 0xa8, 0xa7, 0x7d, 0x7e, 0x9e, 0xa4, 0x9f, 0x91, 0xa2, 0x75, 0xa4,
  0x97, 0xa6, 0xa5, 0xaf, 0xa8, 0xa9, 0xae, 0x9e, 0xa0, 0xac, 0x9e, 0xac,
  0xb1, 0xa2, 0x97, 0xa7, 0x9f, 0xa6, 0xb4, 0xa2, 0xa7, 0x9c, 0xa2, 0x8e,
  0xa8, 0x97, 0xa8, 0xa5, 0xab, 0x9b, 0x94, 0x9d, 0xad, 0x9c, 0xaa, 0x97,
  0x9d, 0x8c, 0x97, 0x8a, 0xa0, 0x9b, 0xb0, 0xa0, 0xa5, 0xa1, 0xa5, 0x9e,
  0xa2, 0x9c, 0x98, 0x9a, 0xa1, 0x9b, 0x98, 0xac, 0x9d, 0x9b, 0xa8, 0xa9,
  0xa3, 0xa1, 0xa7, 0x9b, 0x9b, 0x96, 0x95, 0x9e, 0x97, 0x9e, 0xb0, 0x99,
  0x85, 0x96, 0xa2, 0x95, 0xa7, 0x95, 0x9b, 0x8d, 0x9d, 0x90, 0xac, 0x98,
  0x9b, 0xa1, 0x93, 0x9c, 0x99, 0x9e, 0x9d, 0xa4, 0x9a, 0x9f, 0x9b, 0x9a,
  0x8f, 0x9b, 0x93, 0x86, 0x9a, 0x9c, 0xa9, 0xa3, 0x83, 0x96, 0xab, 0x9e,
  0xa8, 0x9f, 0xac, 0x98, 0x9a, 0x9c, 0xad, 0x9c, 0xa1, 0x98, 0x92, 0x94,
  0xa3, 0xa9, 0x9e, 0xa1, 0x9f, 0x9f, 0x94, 0xa1, 0x9e, 0x9f, 0x9a, 0x99,
  0x9e, 0xa4, 0x94, 0x9f, 0xa2, 0x9d, 0xb2, 0x9e, 0xa5, 0xa1, 0xb5, 0xa3,
  0xa2, 0x9c, 0x90, 0xa3, 0xa1, 0x9f, 0xa4, 0xaa, 0xa1, 0xa0, 0x9e, 0xa5,
  0xa5, 0xa5, 0xa0, 0xa5, 0x9e, 0x9a, 0xa5, 0xa4, 0x9a, 0x95, 0xaf, 0xa7,
  0xa3, 0xa4, 0xad, 0xa8, 0xb0, 0xa5, 0xab, 0xa3, 0x95, 0xac, 0xa4, 0x9e,
  0x94, 0xa0, 0xa1, 0xa2, 0xab, 0xac, 0x99, 0x93, 0x9c, 0x94, 0x98, 0x97,
  0xb6, 0xae, 0x9e, 0x96, 0xb2, 0x9e, 0x99, 0x97, 0xac, 0x9d, 0xa8, 0x93,
  0xa9, 0x8b, 0x8a, 0x9a, 0xb1, 0xa0, 0xa3, 0x92, 0xb6, 0x96, 0xae, 0x8d,
  0xb3, 0xa3, 0xb6, 0xb7, 0xb7, 0xae, 0x8f, 0xab, 0xa5, 0x88, 0x8e, 0x93,
  0x9e, 0x8d, 0x8b, 0x89, 0x8b, 0x91, 0xac, 0x99, 0xa0, 0x90, 0x93, 0xa3,
  0x7c, 0x97, 0x89, 0x92, 0x97, 0x84, 0x82, 0x84, 0x99, 0x8f, 0x91, 0x93,
  0x8c, 0x91, 0x8d, 0x96, 0x98, 0x88, 0x89, 0x9a, 0xa2, 0x98, 0x9c, 0x9f,
  0x9b, 0xa9, 0xaa, 0x89, 0xa7, 0x91, 0xa1, 0x9d, 0x85, 0x9f, 0x94, 0x8e,
  0xac, 0x84, 0x78, 0x9e, 0xad, 0x94, 0xb1, 0x9b, 0x9c, 0x8f, 0xa0, 0x7f,
  0xa4, 0x95, 0x85, 0x9a, 0xa3, 0x90, 0x9e, 0x94, 0x91, 0x9a, 0xb5, 0x9b,
  0xa8, 0x92, 0x9f, 0x99, 0x6b, 0xa2, 0xa1, 0x92, 0x9c, 0x90, 0x60, 0xa2,
  0xa7, 0x8e, 0xa5, 0x93, 0x5c, 0x76, 0xa5, 0x75, 0x95, 0x93, 0x91, 0x99,
  0xab, 0xa8, 0xa7, 0xae, 0xa4, 0xa8, 0xa1, 0xa4, 0xb9, 0xa2, 0x84, 0xaf,
  0x89, 0xa9, 0xa3, 0xab, 0xa8, 0xb0, 0x7d, 0x88, 0x9c, 0x9a, 0xa1, 0xb1,
  0x48, 0x87, 0x85, 0x99, 0xb0, 0xa6, 0x9c, 0xa2, 0x9a, 0xac, 0xaa, 0xac,
  0xac, 0xa3, 0xf5, 0xa9, 0xc2, 0xa7, 0x70, 0xaa, 0xaf, 0xa8, 0xb1, 0xa6,
  0xad, 0xaf, 0xa8, 0x69, 0x9f, 0xa2, 0xac, 0xaf, 0xa4, 0x9d, 0x52, 0xab,
  0xab, 0xaf, 0xb2, 0xab, 0x7a, 0x96, 0xa1, 0xa3, 0x9e, 0x93, 0xb3, 0xa4,
  0xc6, 0xae, 0x5f, 0xa9, 0xac, 0x9d, 0xaa, 0xac, 0xab, 0xa9, 0xac, 0x64,
  0x7f, 0x9e, 0xa4, 0xa3, 0xa2, 0xa5, 0x56, 0x9a, 0x8b, 0x9b, 0xad, 0x9f,
  0x7d, 0x9b, 0xaf, 0x9f, 0x96, 0x84, 0x91, 0x97, 0xcd, 0x9a, 0x8e, 0x92,
  0xa7, 0x8b, 0xb9, 0x95, 0xa5, 0x99, 0xa3, 0x96, 0x7c, 0xaa, 0xa5, 0xaf,
  0x94, 0xa9, 0x91, 0xae, 0xa1, 0xa6, 0x98, 0x8a, 0x8d, 0xb0, 0xac, 0xa7,
  0xad, 0x93, 0xa3, 0xa5, 0xab, 0xa1, 0xa5, 0xa1, 0xa3, 0xa1, 0xba, 0xa1,
  0xa6, 0xa3, 0xa5, 0xa5, 0x93, 0xac, 0x9f, 0xa0, 0x92, 0x95, 0xa5, 0xa0,
  0x9d, 0xa2, 0x99, 0xa1, 0x98, 0x92, 0x98, 0x8e, 0xa0, 0x98, 0xa4, 0x9b,
  0xa2, 0x9c, 0xa0, 0x9c, 0x9d, 0x8c, 0x8c, 0x9b, 0x98, 0x9c, 0xa2, 0x9f,
  0x7f, 0x94, 0xa4, 0xa9, 0x99, 0x9e, 0x94, 0x99, 0x94, 0x9f, 0x9e, 0xa4,
  0x8f, 0x81, 0xb3, 0x93, 0x8e, 0x80, 0xb3, 0x8e, 0xaa, 0x90, 0xa5, 0x8c,
  0xa1, 0x83, 0xb7, 0x92, 0x8e, 0x85, 0x8e, 0x95, 0x8d, 0x81, 0x8f, 0x9b,
  0x95, 0x8f, 0xa1, 0x89, 0xa6, 0x81, 0x8f, 0x7e, 0x8e, 0x99, 0xa8, 0xa2,
  0x98, 0x85, 0xad, 0x98, 0xab, 0x99, 0xa5, 0x97, 0x87, 0x92, 0xa9, 0x92,
  0x8b, 0x98, 0x8f, 0xa7, 0x96, 0xa5, 0x8c, 0x8f, 0x9d, 0x85, 0x9e, 0x9d,
  0xa6, 0x9e, 0x97, 0x8d, 0xa1, 0xa2, 0xa5, 0xa3, 0xa3, 0xa6, 0xab, 0xa3,
  0xa1, 0xa2, 0xb3, 0xa2, 0xa4, 0xa6, 0xac, 0xa4, 0xa0, 0xa0, 0xa0, 0xab,
  0xa5, 0xa0, 0xa4, 0xa5, 0xa5, 0xa4, 0xa2, 0xa4, 0xb4, 0xa1, 0xa0, 0xa7,
  0xbc, 0xa0, 0xbe, 0xa0, 0xa0, 0xa4, 0xa5, 0xa3, 0xa6, 0xa3, 0xb7, 0xaa,
  0xa6, 0xa3, 0xb4, 0xa3, 0xba, 0x97, 0xa1, 0xbb, 0xc5, 0xa3, 0xa6, 0xae,
  0xad, 0xaf, 0xb7, 0xa5, 0xb8, 0x98, 0xaa, 0xa4, 0x9d, 0x8b, 0x83, 0x84,
  0x87, 0x7f, 0xa7, 0x8e, 0xa2, 0x8b, 0xb0, 0x92, 0xac, 0x81, 0x8d, 0x8a,
  0xbc, 0x7c, 0x8e, 0xb2, 0x9d, 0x9a, 0xbb, 0xbd, 0xb0, 0xb9, 0xb9, 0x98,
  0x8c, 0x7b, 0x91, 0x7f, 0x86, 0x81, 0x91, 0x87, 0xa7, 0x8d, 0xa9, 0x86,
  0xb0, 0x8e, 0xb0, 0x84, 0x8e, 0x85, 0x97, 0x82, 0x9d, 0x90, 0x8b, 0xa9,
  0x8d, 0x85, 0xad, 0xa1, 0x96, 0x8d, 0xb0, 0x8d, 0x99, 0x8e, 0x7b, 0x7d,
  0xb0, 0x96, 0x8c, 0x9a, 0x98, 0xa4, 0xb3, 0x95, 0x9c, 0x99, 0x9e, 0x8f,
  0x85, 0x98, 0x8d, 0x90, 0x8a, 0x86, 0x93, 0xa7, 0xb3, 0xa0, 0xac, 0x90,
  0xab, 0x7a, 0xb8, 0x91, 0x99, 0x99, 0x8b, 0x9e, 0xa0, 0x88, 0xa5, 0x9a,
  0x92, 0x99, 0x98, 0x97, 0xba, 0x96, 0x8d, 0x9f, 0x72, 0xa5, 0xa4, 0x8e,
  0xb9, 0x94, 0x5f, 0x8b, 0x9a, 0x92, 0xc4, 0xbf, 0x4f, 0x97, 0xa1, 0x7e,
  0xa9, 0x8a, 0x93, 0x92, 0x9e, 0xad, 0xaa, 0xb3, 0xa0, 0xa1, 0x98, 0xaf,
  0xb1, 0xac, 0x80, 0xa6, 0x8b, 0xae, 0xa8, 0xad, 0x97, 0xae, 0x81, 0x78,
  0xa2, 0xa9, 0xac, 0xb0, 0x55, 0x83, 0x75, 0xb2, 0xa7, 0xaa, 0xac, 0xa2,
  0x8c, 0xa6, 0xad, 0xa9, 0xa0, 0x96, 0xa9, 0xa9, 0xb8, 0xa7, 0x80, 0xa1,
  0xac, 0xab, 0xb2, 0xa3, 0xac, 0xa7, 0xaf, 0x7e, 0x8a, 0xa2, 0xb5, 0xba,
  0xa1, 0xa8, 0x8d, 0xaa, 0xa5, 0x9d, 0xa5, 0xa8, 0x6a, 0x96, 0xad, 0x98,
  0x95, 0x8b, 0x84, 0x94, 0xdc, 0xa0, 0x6e, 0xa1, 0xaa, 0x91, 0xb2, 0xa1,
  0xad, 0x95, 0xae, 0x74, 0x73, 0xa5, 0xa8, 0xa7, 0x9a, 0xa2, 0x76, 0xa3,
  0x76, 0xa0, 0xaa, 0x99, 0x8c, 0x8f, 0xae, 0x9f, 0x8d, 0x8f, 0x9c, 0x8e,
  0xbc, 0x90, 0x89, 0x98, 0x9d, 0x9d, 0xac, 0x92, 0x99, 0x9e, 0x99, 0x8f,
  0x88, 0x9f, 0x97, 0xa2, 0x8c, 0x9c, 0x8e, 0x8f, 0x97, 0x86, 0x97, 0x90,
  0x7e, 0x8f, 0xa4, 0x89, 0x8b, 0x94, 0xa3, 0x99, 0xb2, 0x97, 0x9a, 0x96,
  0x8d, 0x8f, 0x9e, 0x9d, 0x94, 0x82, 0x9e, 0x92, 0x77, 0x9a, 0x99, 0x97,
  0x8f, 0x90, 0x8a, 0x8e, 0x9b, 0x92, 0x9b, 0x93, 0x93, 0x8a, 0x86, 0x85,
  0x79, 0x91, 0xa5, 0x84, 0xa0, 0x90, 0x94, 0x90, 0x82, 0x97, 0x95, 0x8f,
  0x87, 0x8b, 0x88, 0xa3, 0x92, 0x99, 0x9c, 0x98, 0x90, 0x8b, 0xaa, 0x82,
  0x8a, 0x8d, 0x84, 0x9c, 0x93, 0xa4, 0xa7, 0x99, 0xa4, 0xa5, 0xaf, 0x91,
  0xa6, 0x97, 0xac, 0x96, 0x8a, 0x8c, 0xaf, 0x96, 0x89, 0x9d, 0x90, 0xa7,
  0x9d, 0xa2, 0x9b, 0x9a, 0x9d, 0x8a, 0xaa, 0x9c, 0xab, 0xa0, 0x8d, 0xa7,
  0xa2, 0x9c, 0xa3, 0xa1, 0x8b, 0x9b, 0xa2, 0x99, 0xa5, 0x9b, 0xb0, 0x9a,
  0x76, 0x99, 0xa0, 0x98, 0xa4, 0x95, 0x8c, 0xad, 0xad, 0x9b, 0xa6, 0xa1,
  0xb3, 0x8a, 0xa9, 0x9a, 0xa5, 0x98, 0x9c, 0x9e, 0xa3, 0xa3, 0xb3, 0xa3,
  0xa8, 0xa4, 0xab, 0xa2, 0xa7, 0xa3, 0xba, 0xa5, 0x9f, 0xa8, 0xb9, 0xa3,
  0xa3, 0xa4, 0xa3, 0xbe, 0xa8, 0xa5, 0x9d, 0xa4, 0xa7, 0xa2, 0xab, 0xa6,
  0xad, 0xa4, 0xa5, 0xa8, 0x9f, 0x98, 0x8c, 0x96, 0x8a, 0x88, 0xa9, 0x96,
  0xa2, 0x9b, 0xbc, 0x95, 0xa2, 0x92, 0x88, 0x97, 0xbd, 0x90, 0x98, 0xbd,
  0x9f, 0x94, 0xb1, 0xb4, 0x9a, 0xb0, 0xc0, 0x98, 0x88, 0x83, 0xa2, 0x98,
  0x83, 0x9f, 0x8e, 0x88, 0x9d, 0x99, 0xa4, 0x8c, 0x9e, 0x93, 0xa0, 0x92,
  0x8d, 0x88, 0x8e, 0x90, 0x9e, 0x82, 0x82, 0x90, 0x93, 0x91, 0xa6, 0x9c,
  0x87, 0x8a, 0x9a, 0x83, 0x85, 0x99, 0x8e, 0x9a, 0x98, 0x79, 0x7f, 0x74,
  0x84, 0x90, 0xa4, 0x86, 0xae, 0x89, 0xab, 0x8c, 0x69, 0x9a, 0x8b, 0x82,
  0x91, 0x7c, 0x7b, 0x9f, 0xa6, 0x89, 0xae, 0x8a, 0x80, 0x69, 0xb1, 0x83,
  0x97, 0x85, 0x80, 0x96, 0x8d, 0x98, 0x8e, 0x96, 0x94, 0xa2, 0xad, 0x92,
  0x9a, 0x8c, 0x9f, 0x95, 0x73, 0x92, 0x8f, 0x91, 0x86, 0x89, 0x7e, 0x9c,
  0x9a, 0x97, 0xb1, 0x96, 0x84, 0x6f, 0xa8, 0x88, 0xa3, 0x92, 0x90, 0x9d,
  0x96, 0x91, 0xab, 0xa0, 0x8e, 0x98, 0xd4, 0x9b, 0xa5, 0x95, 0x87, 0x9a,
  0x8b, 0xa5, 0xa8, 0x8f, 0x9d, 0xa0, 0x72, 0x87, 0x95, 0x9c, 0xaa, 0xba,
  0x7b, 0x8f, 0x8c, 0x7f, 0xa4, 0xa5, 0x84, 0x94, 0x82, 0xae, 0xaf, 0xae,
  0x98, 0x9a, 0xc5, 0xa2, 0xaa, 0xac, 0x9b, 0xa2, 0x9e, 0xa5, 0xb4, 0xa4,
  0xa3, 0xaa, 0x9b, 0xa0, 0x76, 0xaa, 0xb1, 0xac, 0x76, 0x90, 0x7b, 0xa9,
  0x8b, 0xb3, 0xaf, 0xa0, 0x7e, 0xa5, 0xaf, 0xab, 0x93, 0xa3, 0x9c, 0xa5,
  0xba, 0xa8, 0x86, 0xab, 0xa6, 0xa7, 0xaf, 0xa8, 0xaf, 0xa2, 0xa3, 0x99,
  0x89, 0xaf, 0xac, 0xae, 0x9e, 0xa5, 0xa3, 0xa5, 0xa3, 0xa6, 0xb1, 0xa2,
  0x7e, 0x8e, 0x98, 0x8d, 0x95, 0x9d, 0x87, 0x8d, 0xdc, 0x93, 0x77, 0x9a,
  0xa5, 0x94, 0x9d, 0x91, 0xa0, 0x8e, 0xa2, 0x78, 0x7f, 0x8e, 0xa7, 0xa7,
  0x9d, 0xa6, 0x84, 0x9d, 0x9b, 0x89, 0x93, 0x98, 0x89, 0x94, 0xa0, 0xa1,
  0x8c, 0x99, 0xa5, 0xa0, 0xa9, 0x94, 0x76, 0xa5, 0x99, 0x9e, 0x9b, 0xa0,
  0x96, 0x8c, 0x99, 0x6a, 0x96, 0x8f, 0x7f, 0x8e, 0x9d, 0x99, 0x72, 0xa3,
  0xa2, 0x95, 0x9f, 0xa0, 0x9a, 0x8d, 0x81, 0x83, 0x96, 0x9b, 0xa6, 0x97,
  0x9b, 0x96, 0xa4, 0x99, 0x93, 0x9e, 0x76, 0x96, 0x91, 0x87, 0x98, 0x9a,
  0x98, 0x87, 0x8c, 0x8c, 0x91, 0x8e, 0x92, 0x9d, 0x91, 0x7e, 0x8a, 0x9a,
  0x98, 0x8a, 0xa1, 0x86, 0x95, 0x9f, 0xa9, 0x93, 0xac, 0x83, 0xb1, 0x94,
  0x95, 0x9d, 0x9d, 0x8b, 0x83, 0x86, 0x8b, 0xaf, 0x9b, 0x9a, 0x85, 0x7a,
  0xa8, 0x93, 0xad, 0x8c, 0xa3, 0xa2, 0x9f, 0xa2, 0xa1, 0xab, 0xb0, 0xad,
  0xa3, 0xaa, 0xa7, 0xa1, 0xaa, 0xa0, 0xb4, 0xa3, 0xa2, 0xa1, 0xab, 0xa4,
  0x94, 0xa9, 0x9f, 0xa8, 0xa0, 0xb3, 0x95, 0x93, 0xa2, 0xa3, 0xb0, 0xab,
  0xaa, 0xaa, 0x9e, 0xa8, 0xa7, 0xa3, 0xa7, 0xa4, 0x98, 0x89, 0xa9, 0xa5,
  0xa9, 0xa1, 0xa9, 0xa2, 0xa9, 0xa6, 0xae, 0xa0, 0x9b, 0x9e, 0xab, 0xac,
  0xa9, 0xa5, 0xa8, 0xa2, 0xad, 0xa1, 0xab, 0xa6, 0xa1, 0xa1, 0xa0, 0x98,
  0xa4, 0xa5, 0xa4, 0xa0, 0xa4, 0x9c, 0xaa, 0xa1, 0xaa, 0xa3, 0xb6, 0xa4,
  0xa5, 0x9e, 0x9b, 0xa2, 0xa6, 0xa0, 0xa1, 0xb1, 0xaa, 0xa6, 0x99, 0xa2,
  0x9e, 0xa2, 0xa7, 0xa2, 0xa0, 0xa2, 0xa4, 0xa3, 0x8e, 0x85, 0x73, 0x80,
  0x7a, 0x79, 0xae, 0x8f, 0xa9, 0x87, 0x97, 0x89, 0x9c, 0x80, 0x75, 0x93,
  0xa9, 0x80, 0x95, 0x90, 0x85, 0x84, 0x9a, 0xac, 0x9c, 0xa2, 0x94, 0x90,
  0x80, 0x7f, 0x9d, 0x80, 0x7e, 0x73, 0x8b, 0x7f, 0x85, 0x7f, 0xac, 0x7b,
  0xad, 0x8d, 0x95, 0x7e, 0x79, 0x7f, 0x7d, 0x7d, 0x8b, 0x83, 0x7b, 0x96,
  0x7c, 0x84, 0xa7, 0x97, 0x99, 0x83, 0xac, 0x81, 0x84, 0x7e, 0x77, 0x7c,
  0x9d, 0x8f, 0x97, 0x83, 0x9d, 0xa4, 0xa1, 0x92, 0xae, 0x90, 0x93, 0x97,
  0x57, 0x9c, 0x89, 0x8d, 0x70, 0x87, 0x75, 0x92, 0xa4, 0x82, 0xaa, 0x84,
  0x9b, 0x5f, 0xac, 0x7c, 0xa4, 0x86, 0x82, 0x97, 0xab, 0x97, 0x8b, 0x99,
  0x93, 0xae, 0xc3, 0xa1, 0x9a, 0xa3, 0x8c, 0x9a, 0x88, 0xa9, 0x8d, 0x91,
  0x72, 0x8b, 0x89, 0x8d, 0xaa, 0x8d, 0x8f, 0x8d, 0xad, 0x71, 0xa0, 0x93,
  0xa5, 0x92, 0x91, 0x9d, 0x97, 0x95, 0x9c, 0xa1, 0x8c, 0xa2, 0xff, 0xa0,
  0x93, 0x9e, 0x8c, 0x98, 0x9c, 0xa3, 0x9c, 0x9c, 0x89, 0x95, 0x9b, 0x7f,
  0x93, 0x98, 0xa3, 0x99, 0xb5, 0x86, 0x7c, 0x98, 0x9d, 0xa2, 0x97, 0x9f,
  0x8e, 0x9e, 0xaf, 0xa5, 0x96, 0x94, 0xe0, 0xa0, 0xb3, 0xa2, 0x85, 0x9a,
  0x96, 0xa9, 0xb0, 0xa7, 0xa1, 0xa6, 0x94, 0x88, 0x80, 0x94, 0xae, 0xad,
  0x9b, 0x8a, 0x84, 0x8d, 0xa0, 0xa7, 0xa4, 0x9c, 0x95, 0x9c, 0x9d, 0xa8,
  0x9c, 0xa0, 0xa2, 0xa2, 0xa5, 0xab, 0x92, 0xa4, 0xa2, 0x99, 0xab, 0xa7,
  0xa0, 0xa2, 0xa9, 0x95, 0x8d, 0x9d, 0xa2, 0xa3, 0x9a, 0x9f, 0x9b, 0xaf,
  0x9c, 0x9f, 0xa1, 0xa4, 0x8c, 0x8c, 0x64, 0x9b, 0xa8, 0x9d, 0xa0, 0x9b,
  0xbc, 0x9c, 0x76, 0x95, 0xac, 0x9a, 0x7b, 0xa3, 0x91, 0x9f, 0xa9, 0x7e,
  0x92, 0x81, 0x93, 0x98, 0xa7, 0x9d, 0x7d, 0xa6, 0x99, 0x87, 0xa9, 0x94,
  0xa0, 0xaa, 0x81, 0x97, 0xaa, 0x99, 0xb0, 0x9d, 0x9b, 0xa1, 0xab, 0x9e,
  0xa5, 0x9f, 0x91, 0xa3, 0x94, 0xa1, 0xa9, 0xaa, 0x9e, 0xa9, 0x86, 0x89,
  0xb2, 0x9f, 0x9d, 0xb5, 0xa3, 0xa2, 0xa8, 0x97, 0xaa, 0xa1, 0x6f, 0x95,
  0x99, 0xa1, 0xa7, 0x95, 0x9a, 0xa2, 0xac, 0x96, 0x9f, 0xa2, 0x8a, 0x97,
  0x93, 0x9c, 0xa5, 0xab, 0x9d, 0xa2, 0x96, 0x8f, 0xb6, 0x9a, 0xad, 0xa4,
  0xa5, 0x9e, 0x95, 0xa3, 0xa8, 0xa0, 0xac, 0xa6, 0xb1, 0x97, 0xad, 0x92,
  0xad, 0x9c, 0x9e, 0x9b, 0xa2, 0xa1, 0xad, 0x95, 0x8e, 0xa9, 0xa8, 0x9b,
  0x97, 0xa6, 0x92, 0x92, 0xb2, 0xa8, 0x9a, 0xa5, 0xb3, 0xa2, 0x9a, 0x9b,
  0xb4, 0xa8, 0xb8, 0xae, 0x99, 0xa1, 0xab, 0x9f, 0xa8, 0xaa, 0x9a, 0xa2,
  0xa3, 0x9a, 0xb5, 0xa8, 0x9b, 0xa9, 0xa7, 0x95, 0xb0, 0xb6, 0x9f, 0x9d,
  0xb0, 0x9e, 0xa7, 0xa7, 0xa2, 0xa8, 0xa2, 0xb0, 0xa1, 0xa9, 0xb2, 0xa6,
  0x92, 0xad, 0xae, 0xa7, 0xae, 0xa2, 0xad, 0xa3, 0xb2, 0xab, 0xb9, 0xa2,
  0xb4, 0x9a, 0xad, 0x9c, 0xa8, 0xb2, 0xb3, 0xb7, 0xba, 0xbb, 0x9f, 0xaa,
  0x94, 0x9c, 0xad, 0x95, 0xa3, 0xa3, 0x95, 0x9f, 0xa0, 0x99, 0xaf, 0x99,
  0xa1, 0x9e, 0xb0, 0xa0, 0x9f, 0x9c, 0x98, 0xa1, 0xa4, 0x9a, 0xa3, 0xb0,
  0xa1, 0x98, 0x9d, 0xa5, 0xa7, 0xa3, 0xa6, 0xa2, 0x94, 0x9a, 0xa1, 0x9f,
  0xa1, 0xa7, 0xaa, 0x9a, 0xb3, 0xb3, 0xab, 0x9a, 0xa6, 0x9f, 0x95, 0x9b,
  0x9e, 0x9f, 0xa2, 0x93, 0xad, 0x9b, 0xa9, 0x92, 0xb0, 0x92, 0xa3, 0xa4,
  0xaa, 0xaa, 0x9c, 0xa2, 0xa8, 0xa9, 0x9c, 0x9b, 0xba, 0x86, 0x9f, 0x7f,
  0xab, 0xaf, 0xa7, 0x95, 0xb3, 0x82, 0xa2, 0x9a, 0xae, 0xa6, 0xa3, 0x98,
  0xaa, 0x7f, 0xba, 0xa1, 0xbb, 0x7b, 0xb6, 0xa1, 0xbb, 0xaa, 0xb1, 0x93,
  0xb1, 0x7b, 0x99, 0xad, 0xbe, 0x9b, 0x9b, 0x91, 0x91, 0xa6, 0xb9, 0xa1,
  0xa7, 0x95, 0xb7, 0xa9, 0x9b, 0xa0, 0x99, 0x9a, 0xa5, 0x8a, 0x94, 0xb1,
  0xbf, 0xa2, 0xc1, 0x98, 0xaf, 0x6f, 0xc1, 0x8f, 0xb8, 0x9b, 0x90, 0xa0,
  0xa5, 0x96, 0x97, 0x9e, 0x95, 0xab, 0xc4, 0x9f, 0xae, 0xa2, 0xaa, 0x9c,
  0x8c, 0xa7, 0x9b, 0xa0, 0x9b, 0x9e, 0x91, 0xa1, 0xa7, 0xaa, 0xb9, 0x97,
  0xa6, 0x77, 0xc1, 0x8f, 0xae, 0xae, 0x8e, 0xa9, 0xaa, 0x96, 0x98, 0xa3,
  0x87, 0xa5, 0xe5, 0x9f, 0xa2, 0xaa, 0x8e, 0xa5, 0x8d, 0xa4, 0x96, 0x96,
  0xa3, 0xa0, 0x8d, 0x9d, 0xaa, 0x9f, 0xb7, 0xb7, 0xa7, 0x77, 0xa3, 0x7f,
  0xbe, 0x9f, 0x9d, 0xa5, 0x95, 0x9a, 0xa1, 0xa9, 0x8d, 0xac, 0xda, 0xa0,
  0xb0, 0xa8, 0x8f, 0xa1, 0x9f, 0xab, 0x9d, 0xa6, 0x9c, 0xa3, 0x9c, 0x94,
  0x92, 0xa0, 0x9e, 0xa1, 0x9b, 0x91, 0x81, 0x98, 0xa9, 0xa1, 0xa1, 0xa6,
  0x80, 0xa2, 0x8d, 0x9e, 0xab, 0xab, 0xd6, 0xab, 0xa1, 0xac, 0x8e, 0xa8,
  0xa0, 0xa4, 0x89, 0xab, 0x85, 0xb4, 0xa7, 0x8c, 0x89, 0x9a, 0x8a, 0x8f,
  0xa4, 0x8a, 0x82, 0xa6, 0x79, 0xa4, 0xa3, 0xb1, 0x83, 0xa5, 0x73, 0xa0,
  0xa4, 0xae, 0xc2, 0xab, 0xaa, 0xad, 0xb6, 0xa7, 0xa7, 0xad, 0x8e, 0xa8,
  0x9b, 0xad, 0xa7, 0xaa, 0x9b, 0xa3, 0x93, 0x90, 0xab, 0x9b, 0x9c, 0x9d,
  0x86, 0xb3, 0xab, 0xb3, 0x99, 0xb9, 0x74, 0xa6, 0x98, 0xa9, 0xba, 0x9d,
  0xb4, 0x9e, 0xbb, 0xa3, 0xb3, 0xa5, 0x86, 0xa9, 0xa5, 0x9d, 0xb8, 0xb2,
  0xa3, 0xb4, 0x94, 0x91, 0xb4, 0xa7, 0xa9, 0xb2, 0x97, 0xb7, 0xa9, 0xbc,
  0xa5, 0xb8, 0x7d, 0xa9, 0x97, 0xb1, 0xc1, 0x9d, 0xa9, 0xa7, 0xb4, 0x9f,
  0xad, 0x9f, 0x8f, 0xab, 0x9a, 0xa4, 0xa8, 0xac, 0xa6, 0xb0, 0x9c, 0x9b,
  0xbf, 0xab, 0xae, 0x99, 0x95, 0xb8, 0xa3, 0xa8, 0x96, 0xa0, 0xb2, 0xa8,
  0x99, 0xaa, 0xa8, 0x98, 0xac, 0xa6, 0xa7, 0x9e, 0x98, 0x9e, 0xae, 0x9e,
  0xa6, 0xad, 0x9e, 0xb5, 0x9c, 0xb0, 0xa4, 0xa8, 0x9f, 0xa1, 0xa6, 0x9c,
  0x87, 0xba, 0x99, 0xa4, 0x9a, 0xb5, 0xc7, 0xb3, 0x9f, 0xad, 0xa0, 0xaa,
  0xa4, 0xab, 0xb5, 0x9d, 0xb1, 0xa3, 0xc2, 0xa5, 0xa7, 0xa9, 0xa9, 0xb1,
  0x9c, 0xb1, 0xad, 0xa9, 0xa3, 0xac, 0xaf, 0xa7, 0xab, 0xb0, 0xa8, 0xac,
  0xa8, 0xa8, 0xac, 0xa6, 0xb3, 0x9d, 0xa1, 0xa5, 0xa4, 0xab, 0xb9, 0xa7,
  0xb3, 0xa8, 0xb0, 0xaa, 0xb4, 0x9a, 0xa1, 0xb9, 0xab, 0xa2, 0xb6, 0xaf,
  0xa9, 0xaf, 0xbe, 0xab, 0xb0, 0xa2, 0xaa, 0xa7, 0x9f, 0xa4, 0x8f, 0x9f,
  0x9d, 0x9a, 0xae, 0x9b, 0xa8, 0x9f, 0xb1, 0xa0, 0xa0, 0x97, 0x8f, 0xa3,
  0xa7, 0x9d, 0xa1, 0xa0, 0x9d, 0x9b, 0x9c, 0xa6, 0x9e, 0xa7, 0x9b, 0xa1,
  0x95, 0x9c, 0xa5, 0xa3, 0xa7, 0x9b, 0xab, 0x9e, 0xa1, 0x9f, 0xa7, 0xa4,
  0x9c, 0x9e, 0xb2, 0x9b, 0xa1, 0xb0, 0xa2, 0x9b, 0x9f, 0x97, 0x9e, 0xb0,
  0xad, 0xa3, 0x9c, 0xaa, 0x9a, 0xa6, 0xad, 0xa0, 0xa1, 0x9a, 0xa2, 0x98,
  0xb1, 0xad, 0xa7, 0xa3, 0x9c, 0xab, 0xa9, 0xa2, 0xa5, 0xa8, 0xb3, 0xa7,
  0xa2, 0xa6, 0xb1, 0xa0, 0xb8, 0xa3, 0x98, 0xab, 0xc4, 0xb5, 0xb8, 0x9e,
  0x8d, 0x89, 0xb5, 0xa5, 0xa7, 0xaf, 0x94, 0xae, 0x98, 0xa5, 0x96, 0x9c,
  0x9e, 0xa6, 0xa6, 0x9e, 0xab, 0xa0, 0xa2, 0xa5, 0x9b, 0x9e, 0x96, 0x9c,
  0xcc, 0x9c, 0x8e, 0xa4, 0xa0, 0x9c, 0xcc, 0xc5, 0x87, 0xa9, 0xa4, 0x9f,
  0xa0, 0x9e, 0xa2, 0xaf, 0xac, 0x94, 0xa1, 0xaa, 0x83, 0xa7, 0xc0, 0x9e,
  0xb5, 0x99, 0xa0, 0xa7, 0xa6, 0xa2, 0xaa, 0x9f, 0xba, 0xa1, 0x92, 0xa4,
  0xa3, 0xab, 0xb7, 0xbb, 0x89, 0x9b, 0x9e, 0x8e, 0xb4, 0xa8, 0x90, 0xa4,
  0x7e, 0x9a, 0x97, 0xa7, 0x85, 0x99, 0xd1, 0xa7, 0xb2, 0xa0, 0x97, 0xa2,
  0xab, 0xa1, 0xa7, 0x9a, 0xaf, 0xac, 0x9e, 0x98, 0x89, 0xa3, 0xaa, 0xbb,
  0x86, 0xa2, 0x90, 0xa2, 0x90, 0xa2, 0x9f, 0x9e, 0x6f, 0xab, 0xa1, 0xb1,
  0x8e, 0x9c, 0xe8, 0x9f, 0xb3, 0xa7, 0x99, 0x9b, 0xb2, 0x95, 0xa1, 0xa9,
  0xa4, 0xac, 0xac, 0x97, 0x75, 0xab, 0x94, 0x9c, 0xa8, 0x9b, 0x8d, 0xb0,
  0x83, 0xaf, 0xa1, 0xa0, 0x5f, 0xab, 0x9f, 0xa6, 0x8c, 0x9a, 0xd4, 0x96,
  0xc0, 0xa5, 0xa6, 0x9c, 0xb4, 0x8f, 0xa4, 0xa0, 0xaa, 0xab, 0xaa, 0x9f,
  0x68, 0xb8, 0xa3, 0x9b, 0xa4, 0xaa, 0x92, 0xa6, 0x82, 0xb2, 0xa0, 0x9d,
  0x72, 0xa2, 0xab, 0x94, 0x91, 0x9c, 0xc0, 0x96, 0xb4, 0x96, 0xa2, 0x93,
  0xb4, 0x90, 0xb3, 0xa3, 0xa1, 0xa4, 0xb3, 0xa7, 0x83, 0xa8, 0x9e, 0xa7,
  0xc6, 0x9a, 0x97, 0x9e, 0x80, 0xa0, 0xaa, 0x8b, 0x98, 0xa3, 0xbf, 0xb3,
  0x9b, 0x95, 0xa9, 0x97, 0xba, 0xa3, 0xac, 0x8e, 0xa7, 0x99, 0xc2, 0x9b,
  0xaa, 0xb4, 0xb2, 0xa2, 0x8f, 0xb9, 0xab, 0xa7, 0xa8, 0xa7, 0x9d, 0xb3,
  0x9a, 0xb4, 0x98, 0x9a, 0x87, 0xae, 0x9f, 0xa2, 0x9e, 0xb0, 0xad, 0x9a,
  0xa6, 0xaa, 0xa9, 0xa5, 0xaf, 0x98, 0xa2, 0x9d, 0xa9, 0xa5, 0xae, 0x9e,
  0x91, 0xab, 0xa2, 0xa5, 0xae, 0xad, 0xa7, 0xbb, 0x84, 0x9c, 0xa8, 0xab,
  0x9a, 0x93, 0xaa, 0x94, 0x9d, 0x9b, 0xaf, 0x90, 0xa1, 0x95, 0x9d, 0x96,
  0xa8, 0x92, 0xac, 0x99, 0x9f, 0x98, 0x9d, 0x9b, 0x8e, 0xa1, 0x9a, 0x9e,
  0xb2, 0x9b, 0xa3, 0x92, 0x8e, 0x96, 0x90, 0x98, 0x8b, 0xaa, 0xb5, 0xa3,
  0x9a, 0x91, 0xa3, 0x9c, 0xa7, 0xa3, 0xb0, 0x95, 0x88, 0x93, 0xc2, 0x9b,
  0x8e, 0xa0, 0x8a, 0xab, 0x95, 0xb7, 0xa5, 0x93, 0x80, 0x91, 0xa4, 0xa8,
  0xa4, 0xaf, 0x8c, 0x95, 0xba, 0xab, 0xaa, 0xa5, 0xa8, 0xba, 0xa8, 0xa3,
  0xa8, 0xa8, 0xbd, 0xa9, 0xb1, 0xa2, 0xa2, 0xaa, 0xb7, 0xa6, 0xa2, 0xba,
  0xb6, 0xb2, 0xb2, 0xa8, 0xad, 0xb5, 0xb4, 0xa7, 0xb3, 0xab, 0xa5, 0xa9,
  0xa4, 0xa3, 0x99, 0xa5, 0xa5, 0xa1, 0xa5, 0xa0, 0xa4, 0xa1, 0xb5, 0xa5,
  0xa4, 0xa3, 0xa0, 0xa4, 0xa2, 0xa1, 0xa0, 0xaa, 0xa3, 0xa3, 0x98, 0xa5,
  0xa1, 0xa7, 0xa4, 0xa5, 0xa7, 0xa5, 0xa4, 0xa0, 0x94, 0x9e, 0x74, 0x9d,
  0x93, 0x95, 0xa9, 0x9a, 0xa8, 0x9b, 0x8c, 0x9c, 0x9d, 0x90, 0x7c, 0x9c,
  0x9c, 0x96, 0x9c, 0x82, 0x8b, 0x8b, 0x99, 0xa1, 0xa2, 0x9d, 0x8b, 0x9c,
  0x8c, 0x95, 0xa2, 0x98, 0x98, 0x8e, 0x8d, 0x93, 0x95, 0x86, 0xb5, 0x8e,
  0xa3, 0x92, 0x98, 0x89, 0xa0, 0x8f, 0x8f, 0x91, 0x83, 0x92, 0x9d, 0x97,
  0x85, 0x97, 0x8a, 0x8c, 0x9d, 0x8b, 0x9a, 0x96, 0x99, 0x8d, 0x98, 0x88,
  0x9d, 0x9b, 0xa0, 0x9a, 0xa0, 0x88, 0xa4, 0x8d, 0xb2, 0x91, 0x99, 0x90,
  0xa9, 0x90, 0xac, 0x8c, 0xa3, 0x97, 0xae, 0x9b, 0xa1, 0x9f, 0xaa, 0xba,
  0x96, 0xb6, 0x9e, 0xaa, 0xa6, 0x96, 0x8c, 0x8a, 0xa7, 0xa5, 0x9e, 0x9f,
  0x93, 0x98, 0xb8, 0x9f, 0xab, 0xa3, 0x9d, 0x9d, 0xaa, 0x96, 0x99, 0x9e,
  0xa1, 0x9f, 0xb5, 0xa2, 0x9f, 0xa4, 0xa4, 0xa5, 0xab, 0xad, 0x9c, 0xb5,
  0x9d, 0x9c, 0xa4, 0x9c, 0x97, 0x94, 0x9f, 0x8c, 0x93, 0x8f, 0xb1, 0x86,
  0xb5, 0x97, 0xa3, 0x8a, 0xb5, 0x9e, 0xa5, 0x92, 0xa3, 0x98, 0xaf, 0x9a,
  0x9f, 0x9b, 0xa6, 0xa8, 0xad, 0xa8, 0x9e, 0x84, 0x9f, 0x9b, 0x8b, 0x93,
  0x91, 0x9f, 0x95, 0x96, 0xab, 0xa8, 0xb8, 0x94, 0xa6, 0x98, 0x9c, 0x9a,
  0x98, 0x97, 0x97, 0x96, 0x96, 0xaa, 0xa4, 0x9a, 0x92, 0x9f, 0x95, 0x9c,
  0xb6, 0x97, 0xa2, 0x9b, 0x8c, 0x9f, 0x8c, 0x9e, 0xb0, 0x93, 0xa7, 0x96,
  0x98, 0x8a, 0xb9, 0x81, 0xa9, 0x87, 0x9c, 0x88, 0x9f, 0x76, 0xa3, 0x90,
  0xa3, 0x9d, 0xa6, 0x9b, 0x8e, 0x99, 0xa5, 0xa6, 0xb4, 0xa8, 0x9c, 0xa0,
  0xa3, 0x91, 0xa5, 0x8a, 0x92, 0x99, 0xb6, 0x9a, 0x9d, 0x82, 0xa8, 0x88,
  0xa3, 0x8c, 0x98, 0x90, 0x8f, 0x97, 0xb0, 0x8d, 0x93, 0xa0, 0x9e, 0x9d,
  0x93, 0x96, 0x92, 0x9e, 0x9a, 0x97, 0x9c, 0x92, 0xa7, 0xa4, 0x8b, 0x92,
  0xb0, 0x99, 0xc2, 0xa5, 0xa3, 0xbf, 0xa7, 0x9e, 0xa6, 0x9a, 0xa2, 0xa1,
  0xab, 0xb9, 0xc1, 0x97, 0x9c, 0x94, 0xb4, 0x9d, 0xb5, 0xa8, 0xa0, 0xa6,
  0xa9, 0xa5, 0xa5, 0xa2, 0xa9, 0x97, 0x97, 0xa1, 0xa4, 0xa4, 0x98, 0xa1,
  0xac, 0xa5, 0xa9, 0x98, 0xa2, 0xa3, 0xad, 0xa4, 0xaa, 0xa0, 0x99, 0x9c,
  0xa6, 0xaa, 0xa7, 0xa6, 0xae, 0xa4, 0xa7, 0xa0, 0xae, 0xb1, 0xa9, 0xa7,
  0xaf, 0x97, 0x9e, 0xa6, 0x8e, 0x95, 0x83, 0x91, 0xa3, 0xa3, 0xa3, 0x96,
  0xa6, 0x98, 0x94, 0x93, 0x9b, 0xa0, 0x81, 0x97, 0xa3, 0xa2, 0x92, 0x92,
  0x9f, 0x8b, 0xa2, 0xa6, 0xa0, 0x9e, 0x99, 0x9a, 0x8c, 0x94, 0x98, 0x9d,
  0x91, 0x94, 0xa7, 0x9e, 0x82, 0x89, 0xa9, 0x9c, 0xa8, 0x96, 0x96, 0x96,
  0x88, 0x99, 0xa7, 0x94, 0x7b, 0x94, 0x89, 0x99, 0x95, 0x93, 0x7e, 0x7d,
  0x90, 0x7d, 0x8e, 0x94, 0xa1, 0x97, 0x98, 0x94, 0xaa, 0xa1, 0xa0, 0xa5,
  0xaf, 0xa2, 0xab, 0xa3, 0xa7, 0xa6, 0xba, 0xa6, 0x9b, 0xa1, 0xb0, 0xa4,
  0xb2, 0xa1, 0x9d, 0xb6, 0xaa, 0xb1, 0xa4, 0xaa, 0x9e, 0xa8, 0xb0, 0xa8,
  0xa4, 0xa3, 0xa0, 0xa0, 0xa3, 0xa3, 0x9f, 0xa2, 0xa7, 0xa2, 0xa8, 0xa1,
  0xa5, 0xa3, 0xae, 0xa7, 0x9f, 0xa0, 0xa3, 0xa0, 0xa4, 0xa3, 0xa1, 0xb0,
  0xa1, 0xa5, 0x9f, 0xa4, 0x9e, 0xa3, 0x9f, 0xa6, 0xa3, 0xa5, 0xa3, 0xa7,
  0x98, 0x9e, 0x80, 0x9b, 0xa7, 0x9e, 0xad, 0x9b, 0xa7, 0xa0, 0xa5, 0xa0,
  0xa0, 0x9f, 0x82, 0x9f, 0xa4, 0x9d, 0x9f, 0x8e, 0xa4, 0x9d, 0xa3, 0x9f,
  0x9e, 0xa3, 0x94, 0xa0, 0x9f, 0x9e, 0x9f, 0xa2, 0x8d, 0x94, 0x80, 0x92,
  0x91, 0x98, 0xac, 0x96, 0xa8, 0x9b, 0x89, 0x96, 0x9d, 0x95, 0x7e, 0x9a,
  0x88, 0x89, 0x9a, 0x72, 0x9d, 0x82, 0x92, 0x94, 0xa0, 0x86, 0x87, 0x9e,
  0x94, 0x8e, 0x9d, 0x9a, 0x95, 0x84, 0x9a, 0x93, 0x8c, 0x8d, 0xac, 0x99,
  0xa6, 0x90, 0x9f, 0x8f, 0x92, 0x94, 0x99, 0x95, 0x82, 0x7f, 0x93, 0x97,
  0x8c, 0x90, 0x85, 0x92, 0x9e, 0x89, 0x9c, 0x94, 0x96, 0x79, 0x97, 0x8c,
  0x7d, 0xa4, 0x86, 0x8d, 0x9e, 0x83, 0xb3, 0x91, 0xa8, 0x97, 0x97, 0x8f,
  0x9f, 0x7e, 0x9a, 0x97, 0x97, 0x9f, 0xa5, 0x92, 0x87, 0xa5, 0xa8, 0xa6,
  0xa1, 0xa4, 0x9f, 0x90, 0x85, 0xa6, 0x91, 0x88, 0x94, 0x7e, 0x95, 0x84,
  0x91, 0x76, 0xa9, 0x93, 0xa1, 0x8d, 0x86, 0x83, 0x80, 0x7c, 0x8d, 0x8e,
  0x7c, 0x86, 0x82, 0x83, 0x75, 0x77, 0x82, 0x94, 0x9c, 0x87, 0x80, 0x8e,
  0x8d, 0x85, 0x92, 0x76, 0x73, 0x76, 0x96, 0xa1, 0x90, 0x62, 0xb0, 0x8c,
  0xa9, 0x96, 0x9f, 0x7d, 0x6a, 0x6b, 0x99, 0x91, 0x8b, 0xa3, 0x5e, 0x8e,
  0x6e, 0xad, 0x9c, 0x7d, 0xa2, 0x73, 0xa9, 0x81, 0x7e, 0xaa, 0x8e, 0x60,
  0xa0, 0xaa, 0x71, 0x85, 0xa7, 0x77, 0xa4, 0x95, 0xb7, 0x9a, 0x91, 0x8d,
  0x82, 0x9a, 0x8d, 0x9a, 0x94, 0xb3, 0x7e, 0x90, 0x94, 0x8e, 0x99, 0xa5,
  0x86, 0x99, 0x93, 0x9a, 0x94, 0xac, 0x89, 0x9b, 0x8b, 0x65, 0x55, 0x82,
  0x81, 0x90, 0xa8, 0x90, 0xa8, 0x8a, 0x72, 0x88, 0x98, 0x86, 0x59, 0x8d,
  0x81, 0x6b, 0xa2, 0x6e, 0x96, 0x58, 0x8c, 0x90, 0xa5, 0x8f, 0x80, 0x80,
  0x95, 0x68, 0x91, 0x9a, 0x9a, 0x71, 0x7a, 0x92, 0x60, 0x8c, 0xa5, 0x97,
  0xb3, 0x8b, 0x6e, 0x8e, 0x7a, 0x97, 0x70, 0x8f, 0x53, 0x73, 0x7e, 0x4c,
  0x97, 0x5c, 0x5f, 0x61, 0x99, 0x4d, 0x57, 0x8f, 0x99, 0x74, 0x8f, 0x89,
  0x9f, 0x91, 0x90, 0x9c, 0x82, 0x99, 0xa7, 0x9b, 0xa4, 0x99, 0x9b, 0x99,
  0x97, 0xa0, 0x8e, 0x9b, 0x7b, 0x8f, 0x95, 0x7e, 0xa0, 0x89, 0x89, 0x80,
  0x9f, 0x7e, 0x7b, 0x9d, 0x9f, 0x8d, 0x9a, 0x95, 0x9c, 0x9c, 0x8f, 0xa2,
  0x98, 0x9d, 0xa4, 0xa1, 0xa7, 0x9a, 0xa1, 0xa0, 0x9a, 0xa2, 0x93, 0x9e,
  0x8b, 0x99, 0x98, 0x9b, 0xa9, 0x93, 0x90, 0x98, 0x9c, 0x91, 0x9b, 0xa1,
  0x9c, 0x9b, 0xa4, 0xa0, 0xa1, 0xa0, 0x9f, 0xa3, 0x98, 0xa2, 0xa2, 0xa1,
  0xa2, 0xa0, 0xa7, 0xa1, 0xa2, 0xa0, 0xa3, 0xa2, 0x93, 0xa2, 0xa3, 0x9e,
  0xa7, 0xa6, 0x93, 0x96, 0x9e, 0x9e, 0x95, 0xa2, 0xa4, 0xa0, 0xa0, 0xa4,
  0xa0, 0xa1, 0x9b, 0xa4, 0xa4, 0xa1, 0xa0, 0xa1, 0xa4, 0xa3, 0xb0, 0xa4,
  0x9f, 0xa2, 0xa4, 0xa0, 0xa5, 0xa6, 0xa2, 0xb3, 0xa6, 0xa1, 0x9e, 0xa4,
  0x9e, 0xa6, 0xa4, 0xa4, 0xa5, 0xa1, 0xa4, 0xa6, 0xa1, 0xa2, 0xa2, 0xa1,
  0x9e, 0x9d, 0xa0, 0xa0, 0xab, 0xa0, 0x92, 0x9e, 0xa1, 0x9e, 0xa0, 0xa1,
  0x9f, 0xa2, 0xa1, 0x8d, 0xa2, 0xa1, 0x9a, 0xa1, 0xa4, 0x9f, 0xa0, 0xa1,
  0xa0, 0x9e, 0xa0, 0x9e, 0xa0, 0x9f, 0xa6, 0xa0, 0x9e, 0xa1, 0xa7, 0xa1,
  0xa1, 0x9f, 0x99, 0xa0, 0x9e, 0xa3, 0xa2, 0xa1, 0xa2, 0x9f, 0xa1, 0x91,
  0xa3, 0xa4, 0xa1, 0xa2, 0x9b, 0xa3, 0x98, 0xa2, 0x9b, 0xa3, 0x9c, 0x9d,
  0x9e, 0xa4, 0xa0, 0xa1, 0xa2, 0x9e, 0x9f, 0xa2, 0xa9, 0xa2, 0x8f, 0xa2,
  0xa2, 0xa2, 0xa1, 0xa4, 0x9f, 0x9f, 0xa0, 0x98, 0x9e, 0xa1, 0xa2, 0xa1,
  0x9d, 0xa1, 0x99, 0x9e, 0xa0, 0xa0, 0x9f, 0xa1, 0xa4, 0xa0, 0xad, 0x9a,
  0x9f, 0x9e, 0xaa, 0x9f, 0xab, 0x9f, 0x94, 0xa1, 0xa2, 0xa2, 0xad, 0xa2,
  0xa5, 0x9c, 0xa1, 0x97, 0xa1, 0xa2, 0x9f, 0x9f, 0xa0, 0xa0, 0x93, 0x9e,
  0xa1, 0xa0, 0x9c, 0xa2, 0xb4, 0xa0, 0xc1, 0xa0, 0xb0, 0xaa, 0x9e, 0xa1,
  0xa5, 0x9e, 0x90, 0xa1, 0xb3, 0xa7, 0xc0, 0xa4, 0x95, 0xa1, 0xae, 0x8d,
  0xa1, 0xa0, 0x9d, 0xa2, 0xb8, 0xa6, 0x98, 0xb1, 0xc4, 0x9f, 0x9f, 0x9f,
  0xc4, 0x9b, 0xba, 0xa8, 0xaa, 0xa1, 0xa5, 0xa8, 0xa4, 0xa4, 0x95, 0xa8,
  0xb6, 0xa1, 0xb1, 0xa5, 0xc4, 0xa4, 0xbc, 0x90, 0xb5, 0x97, 0xa6, 0xb8,
  0xbf, 0xb8, 0x96, 0x9f, 0xc1, 0x96, 0xa8, 0x94, 0xb7, 0xa3, 0x9a, 0xa4,
  0xb6, 0xa1, 0xa7, 0xa0, 0xa3, 0x9f, 0x94, 0x9e, 0xad, 0x9c, 0x92, 0xa0,
  0xab, 0xa6, 0xb8, 0x98, 0xaa, 0xa6, 0xa4, 0xa9, 0xba, 0xa8, 0x97, 0x9b,
  0xaa, 0xa1, 0xa3, 0xa2, 0x9d, 0xaf, 0xa2, 0xa4, 0xb7, 0xb2, 0x9d, 0xa5,
  0x9f, 0xa6, 0xa0, 0xa0, 0xa0, 0xab, 0xaa, 0xa1, 0x9a, 0xa7, 0x9a, 0x99,
  0xa3, 0xa9, 0x9c, 0x93, 0x98, 0xa2, 0x9a, 0x91, 0x9c, 0xb8, 0x9d, 0xb3,
  0xaf, 0xc3, 0xaa, 0xb1, 0xa3, 0xbf, 0xaa, 0xa6, 0xa5, 0xa7, 0x95, 0xb8,
  0xae, 0xaf, 0x9c, 0xab, 0xb3, 0xac, 0xb9, 0x94, 0xb5, 0xbe, 0xaf, 0xa9,
  0xa5, 0xbe, 0x95, 0xab, 0xa2, 0xb9, 0xad, 0xbf, 0xa2, 0x92, 0x88, 0x91,
  0x92, 0x94, 0xa1, 0xa4, 0xa4, 0x9e, 0x91, 0x9b, 0x98, 0xa5, 0x88, 0x9f,
  0xa8, 0x9f, 0x93, 0x92, 0xa1, 0x98, 0xba, 0xa8, 0x97, 0xad, 0x97, 0x93,
  0x8b, 0x97, 0x9e, 0x96, 0x89, 0x9d, 0x9b, 0x97, 0x9b, 0x9b, 0xa0, 0x95,
  0x9f, 0x9f, 0x93, 0x9c, 0x89, 0x9a, 0x90, 0x9c, 0x86, 0x9c, 0x9a, 0x93,
  0x85, 0x9c, 0x96, 0x8d, 0x8a, 0x88, 0x99, 0x9b, 0x8d, 0x9b, 0x99, 0x94,
  0x9a, 0xa3, 0xae, 0xa2, 0xa4, 0xa1, 0xa8, 0x9d, 0xa5, 0xa2, 0x9a, 0x9c,
  0x92, 0x9f, 0xb4, 0x9d, 0x95, 0x9f, 0x95, 0x8f, 0x9b, 0xa0, 0xa5, 0x9c,
  0xa3, 0x96, 0x97, 0xa9, 0xae, 0xa0, 0x99, 0x9c, 0xb5, 0xa4, 0xb2, 0x9f,
  0xac, 0xa1, 0xa7, 0xa1, 0xa0, 0xa4, 0x8d, 0xa4, 0xb5, 0xa4, 0xa4, 0xa1,
  0xb4, 0xa3, 0xab, 0x92, 0xb4, 0xa4, 0x9e, 0xa6, 0xb5, 0xaa, 0x9a, 0xa3,
  0xb7, 0xa1, 0xa1, 0xa4, 0xb0, 0xa4, 0xa6, 0x9f, 0xa2, 0xa0, 0xab, 0xa1,
  0xa4, 0xa0, 0x91, 0xa2, 0xa5, 0xa0, 0xa4, 0xa3, 0xac, 0xa1, 0xa1, 0x8e,
  0xab, 0xa0, 0x97, 0xa8, 0xa4, 0xa8, 0x95, 0xa0, 0xa7, 0xa1, 0xa4, 0x9d,
  0xa0, 0xa0, 0xa0, 0xa0, 0xa4, 0xa3, 0xa2, 0xa0, 0xa0, 0x9f, 0x8b, 0xa0,
  0xa2, 0xa0, 0x9b, 0x9f, 0xa1, 0xa1, 0xa2, 0x95, 0x9f, 0xa3, 0x9e, 0xa5,
  0xac, 0x9f, 0x96, 0x9f, 0x9b, 0x9f, 0x9a, 0xa3, 0x9a, 0x9f, 0x96, 0x9d,
  0x9e, 0x9c, 0x9d, 0xa1, 0xa0, 0x9f, 0x91, 0x9f, 0x9d, 0x9f, 0x95, 0xa0,
  0x9c, 0x9f, 0xa0, 0x98, 0x9d, 0x9e, 0x9f, 0x9e, 0x98, 0x96, 0x99, 0x9a,
  0x92, 0x9e, 0x9e, 0xa0, 0x92, 0x99, 0xa4, 0x97, 0x94, 0x99, 0xa4, 0x9f,
  0xa7, 0x9a, 0x99, 0x95, 0x8d, 0x9e, 0xa8, 0x99, 0x94, 0x9a, 0x90, 0x95,
  0x95, 0x93, 0x99, 0x9e, 0x92, 0x94, 0x93, 0xa3, 0xa3, 0x96, 0x96, 0x98,
  0x99, 0x93, 0xa5, 0x9e, 0xa3, 0x96, 0x9d, 0x9c, 0x9b, 0xa0, 0x9f, 0x98,
  0xac, 0x99, 0xa0, 0x99, 0x95, 0x97, 0xb1, 0xa2, 0x9b, 0x90, 0xa7, 0xa1,
  0xaf, 0xb2, 0x99, 0xa8, 0xad, 0x9c, 0x9e, 0x99, 0xa5, 0xb2, 0xb9, 0xaa,
  0xb4, 0xac, 0xa0, 0xa9, 0x9f, 0xb1, 0xb6, 0xac, 0x9b, 0xaa, 0xb1, 0xb0,
  0x89, 0xb4, 0xa9, 0xb3, 0xa7, 0xba, 0x8e, 0x95, 0xa6, 0x9d, 0xaf, 0xaf,
  0xa9, 0xba, 0xa0, 0xbb, 0x9f, 0xac, 0xb7, 0xb0, 0xae, 0xa3, 0xa1, 0xa8,
  0xa5, 0xb1, 0xb4, 0xad, 0xb4, 0xa7, 0xae, 0xad, 0xa6, 0xbc, 0xab, 0xa6,
  0xa0, 0xad, 0x86, 0x9f, 0xaa, 0xb7, 0x99, 0xa5, 0xa7, 0xb0, 0xb4, 0x9f,
  0xac, 0xa2, 0xa4, 0x9a, 0xae, 0xa8, 0xaa, 0xa7, 0x9a, 0xab, 0xcd, 0xa7,
  0xa5, 0xa0, 0xa5, 0xa6, 0xad, 0x9b, 0xa1, 0xd6, 0xab, 0xa7, 0xa1, 0xaf,
  0xad, 0xb0, 0xb6, 0xa4, 0xa1, 0xa8, 0xa9, 0xaf, 0xa0, 0xb8, 0xa4, 0x9f,
  0xa8, 0xb6, 0xa4, 0x96, 0x97, 0xad, 0xde, 0xa1, 0xa8, 0xa6, 0x9b, 0xad,
  0x94, 0xa7, 0xa9, 0xe0, 0xb1, 0xae, 0x8a, 0x85, 0xa3, 0x9f, 0xca, 0xa9,
  0xaa, 0xae, 0xa3, 0xbc, 0xa7, 0xba, 0x92, 0xab, 0x98, 0xb7, 0xa1, 0xa1,
  0x93, 0x9c, 0xb2, 0xa1, 0xac, 0xa7, 0x98, 0xaa, 0x91, 0xa6, 0xad, 0xbe,
  0xa8, 0xc8, 0x8b, 0x90, 0xa4, 0xa4, 0xad, 0xab, 0xa0, 0xbe, 0xb3, 0xba,
  0xa4, 0x94, 0x6d, 0x97, 0x9b, 0x9f, 0xae, 0x9e, 0x8d, 0x8c, 0x88, 0x99,
  0xa6, 0x99, 0x77, 0xad, 0x8c, 0x95, 0xae, 0x7e, 0x9c, 0x9b, 0x91, 0x93,
  0xaa, 0x9f, 0x86, 0xa0, 0x9f, 0x95, 0xa4, 0x9b, 0x9f, 0x9e, 0x73, 0x98,
  0x9b, 0x8f, 0xa1, 0x94, 0xa2, 0x9f, 0x8e, 0x91, 0x95, 0x96, 0x70, 0x9a,
  0x8b, 0x9f, 0x87, 0x86, 0x98, 0x8c, 0x85, 0x8a, 0x97, 0x83, 0x8d, 0x90,
  0x9c, 0x8c, 0x8d, 0x8c, 0x99, 0xa7, 0x90, 0xa4, 0x92, 0xb0, 0xa4, 0xa8,
  0x9e, 0x9d, 0x8d, 0xac, 0x97, 0xa9, 0x9d, 0x9f, 0x97, 0xa6, 0xa0, 0x90,
  0xa3, 0xa8, 0xa2, 0x9c, 0x94, 0x97, 0x90, 0x93, 0x98, 0xa8, 0xa3, 0xaa,
  0x94, 0xac, 0xba, 0xa4, 0x8c, 0xaa, 0xa2, 0x9f, 0x9f, 0xa4, 0x95, 0xa3,
  0x96, 0xa8, 0xad, 0xa5, 0x95, 0xa0, 0xa4, 0x96, 0x8e, 0xab, 0xad, 0xa6,
  0x9f, 0xa9, 0xa1, 0xa6, 0x92, 0xa9, 0xaa, 0xa3, 0x9e, 0xa1, 0x9d, 0xa1,
  0xa4, 0xa2, 0xa4, 0xa1, 0xa0, 0xa3, 0x93, 0xa3, 0xa1, 0xa3, 0xa2, 0xa2,
  0xa1, 0xa0, 0xaa, 0x94, 0x9e, 0xa0, 0xa3, 0x9d, 0xa0, 0xa9, 0x9e, 0xa2,
  0x98, 0xa0, 0x9f, 0xa2, 0x9e, 0xa5, 0x96, 0xa0, 0xa1, 0x9f, 0xa1, 0xa2,
  0xab, 0xa2, 0x8c, 0xa0, 0xa2, 0x9d, 0x91, 0xa1, 0xa3, 0x9e, 0x9e, 0x8d,
  0xa3, 0x9f, 0x9c, 0x9f, 0xa2, 0xa0, 0x9a, 0x9e, 0x90, 0xa0, 0x9f, 0xa0,
  0x9c, 0xaf, 0xa7, 0xaa, 0xa8, 0xa0, 0xa6, 0xa4, 0xa5, 0xa6, 0x8b, 0xa8,
  0x96, 0xa4, 0xae, 0xa2, 0x99, 0xa8, 0x97, 0x82, 0x96, 0x9f, 0x9c, 0xa0,
  0x98, 0x97, 0x8f, 0x9c, 0xac, 0xaf, 0x9d, 0x9f, 0xa9, 0x90, 0x9e, 0x8d,
  0x99, 0x97, 0xa4, 0xa2, 0x98, 0x98, 0x9e, 0xa3, 0xa8, 0xa4, 0x9e, 0x99,
  0x72, 0xa3, 0x9e, 0x9e, 0xa3, 0x97, 0x95, 0x8c, 0xa7, 0xa6, 0x9d, 0x97,
  0xa5, 0x95, 0x9e, 0x96, 0xa3, 0xab, 0x97, 0xa2, 0xa7, 0x9f, 0x90, 0x9e,
  0xa8, 0xa4, 0xc6, 0xa0, 0x8c, 0xa2, 0xa0, 0xa3, 0x9d, 0x9e, 0x97, 0xc8,
  0x9b, 0x9f, 0xad, 0xac, 0x93, 0x91, 0xc7, 0xa2, 0x9a, 0xa6, 0x92, 0xa0,
  0xa0, 0xa8, 0xa3, 0x9a, 0xac, 0xa1, 0xa2, 0xa2, 0x9a, 0xa5, 0xc3, 0xa2,
  0xa3, 0xa4, 0x9c, 0xaa, 0x77, 0xa6, 0xa3, 0xc1, 0x9d, 0xa2, 0x8c, 0x7c,
  0xa2, 0xa5, 0xc1, 0xa8, 0x99, 0xa9, 0xa1, 0x9b, 0xab, 0xaa, 0x99, 0xa2,
  0xb4, 0xa5, 0xa4, 0xa8, 0x9b, 0xac, 0xbc, 0xa5, 0xa5, 0xa0, 0x9d, 0xa3,
  0x7b, 0xa3, 0xad, 0xb3, 0xa4, 0x9a, 0x7e, 0x6a, 0x9b, 0xa9, 0xa9, 0xa4,
  0xa4, 0x9e, 0xa0, 0xa4, 0xa5, 0xa7, 0x99, 0x96, 0xa8, 0x9c, 0x9e, 0xa2,
  0x91, 0xa1, 0xb9, 0xa2, 0xb6, 0xa6, 0x91, 0xa6, 0x9a, 0x9f, 0xb3, 0xb0,
  0x99, 0x9a, 0x8f, 0x99, 0xa5, 0xbc, 0xb1, 0xab, 0x98, 0x99, 0xac, 0xa0,
  0x97, 0xa7, 0x98, 0xa7, 0xa5, 0x9b, 0xa5, 0xa1, 0x8d, 0x9c, 0xb1, 0x9b,
  0xa4, 0x99, 0xa6, 0xa4, 0x86, 0xb0, 0xa2, 0xb7, 0x9b, 0xa8, 0x6e, 0x7d,
  0xa9, 0x9b, 0xa3, 0xa7, 0x9a, 0xac, 0xa0, 0x98, 0xa4, 0xb5, 0x88, 0xaa,
  0xaf, 0xa1, 0xa5, 0xa1, 0x8d, 0x9e, 0xab, 0x99, 0xa5, 0x9d, 0x9d, 0xa2,
  0x98, 0xb7, 0xa6, 0xa5, 0xa1, 0xb4, 0x85, 0x8c, 0xa2, 0x96, 0xa1, 0xae,
  0x98, 0xb8, 0xa3, 0x9a, 0x9f, 0xaf, 0x5c, 0xa0, 0xb3, 0x9e, 0xa1, 0x9a,
  0x91, 0xa6, 0xbc, 0x9b, 0xa0, 0x9e, 0x75, 0xa6, 0x9c, 0xaf, 0xa1, 0xb6,
  0xa1, 0xb8, 0x8e, 0x9b, 0xa4, 0x9d, 0xa7, 0x9a, 0x98, 0xb9, 0xa1, 0xa3,
  0xa1, 0xa0, 0x57, 0x9c, 0x9d, 0xb4, 0xa8, 0xa5, 0x8e, 0x9d, 0xa0, 0xa0,
  0xa3, 0xa8, 0x71, 0xa2, 0x96, 0x95, 0xae, 0x9f, 0xa1, 0xa8, 0x96, 0x94,
  0xa7, 0x9f, 0x77, 0x9f, 0x9e, 0xaa, 0xa5, 0xb2, 0xb4, 0x9e, 0x7c, 0x94,
  0x9a, 0xa2, 0xa3, 0xa4, 0x97, 0x9a, 0x72, 0x9e, 0xa7, 0xa5, 0x8a, 0x9e,
  0xa5, 0x94, 0xae, 0x63, 0xa4, 0xa9, 0x9b, 0xa1, 0xac, 0x99, 0x69, 0xab,
  0xa1, 0xb4, 0xa8, 0xad, 0xa0, 0xa5, 0xad, 0xa6, 0x92, 0x9a, 0xa8, 0xa4,
  0x9f, 0x9c, 0x8d, 0x9b, 0xa5, 0xa2, 0xa9, 0x98, 0x99, 0x8e, 0x9c, 0x81,
  0x9e, 0xad, 0x90, 0xa0, 0xa2, 0x9b, 0x88, 0x9a, 0x9d, 0xa4, 0x94, 0x96,
  0xaf, 0xa3, 0xa3, 0x9f, 0x8b, 0xa7, 0xa5, 0x9e, 0xad, 0x9f, 0x9a, 0xa2,
  0xaf, 0xa0, 0x9e, 0xa0, 0xa6, 0x9e, 0x9d, 0x8f, 0xa8, 0x9f, 0xac, 0xaa,
  0xa9, 0xa5, 0x96, 0x9f, 0xa2, 0xa4, 0xa3, 0xa5, 0x94, 0x9f, 0x96, 0x9d,
  0x97, 0x98, 0xa5, 0x9d, 0xaa, 0x9f, 0x8b, 0xa2, 0xa3, 0x97, 0x9f, 0x9f,
  0x9c, 0x98, 0xa3, 0x8a, 0x93, 0x9b, 0xa1, 0xa1, 0x9a, 0xa5, 0x93, 0xa0,
  0x9a, 0x97, 0x9d, 0x99, 0xa0, 0xa6, 0xb2, 0xaf, 0xad, 0xa3, 0xa7, 0xa2,
  0xa9, 0xa7, 0xac, 0xa1, 0x9f, 0xa0, 0xa5, 0xa1, 0xa5, 0xaf, 0x97, 0xa5,
  0x9e, 0xb4, 0xa3, 0xa6, 0x91, 0x9a, 0xa8, 0x99, 0x9f, 0xb1, 0x98, 0xa6,
  0xa8, 0x96, 0x8b, 0x93, 0xa3, 0x9f, 0xa6, 0xa3, 0x9e, 0xa4, 0x9d, 0xaa,
  0x99, 0xa3, 0x8e, 0xa2, 0x99, 0x8c, 0xab, 0xa0, 0xa8, 0x8c, 0xa9, 0x8b,
  0x94, 0x92, 0x9e, 0xa8, 0xa9, 0x8a, 0xa8, 0x9f, 0xa0, 0x8e, 0xa0, 0x94,
  0xa3, 0xa5, 0xa5, 0xa1, 0xa9, 0x9c, 0xb4, 0xa1, 0x93, 0xac, 0x9f, 0x9c,
  0xab, 0x98, 0x93, 0xb4, 0x9e, 0x98, 0xa9, 0x9b, 0x9c, 0x90, 0xb4, 0x8d,
  0xa3, 0x95, 0x99, 0x9d, 0x9f, 0x9f, 0x99, 0xad, 0x9a, 0xa8, 0x9f, 0xa3,
  0x9f, 0xa9, 0xa5, 0xa2, 0x78, 0xab, 0x91, 0xa7, 0x8e, 0xa4, 0x92, 0xa8,
  0x9e, 0x92, 0x9d, 0x85, 0x8d, 0x86, 0xad, 0x9e, 0xa4, 0x9e, 0x9a, 0xa5,
  0xa5, 0xac, 0xa9, 0xaa, 0xac, 0xa4, 0x9e, 0xa8, 0xac, 0xa9, 0xad, 0xa5,
  0x9c, 0xa6, 0xa0, 0xa7, 0x98, 0xa4, 0x99, 0xa9, 0x98, 0xa1, 0x9d, 0x97,
  0x9a, 0x97, 0xb2, 0x9d, 0x9e, 0x9f, 0xaa, 0xa5, 0xa3, 0xb2, 0x98, 0xaa,
  0xa3, 0x9a, 0xa1, 0xa0, 0xaa, 0xa9, 0xac, 0xa3, 0x8f, 0xa7, 0xa1, 0xa7,
  0x9d, 0xa9, 0x9d, 0xac, 0xa8, 0xa3, 0x8e, 0x97, 0x97, 0x98, 0xa6, 0xa5,
  0xa2, 0xa8, 0xa8, 0xa3, 0xa2, 0xac, 0xa6, 0xa6, 0x9f, 0x9f, 0xbc, 0xa0,
  0x8e, 0xa5, 0xa9, 0xac, 0xa6, 0xa1, 0xa0, 0xa8, 0x9e, 0xa2, 0xa9, 0xaa,
  0xaa, 0xa9, 0x91, 0xa3, 0xaa, 0x9c, 0xa6, 0xac, 0x9a, 0xb0, 0xa0, 0x99,
  0xa1, 0xad, 0xa0, 0xa1, 0x9f, 0x9e, 0xb0, 0xa3, 0x82, 0xa7, 0xab, 0x9e,
  0xae, 0xa0, 0xa7, 0xaa, 0x9b, 0xa7, 0xb0, 0xac, 0xa0, 0xa7, 0x8b, 0x97,
  0xa9, 0xa3, 0x9e, 0xb4, 0x88, 0xaf, 0xad, 0xa8, 0x96, 0xaf, 0x98, 0xae,
  0xa3, 0x9c, 0xaa, 0x99, 0x7f, 0x9f, 0xac, 0x9b, 0xa9, 0x99, 0xa5, 0xaa,
  0x9f, 0xab, 0xa8, 0xa9, 0xa0, 0xb7, 0x95, 0xa4, 0xa5, 0xa3, 0x95, 0xa7,
  0x8c, 0xac, 0xa3, 0x9c, 0x8f, 0xa6, 0x97, 0xa5, 0xa3, 0xa7, 0xa3, 0xa0,
  0x93, 0xa7, 0x80, 0x9b, 0xa1, 0xa1, 0xa2, 0x9f, 0x9a, 0xac, 0xa0, 0x7b,
  0x87, 0xaf, 0x95, 0x97, 0xa0, 0x9d, 0x57, 0x9f, 0x8d, 0xbc, 0x98, 0xa5,
  0x8e, 0x9f, 0xa1, 0xa5, 0x9d, 0x9d, 0xa3, 0xa4, 0xa3, 0xa1, 0x60, 0xa2,
  0xa9, 0x9c, 0xa7, 0xa7, 0xaa, 0xa8, 0xac, 0x55, 0x91, 0xab, 0xa9, 0xa2,
  0xa3, 0xab, 0x53, 0xac, 0x90, 0xad, 0xa4, 0x9d, 0x85, 0x89, 0xb2, 0xa4,
  0x9a, 0x81, 0x9e, 0x91, 0xa5, 0xa0, 0x74, 0xa3, 0x8b, 0x7b, 0xb1, 0xa1,
  0x8f, 0x91, 0x99, 0x65, 0x90, 0x92, 0x94, 0x9b, 0x90, 0x9b, 0x77, 0xa2,
  0x92, 0x85, 0x9e, 0x8d, 0xa2, 0x9c, 0xa4, 0x9b, 0x96, 0xa1, 0xa2, 0x98,
  0xa0, 0x9d, 0xaf, 0x95, 0x98, 0xa0, 0x9f, 0x99, 0x9c, 0x99, 0x76, 0xa7,
  0x9f, 0x98, 0xac, 0xb1, 0xa0, 0xa7, 0xb0, 0x96, 0x90, 0xa0, 0x9d, 0x98,
  0x9a, 0x9d, 0x8f, 0x9d, 0x9c, 0x98, 0xa3, 0x9f, 0xa8, 0x9e, 0x8d, 0x9e,
  0xa1, 0x97, 0x8b, 0xa0, 0x94, 0xa2, 0xa0, 0x92, 0x88, 0x9e, 0xa3, 0x9d,
  0x98, 0x9b, 0x91, 0x9d, 0x84, 0xa5, 0xa1, 0x9d, 0xa9, 0xa6, 0xa3, 0xab,
  0x99, 0x9d, 0xa6, 0xac, 0xa1, 0xa8, 0xa5, 0xad, 0xad, 0xa9, 0x9c, 0xa7,
  0x9a, 0x9e, 0x9e, 0xa5, 0xac, 0xab, 0x89, 0x96, 0x9e, 0x9d, 0x9e, 0xa4,
  0x9b, 0xa2, 0xa4, 0x97, 0x8f, 0x9a, 0x9d, 0x9a, 0x9c, 0x9f, 0xa4, 0x9a,
  0xa7, 0xa2, 0xa5, 0x96, 0xa6, 0x94, 0x95, 0x98, 0xb8, 0x93, 0x98, 0xa5,
  0x8e, 0xa2, 0xb7, 0xab, 0x96, 0xb1, 0xb2, 0x95, 0x9c, 0xa4, 0x97, 0x9a,
  0x97, 0x7e, 0x92, 0x97, 0x91, 0x98, 0x98, 0x97, 0xa0, 0x91, 0xa5, 0x96,
  0x76, 0x9c, 0x95, 0x8f, 0xa2, 0x8e, 0x77, 0xa9, 0x97, 0x8f, 0xb9, 0xa1,
  0x95, 0x87, 0xb8, 0x94, 0xa2, 0x82, 0x93, 0x86, 0x9a, 0x91, 0x9f, 0xa2,
  0x94, 0x9b, 0x98, 0xa3, 0xa8, 0x9b, 0xb0, 0x99, 0x85, 0x97, 0xa7, 0x8e,
  0x91, 0xa1, 0x7e, 0xa8, 0x94, 0xa4, 0x9f, 0x98, 0x81, 0x81, 0xb4, 0x90,
  0x9d, 0x9c, 0x9a, 0x9a, 0xa4, 0x9f, 0xa0, 0x9e, 0x9c, 0xa8, 0xa1, 0x9f,
  0x98, 0xa0, 0xa7, 0xaf, 0xa3, 0x9e, 0x9e, 0xa1, 0x98, 0x9f, 0x9a, 0xad,
  0xa0, 0xab, 0xa3, 0xa4, 0x97, 0x9f, 0xac, 0x9d, 0x98, 0xa2, 0xa9, 0xa0,
  0x99, 0xa3, 0xa3, 0x9e, 0xaa, 0x97, 0xb1, 0x9e, 0x92, 0x9b, 0xab, 0x98,
  0x9e, 0x9f, 0x9e, 0x9d, 0xa3, 0xa4, 0x9f, 0xaf, 0x8e, 0xa3, 0xa4, 0xad,
  0x9a, 0xa9, 0xad, 0x9e, 0x9e, 0x9b, 0x95, 0x9b, 0x91, 0x9e, 0xa2, 0xa3,
  0x9a, 0x96, 0xd0, 0x9b, 0x95, 0x98, 0xa9, 0x91, 0xa3, 0x96, 0xa5, 0x9a,
  0x9c, 0xa9, 0xa2, 0xa6, 0x88, 0xa9, 0x9b, 0xa2, 0xae, 0xaa, 0xa6, 0xa2,
  0x8c, 0xa2, 0xa7, 0x99, 0x8d, 0xa9, 0xae, 0xa4, 0xa3, 0x8c, 0xc6, 0x96,
  0xba, 0xa0, 0xa2, 0x99, 0xa4, 0x95, 0xb4, 0x9c, 0xa1, 0xa6, 0xab, 0x9e,
  0x83, 0xad, 0x9c, 0x9f, 0xa8, 0x9e, 0x9e, 0xa0, 0x83, 0xa1, 0x9f, 0x94,
  0x93, 0xa6, 0xac, 0x9d, 0x9c, 0x8e, 0xac, 0x8f, 0xc5, 0x96, 0x95, 0x9a,
  0xa7, 0x94, 0xa9, 0x9c, 0xa9, 0xa2, 0xa6, 0x98, 0x8c, 0xae, 0x9b, 0xa2,
  0xa4, 0xa4, 0x8c, 0xa2, 0x8f, 0xac, 0x9b, 0x98, 0x8d, 0xa8, 0xb2, 0xaa,
  0xa2, 0x98, 0x9c, 0x95, 0xba, 0x97, 0x84, 0x95, 0xa1, 0x9d, 0xb2, 0xa2,
  0xa5, 0x9f, 0xa2, 0x84, 0x96, 0xa3, 0xab, 0xa5, 0x9e, 0xa5, 0x67, 0xa6,
  0x98, 0xae, 0x94, 0x99, 0xa2, 0xa8, 0xae, 0x95, 0xac, 0x9a, 0x98, 0x97,
  0xb8, 0xa8, 0x71, 0xa1, 0x9a, 0x9b, 0xb3, 0x9a, 0xa6, 0xa4, 0xa6, 0x79,
  0xa6, 0x95, 0x9f, 0xa7, 0x98, 0xa6, 0x76, 0xaa, 0xa2, 0x99, 0xa5, 0xa7,
  0xaa, 0x6f, 0xa1, 0x8e, 0x98, 0x7a, 0xa4, 0x93, 0x9a, 0x8e, 0xa1, 0x8f,
  0x97, 0x90, 0xa3, 0x8f, 0x9a, 0x80, 0x86, 0x89, 0xa3, 0x76, 0xa1, 0x9d,
  0xa4, 0xa0, 0x9b, 0x84, 0x8f, 0x78, 0x8a, 0x84, 0x73, 0x96, 0xb0, 0x9d,
  0x92, 0x6e, 0x9f, 0x8e, 0xab, 0x90, 0x92, 0x94, 0x5a, 0x7a, 0xa0, 0x97,
  0x6d, 0x94, 0x6b, 0x99, 0x7b, 0x97, 0x8f, 0x82, 0x75, 0x5e, 0x9b, 0x8d,
  0x8c, 0x99, 0x93, 0x84, 0x9d, 0x9e, 0x78, 0x9f, 0x97, 0x94, 0xa5, 0x9d,
  0xa6, 0x9b, 0x84, 0x9f, 0xa0, 0x8f, 0x73, 0xa3, 0x98, 0x9c, 0xa0, 0x86,
  0x8f, 0x8a, 0x97, 0x9f, 0xa2, 0x97, 0x86, 0xa1, 0x82, 0x94, 0xa2, 0x9b,
  0xa0, 0xa0, 0x8d, 0x99, 0x98, 0xa7, 0xa7, 0x97, 0xa5, 0xa0, 0x9b, 0x9b,
  0x91, 0x91, 0x96, 0xa1, 0x9c, 0x9c, 0x8d, 0xa5, 0x9b, 0xa5, 0xac, 0x88,
  0x85, 0x92, 0x9b, 0xac, 0x9f, 0x96, 0x9e, 0x9c, 0xa9, 0x8e, 0x9d, 0x9a,
  0x98, 0xaa, 0xa2, 0x96, 0xa1, 0x9e, 0xaa, 0x9c, 0x88, 0xa0, 0x9b, 0x89,
  0x88, 0x8e, 0x88, 0xaa, 0xb5, 0x95, 0x9e, 0x92, 0xa9, 0x85, 0xac, 0x8a,
  0x97, 0x93, 0x9f, 0xa5, 0x99, 0x92, 0x86, 0x84, 0x8b, 0x9a, 0xb1, 0x99,
  0x97, 0x95, 0xac, 0x97, 0x7f, 0x9c, 0x82, 0x95, 0x9f, 0x87, 0x7b, 0xb5,
  0xa6, 0x90, 0xb3, 0x97, 0x8f, 0x79, 0xb7, 0x93, 0x97, 0x88, 0x96, 0x9f,
  0x98, 0x8f, 0x84, 0x92, 0x7b, 0x98, 0xb5, 0x96, 0x93, 0x91, 0xaf, 0x91,
  0x90, 0x94, 0x83, 0x87, 0x8a, 0x8f, 0x80, 0xa5, 0x8d, 0x9b, 0x9d, 0x95,
  0x8f, 0x78, 0xb4, 0x86, 0x95, 0x99, 0x88, 0x9a, 0x7f, 0xa3, 0x83, 0x96,
  0x95, 0x8a, 0xaf, 0x9f, 0x94, 0xa3, 0xb1, 0x9a, 0x8d, 0x8a, 0x8f, 0x95,
  0x89, 0x97, 0x90, 0xb0, 0x7c, 0xa1, 0x8d, 0x83, 0x87, 0x82, 0xb4, 0x9c,
  0x89, 0xa1, 0x94, 0x9b, 0x85, 0x92, 0x8e, 0x86, 0x8d, 0x8a, 0xc7, 0x97,
  0x93, 0x99, 0xa8, 0x8e, 0x97, 0x90, 0x96, 0x96, 0x94, 0x8b, 0x94, 0xb2,
  0x82, 0x97, 0xa1, 0x96, 0xa8, 0x97, 0xb3, 0x89, 0x8e, 0x98, 0x9a, 0x95,
  0x89, 0x97, 0xa6, 0x91, 0x90, 0x8d, 0xc6, 0x8d, 0xa1, 0x9a, 0xaf, 0x8f,
  0x97, 0x8f, 0xae, 0x90, 0xa4, 0x9b, 0x8c, 0xa2, 0x87, 0x92, 0xa9, 0xa1,
  0x92, 0x98, 0xa1, 0x8e, 0x97, 0x9c, 0x8c, 0x8d, 0x8e, 0xa2, 0xa8, 0x9e,
  0x95, 0x8c, 0xae, 0x8f, 0xab, 0x92, 0xa3, 0x95, 0xa2, 0x93, 0xa7, 0x95,
  0xa5, 0x9f, 0x9c, 0xa7, 0x8f, 0xa6, 0xa4, 0xb0, 0x97, 0xa7, 0xa6, 0x9a,
  0x93, 0xa6, 0x9e, 0x94, 0x8f, 0xa6, 0xba, 0x9d, 0x99, 0x9b, 0xad, 0x89,
  0xae, 0x8e, 0x94, 0x8f, 0xa8, 0x8e, 0xba, 0x90, 0xa6, 0xa1, 0xa9, 0x92,
  0x97, 0xb1, 0xa8, 0xa5, 0xa8, 0xa6, 0x7c, 0x9f, 0x9c, 0xac, 0x9b, 0x98,
  0xa4, 0xa7, 0xc0, 0x9f, 0x8e, 0x8e, 0xa3, 0x94, 0xbc, 0x93, 0x8c, 0x97,
  0xa7, 0x9e, 0xc2, 0x97, 0xa7, 0x98, 0x9c, 0x85, 0xa2, 0xa6, 0xa4, 0xa9,
  0x9c, 0xab, 0x80, 0xa2, 0xa0, 0xa6, 0x9e, 0x95, 0x97, 0x94, 0xc0, 0x94,
  0xa8, 0x87, 0x9b, 0x91, 0xba, 0x98, 0x9b, 0x91, 0x97, 0x91, 0xb8, 0x9a,
  0xa5, 0x8e, 0x96, 0x9f, 0x9c, 0x96, 0xaa, 0xa4, 0x90, 0x99, 0x98, 0x9a,
  0xa0, 0x96, 0x8b, 0x95, 0x96, 0x86, 0xcb, 0x90, 0x8c, 0x8d, 0xa0, 0x8c,
  0xa7, 0x8e, 0x88, 0x8f, 0x8b, 0x9b, 0xbc, 0x8b, 0x9d, 0x85, 0x99, 0x92,
  0x9f, 0x94, 0xa3, 0xa2, 0x9c, 0x98, 0x93, 0x96, 0xa4, 0x88, 0x93, 0x90,
  0xa4, 0xa4, 0xaf, 0xa2, 0x8c, 0x92, 0xa8, 0x98, 0xa8, 0x9c, 0x82, 0x94,
  0x99, 0x9a, 0xa5, 0x98, 0x9b, 0x9c, 0x89, 0x6d, 0x9d, 0xa3, 0x97, 0x9c,
  0x99, 0x9b, 0x7d, 0xa9, 0x90, 0x9b, 0x94, 0x8f, 0x96, 0xa3, 0x78, 0x9d,
  0x9b, 0x99, 0x9c, 0x9b, 0xad, 0x9e, 0x82, 0x9e, 0x9e, 0x96, 0x7b, 0xa0,
  0xa0, 0x99, 0x9e, 0x7a, 0x97, 0x94, 0xa4, 0xa0, 0xa1, 0xa0, 0x82, 0xa0,
  0x86, 0x9d, 0x9f, 0x9d, 0xa0, 0x8c, 0x95, 0x8c, 0x8c, 0x9a, 0xa9, 0x9c,
  0x9a, 0x9a, 0xa3, 0x94, 0x8f, 0x97, 0x8b, 0x94, 0x7e, 0x8e, 0x90, 0x96,
  0xa6, 0x8d, 0x8b, 0x83, 0xa0, 0x92, 0x9f, 0x93, 0x93, 0x96, 0x9e, 0x90,
  0x8c, 0x89, 0x8b, 0x85, 0x91, 0x8e, 0xac, 0x8a, 0x99, 0x8f, 0xab, 0x8d,
  0x82, 0x8a, 0x85, 0x8e, 0x84, 0x86, 0x8b, 0xb4, 0x89, 0x8d, 0x99, 0x87,
  0xac, 0x82, 0xc7, 0x8e, 0x92, 0x80, 0x89, 0x92, 0x99, 0x78, 0x89, 0x73,
  0x93, 0x93, 0xac, 0x8b, 0xbb, 0x85, 0xb9, 0x8a, 0x66, 0x92, 0x88, 0x88,
  0x91, 0x7c, 0x7d, 0xb8, 0x95, 0x85, 0xa0, 0x8b, 0xb2, 0x73, 0xce, 0x6f,
  0xa8, 0x82, 0x84, 0x91, 0xb3, 0x91, 0x76, 0x8f, 0x86, 0x9d, 0xba, 0x92,
  0xa5, 0x92, 0xb1, 0x98, 0x6e, 0xa0, 0x76, 0x8e, 0x7f, 0x86, 0x79, 0xb8,
  0xaf, 0x94, 0x94, 0x7b, 0xb1, 0x63, 0xc6, 0x87, 0xb4, 0x8c, 0x77, 0xa0,
  0xa6, 0x77, 0x7c, 0x88, 0x85, 0xa8, 0xb1, 0x8e, 0xa3, 0x96, 0xaf, 0x96,
  0x7e, 0x9f, 0x86, 0x98, 0x8c, 0x8d, 0x87, 0xb3, 0xaa, 0x8a, 0x99, 0x7d,
  0xad, 0x71, 0xc6, 0x89, 0xac, 0x7f, 0x85, 0x9d, 0xb1, 0x7e, 0x86, 0x81,
  0x95, 0x9a, 0xc3, 0x98, 0xb5, 0x8f, 0xa2, 0x98, 0x80, 0x99, 0x87, 0x8f,
  0x90, 0x87, 0x86, 0xa3, 0xb6, 0x7e, 0x9f, 0x95, 0xae, 0x8a, 0xbf, 0x8c,
  0xae, 0x88, 0x8a, 0x9c, 0xa1, 0x85, 0x9c, 0x8d, 0x88, 0x95, 0xc6, 0x96,
  0x9c, 0x96, 0x95, 0x90, 0x9c, 0x99, 0x98, 0x8e, 0xa4, 0x8b, 0x95, 0x98,
  0x96, 0x8c, 0xa0, 0x98, 0xac, 0x9a, 0x9a, 0x91, 0x9a, 0x84, 0x97, 0x91,
  0x9a, 0x94, 0xb0, 0x90, 0x94, 0x8f, 0xa9, 0x8d, 0xc3, 0x91, 0x87, 0x95,
  0x9b, 0x92, 0xac, 0x8b, 0x9e, 0x92, 0x94, 0x86, 0x9b, 0x9d, 0xa2, 0xa7,
  0x93, 0xa1, 0x89, 0x95, 0x9f, 0x8f, 0x91, 0x8d, 0xa2, 0x92, 0xbb, 0x95,
  0x95, 0x89, 0x8b, 0x90, 0xbc, 0x97, 0x80, 0x9c, 0x9d, 0x97, 0xad, 0x94,
  0x9b, 0x9b, 0xa7, 0x7c, 0x9b, 0x98, 0xac, 0xac, 0x88, 0xa5, 0x84, 0x9d,
  0x94, 0x96, 0x99, 0x89, 0x9a, 0xa1, 0xbf, 0xa3, 0x99, 0x97, 0x8d, 0x9c,
  0xc0, 0x9d, 0x8a, 0x96, 0xa0, 0x98, 0xb3, 0x98, 0xa9, 0x94, 0x9f, 0x91,
  0xa1, 0x8c, 0xa8, 0xa4, 0x8d, 0xa4, 0x91, 0x9c, 0xb6, 0x96, 0x9b, 0x97,
  0xa5, 0x78, 0xae, 0x79, 0x9a, 0x8b, 0x9d, 0x8f, 0xb5, 0x84, 0xa9, 0x9f,
  0xa0, 0xab, 0x87, 0x8e, 0x9a, 0x75, 0xa0, 0xa9, 0xaa, 0x84, 0xa3, 0xa7,
  0x9c, 0xa2, 0xab, 0x9b, 0xae, 0x77, 0x9b, 0x8d, 0xb3, 0x97, 0xc0, 0xa6,
  0xa6, 0xa0, 0xa0, 0x99, 0x97, 0x95, 0xa2, 0xa9, 0x8c, 0xa4, 0xb1, 0x91,
  0xa3, 0x97, 0x99, 0xb3, 0xa8, 0xa1, 0x9f, 0x96, 0x92, 0xa4, 0xb0, 0xa3,
  0xb8, 0x9b, 0x97, 0x92, 0xb2, 0x91, 0xae, 0xb0, 0xaf, 0x9e, 0xa3, 0xb0,
  0xa6, 0xa3, 0x9a, 0xa7, 0xac, 0xaf, 0xab, 0x9d, 0xaa, 0x97, 0xac, 0x9f,
  0xa8, 0x89, 0xa4, 0xa4, 0xb3, 0xa7, 0x9b, 0xa5, 0xc5, 0x92, 0x9e, 0x9c,
  0x9f, 0x9d, 0xaa, 0x99, 0xa5, 0x9c, 0xa3, 0x9b, 0xa7, 0x9f, 0x90, 0x9f,
  0xa2, 0x9b, 0xad, 0x9d, 0xa0, 0xa4, 0x9e, 0x8d, 0x98, 0x9d, 0x9f, 0xa5,
  0x9f, 0x9e, 0x97, 0x9c, 0xa9, 0xa1, 0x9e, 0x9a, 0xaf, 0xb1, 0x99, 0x9e,
  0xae, 0xab, 0xa1, 0x9c, 0xa2, 0x9d, 0x85, 0xad, 0xa3, 0x9c, 0xa3, 0xa3,
  0x8d, 0x8e, 0xb1, 0x8b, 0xb0, 0xab, 0x97, 0x97, 0xb5, 0x9a, 0xa3, 0xa6,
  0xab, 0x9b, 0x9e, 0xa2, 0xa2, 0x95, 0x95, 0x94, 0xa3, 0xa7, 0x9d, 0x9e,
  0xac, 0x97, 0x91, 0xa0, 0x80, 0xa2, 0xa5, 0xa6, 0x8d, 0x95, 0x8d, 0x8c,
  0xa3, 0x8d, 0x9c, 0x90, 0x9e, 0x84, 0xab, 0x8d, 0xa7, 0x96, 0x9e, 0xa5,
  0xa7, 0x91, 0x97, 0xa3, 0x9f, 0xaf, 0x8e, 0xa9, 0xad, 0xa5, 0x97, 0xa8,
  0x73, 0xa7, 0x98, 0xa7, 0x91, 0x98, 0x80, 0x94, 0xb3, 0x9b, 0xa1, 0x82,
  0x96, 0x77, 0xb4, 0x9b, 0xb5, 0x94, 0xa5, 0xa3, 0xae, 0x8b, 0x84, 0x8d,
  0xa3, 0xab, 0x8d, 0xac, 0xaf, 0x9d, 0x9d, 0xa4, 0x75, 0xab, 0x88, 0xa0,
  0x92, 0x93, 0x7b, 0xaa, 0xb3, 0x7b, 0xa4, 0x74, 0x97, 0x69, 0xb2, 0x9e,
  0x9f, 0x78, 0xac, 0x9e, 0xaf, 0x8f, 0x84, 0x9d, 0xa5, 0xac, 0x99, 0xac,
  0xbe, 0x99, 0x91, 0xa6, 0x81, 0xa9, 0x86, 0x97, 0xa2, 0x9f, 0x82, 0x91,
  0xb5, 0x8a, 0xa5, 0x6c, 0x8c, 0x7a, 0xb2, 0x9b, 0xb5, 0x94, 0x97, 0x91,
  0xb5, 0x8c, 0x91, 0xa2, 0xa7, 0xa6, 0x9f, 0xa1, 0xa6, 0x99, 0x9f, 0x9a,
  0xa9, 0xa0, 0x82, 0x9f, 0x99, 0x9b, 0x9e, 0x9d, 0xaa, 0x8b, 0x9a, 0x97,
  0xa5, 0x9d, 0xab, 0xa5, 0xa2, 0x8d, 0x9a, 0xa4, 0xaa, 0x91, 0x9b, 0x9a,
  0x9f, 0x9c, 0xc1, 0xa4, 0xb9, 0x9d, 0x85, 0xad, 0x99, 0x94, 0x9a, 0xa1,
  0xb0, 0xa0, 0x9b, 0x90, 0xa4, 0x8d, 0xab, 0xaf, 0xa7, 0xa0, 0x9a, 0x97,
  0xb2, 0x99, 0xa3, 0x9f, 0xaf, 0x82, 0xa0, 0x96, 0x94, 0x97, 0x98, 0x9f,
  0xac, 0x98, 0x94, 0x9c, 0x9b, 0x9e, 0x97, 0x9a, 0xa7, 0x89, 0x9b, 0x88,
  0xb0, 0x82, 0xaa, 0xa5, 0x9a, 0x9f, 0x9f, 0x94, 0xab, 0x8c, 0x9c, 0x97,
  0xa5, 0x99, 0xa1, 0x9e, 0x98, 0x98, 0x76, 0xa2, 0xca, 0x9a, 0x90, 0x9a,
  0x90, 0xa2, 0x98, 0x96, 0xa2, 0x91, 0x96, 0x8f, 0xa5, 0x96, 0xae, 0xa5,
  0x8e, 0x95, 0x99, 0x9c, 0xc2, 0x8f, 0x8e, 0x95, 0xa6, 0x88, 0x8d, 0x9f,
  0x91, 0x9e, 0x95, 0x9c, 0xb8, 0xa2, 0x9b, 0xa2, 0x97, 0x9c, 0x75, 0x9e,
  0x9e, 0x91, 0x9c, 0x9c, 0x99, 0x8b, 0xa5, 0xa1, 0x9f, 0x93, 0xa3, 0x95,
  0xa3, 0x90, 0x9e, 0x93, 0x9b, 0x87, 0x6b, 0x89, 0x9a, 0x99, 0x9b, 0xa3,
  0xc3, 0xa3, 0xbe, 0x98, 0x90, 0xa2, 0x6e, 0x92, 0x8f, 0x89, 0x87, 0xb6,
  0x99, 0x8f, 0xa2, 0x96, 0x9b, 0x94, 0xc5, 0x92, 0xa8, 0x98, 0x98, 0x9e,
