#include "network_data.h"

ai_handle ai_network_data_weights_get(void)
{

  AI_ALIGNED(4)
  static const ai_u8 s_network_weights[ 32744 ] = {
    0xb7, 0x7b, 0x65, 0xbf, 0x2b, 0xc7, 0x51, 0xbe, 0xb3, 0x40,
    0xe4, 0x3d, 0x82, 0xfc, 0x6d, 0x3e, 0xea, 0x6d, 0xa1, 0x3e,
    0x2f, 0xca, 0x8e, 0x3d, 0x50, 0xb2, 0x04, 0x3f, 0x47, 0x8d,
    0x0a, 0x3d, 0x77, 0x3a, 0xa9, 0xbe, 0xc4, 0x77, 0x54, 0x3e,
    0x5d, 0xab, 0x74, 0x3e, 0x8a, 0x0a, 0x8a, 0xbe, 0xbc, 0x17,
    0x3d, 0xbe, 0x72, 0xa7, 0xc1, 0x3e, 0x07, 0xc7, 0x60, 0x3d,
    0x0b, 0x28, 0xab, 0xbe, 0x08, 0xcd, 0x45, 0x3d, 0x5d, 0x5d,
    0x6e, 0x3e, 0x05, 0x60, 0x63, 0xbf, 0x94, 0x54, 0xa5, 0x3d,
    0xd9, 0x85, 0x31, 0x3f, 0x64, 0x9a, 0x93, 0xbf, 0xab, 0x9a,
    0xfb, 0x3c, 0x0f, 0x4a, 0x1b, 0x3f, 0xd3, 0x2d, 0x29, 0xbf,
    0x5e, 0x1c, 0x37, 0x3e, 0xf3, 0x1e, 0x53, 0x3e, 0x0c, 0x23,
    0xdf, 0xbc, 0x67, 0xc9, 0x12, 0x3e, 0x43, 0xce, 0xcd, 0x3d,
    0x66, 0x60, 0x08, 0xbe, 0xe9, 0x95, 0x6a, 0x3d, 0x8c, 0x61,
    0xc6, 0xb9, 0xd8, 0x69, 0xd2, 0xbd, 0x3d, 0x8f, 0x95, 0x3d,
    0x3b, 0x66, 0x39, 0x3e, 0x11, 0x66, 0xd9, 0x3e, 0x06, 0xee,
    0x0d, 0x3d, 0x4d, 0xc0, 0x7d, 0xbe, 0xb7, 0x85, 0x80, 0xbe,
    0xd6, 0xef, 0x1c, 0xbe, 0x22, 0x4e, 0x65, 0x3e, 0xa8, 0xc2,
    0xb5, 0xbc, 0x57, 0x6a, 0x11, 0x3e, 0x91, 0xbc, 0x12, 0x3e,
    0xd4, 0xd7, 0xa5, 0xbd, 0x3c, 0xda, 0x05, 0xbe, 0x45, 0x64,
    0x05, 0xbe, 0xcf, 0x45, 0xae, 0x3e, 0x67, 0x6d, 0x2d, 0x3e,
    0x63, 0xd7, 0x36, 0x3e, 0xdc, 0x48, 0x6c, 0xbe, 0x8d, 0x72,
    0xe4, 0xbc, 0xa7, 0x5a, 0xc9, 0xba, 0x30, 0xdc, 0x70, 0xbf,
    0xc4, 0x98, 0x82, 0xbf, 0x49, 0x6a, 0x9a, 0xbf, 0xf7, 0xc4,
    0x03, 0x3f, 0x9e, 0x15, 0xa3, 0x3e, 0xa8, 0xe3, 0x63, 0xbf,
    0x3f, 0x99, 0x07, 0x3f, 0xd5, 0x21, 0xd4, 0x3e, 0xa0, 0x4c,
    0xc5, 0xbe, 0x2c, 0xa1, 0x4b, 0xbd, 0xba, 0xa1, 0x45, 0x3d,
    0x42, 0xd2, 0x4c, 0x3e, 0xfd, 0xf8, 0x15, 0x3e, 0xdb, 0x42,
    0x38, 0xbd, 0x66, 0xe7, 0x96, 0x3d, 0xfa, 0x45, 0x05, 0x3e,
    0x52, 0xd1, 0x8d, 0x3d, 0xcd, 0xc7, 0xd1, 0xbb, 0x9c, 0x1b,
    0x94, 0xbf, 0x90, 0x9b, 0xa9, 0xbf, 0xcc, 0x9a, 0xdb, 0xbe,
    0x33, 0xe6, 0x91, 0xbf, 0xd9, 0x95, 0x80, 0x3e, 0x54, 0x3a,
    0xf4, 0x3e, 0x46, 0x02, 0x95, 0xbf, 0x8e, 0xb1, 0x7d, 0x3e,
    0x77, 0xc2, 0x3b, 0x3f, 0xc0, 0xef, 0xa6, 0x3d, 0x03, 0x2f,
    0x8e, 0x3d, 0x88, 0x55, 0x2f, 0xbc, 0x58, 0x45, 0x21, 0xbd,
    0xc7, 0x74, 0x5b, 0x3d, 0x76, 0x55, 0xf3, 0x3d, 0x6a, 0x79,
    0x7a, 0x3d, 0x7a, 0xac, 0xba, 0xbc, 0x30, 0x4a, 0x75, 0x3d,
    0x21, 0xbf, 0xc4, 0x3d, 0x2e, 0x41, 0x41, 0x3f, 0xb9, 0xd3,
    0x32, 0x3f, 0x60, 0x3e, 0xd4, 0x3d, 0x9d, 0x0f, 0x0b, 0x3e,
    0x7c, 0x94, 0xae, 0x3e, 0x15, 0x4b, 0x99, 0xbf, 0x06, 0x99,
    0xa6, 0xbf, 0x72, 0x26, 0x38, 0xbf, 0x99, 0x2b, 0xb0, 0x3b,
    0x5e, 0xce, 0xc0, 0xbd, 0x6e, 0xcf, 0xf6, 0x3d, 0xdc, 0x22,
    0x7e, 0xbc, 0xd4, 0x15, 0x1c, 0x3e, 0x6d, 0xd9, 0xe8, 0x3c,
    0x7d, 0xaf, 0x76, 0x3d, 0xff, 0xe1, 0x31, 0x3d, 0xbf, 0x11,
    0x85, 0xbd, 0x37, 0xc1, 0x8c, 0x3e, 0x50, 0x68, 0xf5, 0x3c,
    0xc5, 0x37, 0x2b, 0xbf, 0xd9, 0xe6, 0xdd, 0x3e, 0xff, 0x71,
    0x80, 0xbc, 0xa0, 0xad, 0x0a, 0xbf, 0x24, 0xfb, 0xc3, 0x3e,
    0x97, 0xfb, 0xb2, 0x3e, 0x9e, 0x50, 0xb1, 0xbd, 0xe4, 0xe7,
    0xf9, 0xbd, 0x88, 0xb2, 0xea, 0xbd, 0x63, 0xda, 0x10, 0x3e,
    0xec, 0x2f, 0x7d, 0x3e, 0xe3, 0xcc, 0x14, 0xba, 0xca, 0x25,
    0x4f, 0x3e, 0x9f, 0x36, 0xbd, 0x3d, 0x93, 0x5d, 0x0c, 0xbd,
    0xfa, 0x9e, 0x9e, 0xbc, 0xcf, 0xb7, 0x07, 0xbf, 0x14, 0x80,
    0xa2, 0x3e, 0x8c, 0x3c, 0xd7, 0x3e, 0x6c, 0x68, 0x9b, 0xbf,
    0x38, 0xc9, 0x00, 0x3d, 0xd7, 0x8a, 0x3b, 0x3f, 0x29, 0x2e,
    0x59, 0xbf, 0x88, 0xa6, 0x60, 0xbe, 0xa4, 0x58, 0xce, 0x3e,
    0x7e, 0xcb, 0x5d, 0x3d, 0xcd, 0xe8, 0x63, 0x3d, 0x39, 0xf8,
    0x32, 0xbb, 0xa3, 0x91, 0xf5, 0x3c, 0xdf, 0x9f, 0xe7, 0x3d,
    0x42, 0x34, 0xb5, 0x3c, 0xb8, 0x60, 0x3f, 0x3c, 0x2d, 0xaa,
    0x7e, 0x3d, 0x35, 0x07, 0xc4, 0x3d, 0x22, 0x6f, 0x28, 0x3e,
    0x5d, 0xc0, 0x82, 0x3e, 0x91, 0xae, 0x83, 0xbe, 0x2b, 0x35,
    0xe2, 0x3e, 0x31, 0x87, 0xa0, 0x3e, 0x64, 0x6f, 0x46, 0xbf,
    0x5f, 0x07, 0xf8, 0x3e, 0x08, 0x7a, 0x33, 0xbe, 0xf1, 0x46,
    0x70, 0xbf, 0xee, 0xaf, 0x93, 0x3e, 0x77, 0x3d, 0x73, 0x3e,
    0x55, 0xd0, 0xf3, 0x3c, 0x94, 0x79, 0x81, 0xbe, 0x48, 0x95,
    0xdf, 0xbd, 0xdc, 0x2f, 0xa7, 0x3d, 0x6e, 0x22, 0xba, 0x3a,
    0x2d, 0x08, 0x3b, 0xbc, 0x5a, 0x89, 0x98, 0x3e, 0x98, 0xa2,
    0x9d, 0x3e, 0x3f, 0xa7, 0xa5, 0x3d, 0x90, 0xbc, 0x42, 0xbf,
    0x67, 0x9e, 0x6e, 0x3e, 0x74, 0x00, 0xc7, 0x3e, 0xe0, 0x68,
    0xe9, 0xbe, 0xae, 0xdf, 0xc2, 0x3d, 0x6c, 0x9a, 0x93, 0x3e,
    0x72, 0x42, 0x78, 0x3e, 0xf7, 0x9e, 0xaf, 0x3e, 0x68, 0xa8,
    0x10, 0x3f, 0x69, 0x11, 0x2a, 0x3f, 0x38, 0x64, 0xd2, 0xbd,
    0xe5, 0x4c, 0xa0, 0x3e, 0x29, 0x0b, 0x20, 0x3e, 0x61, 0xa7,
    0xb2, 0xbf, 0xa1, 0x25, 0x99, 0xbf, 0x85, 0x53, 0x21, 0xbf,
    0x78, 0xc1, 0x44, 0xbf, 0x50, 0xa4, 0xb1, 0xbe, 0x9a, 0x23,
    0x99, 0x3c, 0xc0, 0xc3, 0x8c, 0x3e, 0x97, 0x7b, 0x0d, 0x3f,
    0x77, 0xb3, 0x96, 0x3e, 0xce, 0xff, 0xaa, 0x3e, 0x37, 0x59,
    0xb0, 0xbd, 0x2f, 0x8e, 0xe9, 0xbe, 0xb5, 0x87, 0x80, 0x3c,
    0xd5, 0x1f, 0xdf, 0x3e, 0x44, 0xa7, 0xd5, 0x3d, 0x80, 0x1b,
    0xb9, 0xbe, 0xe2, 0x91, 0xb2, 0x3e, 0x64, 0x4e, 0x01, 0x3e,
    0xae, 0xc4, 0x3a, 0xbf, 0x54, 0xc4, 0x01, 0x3d, 0xc6, 0xb8,
    0xa3, 0x3d, 0xa3, 0xdf, 0xf1, 0x3e, 0xf8, 0xe6, 0x05, 0x3f,
    0x9d, 0x05, 0xfe, 0xbe, 0x04, 0x3d, 0x2b, 0x3f, 0xe5, 0xe8,
    0x58, 0x3e, 0x93, 0x98, 0x96, 0xbf, 0xf3, 0xf1, 0x03, 0xbd,
    0xdb, 0x3f, 0x49, 0xbf, 0xa9, 0x5c, 0xb5, 0xbf, 0x69, 0xa2,
    0x1c, 0x3f, 0x48, 0x19, 0xeb, 0x3d, 0x45, 0x9e, 0x87, 0xbf,
    0xca, 0x99, 0x45, 0x3f, 0xc4, 0xf1, 0xec, 0x3d, 0xf8, 0x1c,
    0xa6, 0xbf, 0x0b, 0xd8, 0x8e, 0x3e, 0x2b, 0x2d, 0xe4, 0xbe,
    0xf9, 0x67, 0xa3, 0xbf, 0xec, 0xf5, 0x8f, 0xbe, 0xbe, 0x54,
    0x7e, 0xbf, 0xa8, 0x71, 0xa8, 0xbf, 0x3e, 0x3f, 0x2f, 0x3f,
    0x85, 0xc6, 0x9b, 0x3e, 0xa1, 0x4f, 0x2d, 0xbf, 0x12, 0xec,
    0x24, 0x3f, 0x51, 0x6a, 0x1b, 0x3f, 0xe8, 0xc4, 0xcb, 0xbd,
    0xc3, 0xd5, 0x60, 0x3e, 0x4d, 0x00, 0x9b, 0x3e, 0xa0, 0xb8,
    0x5f, 0xbf, 0x5a, 0xf2, 0x24, 0x3f, 0x3c, 0x24, 0x3c, 0x3e,
    0x7d, 0x17, 0x3a, 0xbf, 0x8d, 0xab, 0xff, 0x3d, 0xe8, 0x5f,
    0x18, 0xbc, 0xd1, 0x9a, 0x34, 0x3e, 0x3d, 0x8e, 0x1a, 0x3f,
    0xec, 0xc3, 0x57, 0x3f, 0x68, 0x84, 0x18, 0x3f, 0x0b, 0x1d,
    0xf8, 0xbd, 0x3d, 0xb4, 0x48, 0xbc, 0xb5, 0x07, 0xa4, 0xbe,
    0x49, 0x0c, 0xc0, 0xbf, 0x44, 0x3a, 0x80, 0xbf, 0x64, 0x4b,
    0x7e, 0xbf, 0x44, 0x75, 0xa2, 0x3a, 0x67, 0x6e, 0x9a, 0x3e,
    0x92, 0x62, 0x51, 0xbe, 0x75, 0xf0, 0x2c, 0xbd, 0xb0, 0xae,
    0x5a, 0x3e, 0x11, 0xb1, 0x73, 0xbe, 0x35, 0x6b, 0x9d, 0xbd,
    0x7a, 0xe4, 0x1d, 0x3d, 0x0c, 0x83, 0x89, 0x3e, 0xfa, 0xc3,
    0x84, 0xbf, 0x80, 0xe2, 0x55, 0xbf, 0xca, 0x0a, 0x89, 0xbe,
    0xc2, 0x03, 0xa3, 0xbe, 0xb8, 0x44, 0x8c, 0x3e, 0xd6, 0x36,
    0x89, 0x3e, 0x37, 0xd9, 0x16, 0x3e, 0x3e, 0x80, 0xe5, 0x3e,
    0x54, 0xe7, 0x95, 0x3e, 0xcc, 0x52, 0x85, 0x3e, 0x3c, 0x44,
    0xa7, 0x3e, 0xaa, 0x59, 0x55, 0x3d, 0x3c, 0x75, 0x57, 0xbe,
    0x0a, 0x5d, 0xa0, 0x3e, 0xde, 0x3e, 0x8a, 0x3e, 0x75, 0xa9,
    0x2e, 0xbf, 0xf3, 0x20, 0xf3, 0xbd, 0xca, 0x57, 0x9e, 0x3e,
    0xd8, 0x58, 0x19, 0x3e, 0x32, 0xab, 0xa9, 0xbd, 0x3e, 0xac,
    0xab, 0x3d, 0xd4, 0x46, 0xd8, 0x3d, 0xfb, 0xa9, 0xf2, 0x3d,
    0xcd, 0xcc, 0x09, 0xbe, 0x39, 0x94, 0xba, 0x3c, 0xd8, 0x87,
    0x22, 0x3e, 0xba, 0x56, 0x4b, 0x3d, 0xff, 0x0a, 0x8f, 0x3c,
    0x9d, 0x90, 0xaf, 0xbc, 0xf1, 0x35, 0xa4, 0xbd, 0x47, 0x27,
    0x49, 0x3e, 0x1a, 0x6b, 0x4d, 0x3e, 0xbc, 0xdf, 0x36, 0x3e,
    0xe2, 0x2a, 0x40, 0xbe, 0x19, 0xbc, 0xad, 0xbd, 0x29, 0x6f,
    0x2f, 0x3d, 0xc3, 0xba, 0x38, 0xbd, 0x75, 0x02, 0x63, 0xbe,
    0x4c, 0x4b, 0x41, 0xbd, 0xb0, 0x7e, 0x88, 0xbe, 0xa0, 0xe7,
    0x20, 0xbe, 0xb3, 0xae, 0x35, 0xbd, 0xf3, 0xd5, 0x1f, 0x3e,
    0xe7, 0x38, 0x83, 0xbe, 0x4d, 0x39, 0x61, 0x3d, 0x60, 0x42,
    0x73, 0xbe, 0xc8, 0xbc, 0x54, 0xbc, 0x59, 0xd3, 0x36, 0xbe,
    0xa2, 0x81, 0x9f, 0xbe, 0x0a, 0x8d, 0x53, 0xbe, 0x71, 0x28,
    0xba, 0xbd, 0xfc, 0x1c, 0x88, 0xbe, 0x37, 0x3c, 0xd0, 0xbd,
    0xc3, 0xa8, 0x95, 0xbe, 0x31, 0x63, 0xaf, 0xbe, 0x8b, 0x37,
    0x99, 0xbc, 0x0b, 0x29, 0x6e, 0xbc, 0xa7, 0x66, 0x17, 0xbe,
    0x4d, 0x75, 0x82, 0xbc, 0x28, 0x61, 0xc7, 0xbd, 0xa4, 0x0f,
    0x3d, 0xbc, 0x4b, 0x49, 0x32, 0xbe, 0x5d, 0x19, 0xda, 0xbb,
    0x44, 0x57, 0x5d, 0xbe, 0x6e, 0x73, 0x0b, 0xbd, 0xfc, 0x47,
    0xc0, 0xbe, 0x28, 0x2d, 0x7f, 0xbe, 0x25, 0x99, 0x26, 0xbe,
    0x75, 0x9f, 0xf4, 0xbf, 0x23, 0x6b, 0xd3, 0xbf, 0xe8, 0xc4,
    0xad, 0xbf, 0x2e, 0x1b, 0x94, 0xbf, 0x25, 0xe8, 0x6b, 0xbf,
    0x6b, 0x97, 0x33, 0xbf, 0x7f, 0x23, 0x02, 0xbf, 0x7c, 0xb7,
    0xad, 0xbe, 0xfe, 0xa3, 0x44, 0xbe, 0xa0, 0xf2, 0x8e, 0xbd,
    0x96, 0x43, 0xdd, 0x3c, 0xb2, 0x0b, 0x0d, 0x3e, 0xcc, 0x52,
    0x87, 0x3e, 0x50, 0x5f, 0xd7, 0x3e, 0x5a, 0x47, 0x20, 0x3f,
    0x8b, 0x12, 0x87, 0x3f, 0xaa, 0xaa, 0xaa, 0x99, 0xaa, 0xaa,
    0xaa, 0x99, 0xaa, 0xab, 0xa9, 0xaa, 0xaa, 0xb9, 0xaa, 0x9a,
    0xaa, 0xaa, 0xaa, 0xaa, 0x9a, 0xaa, 0x99, 0xaa, 0xaa, 0xab,
    0x9a, 0xaa, 0xaa, 0xba, 0xba, 0xaa, 0xb9, 0xaa, 0x99, 0xa9,
    0x99, 0xa9, 0x9a, 0x99, 0xaa, 0x9c, 0xaa, 0x99, 0xba, 0xb9,
    0xa9, 0xa9, 0x99, 0xa9, 0x99, 0x99, 0xa9, 0xb9, 0x99, 0xa9,
    0x99, 0x9c, 0x9a, 0x8a, 0xb9, 0xb9, 0xa9, 0x9a, 0x99, 0x79,
    0x88, 0xa9, 0x9a, 0xa9, 0x98, 0x69, 0xb9, 0x8b, 0xa9, 0xaa,
    0xa9, 0xb8, 0x79, 0x99, 0x7b, 0xaa, 0x9a, 0x99, 0x9a, 0xa9,
    0x69, 0x89, 0x69, 0x7b, 0x9a, 0x99, 0x88, 0xa9, 0x7b, 0x8a,
    0x8a, 0x69, 0x8a, 0xa9, 0x99, 0xba, 0x99, 0x69, 0x98, 0xab,
    0x99, 0xaa, 0x7b, 0xb8, 0x79, 0xaa, 0x69, 0x98, 0x7a, 0x98,
    0x8a, 0xb8, 0x69, 0x88, 0x69, 0x6c, 0x8a, 0xb8, 0x68, 0xa8,
    0x7a, 0x8b, 0x8a, 0x69, 0x8a, 0x99, 0xaa, 0xb9, 0x9a, 0x69,
    0x99, 0x8c, 0x9b, 0xba, 0x8a, 0xb9, 0x89, 0x9a, 0x79, 0x78,
    0x7a, 0xa9, 0x99, 0xb8, 0x59, 0x79, 0x89, 0x6c, 0x79, 0xba,
    0x8b, 0xb8, 0x59, 0x8a, 0x69, 0x99, 0x89, 0xa9, 0xa9, 0xa8,
    0x69, 0x89, 0x69, 0x7c, 0x89, 0x99, 0x97, 0xb9, 0x6a, 0x99,
    0x79, 0xaa, 0x99, 0x9a, 0x99, 0xb9, 0x89, 0x99, 0x79, 0x9a,
    0x89, 0x99, 0xb9, 0xb9, 0x8a, 0x9a, 0x99, 0xaa, 0xaa, 0x9a,
    0xaa, 0xaa, 0x9a, 0x9a, 0x9a, 0x9c, 0x9a, 0xaa, 0xba, 0xba,
    0xa9, 0x9a, 0x9a, 0x9a, 0xaa, 0x99, 0xa9, 0xaa, 0xa9, 0x9a,
    0xa9, 0x9b, 0x99, 0xa9, 0xaa, 0xaa, 0xaa, 0xa9, 0xaa, 0xaa,
    0xaa, 0x9a, 0x99, 0xba, 0x9a, 0xaa, 0xaa, 0x9b, 0x9a, 0x9a,
    0xaa, 0xaa, 0xaa, 0x9a, 0xaa, 0x9a, 0xa9, 0xa9, 0x99, 0xba,
    0x9a, 0x8a, 0xa9, 0x9c, 0xab, 0xaa, 0xba, 0xba, 0x99, 0xaa,
    0x87, 0x78, 0x77, 0x99, 0x89, 0xb8, 0x99, 0x79, 0x88, 0x8b,
    0x77, 0x98, 0x88, 0xb9, 0x68, 0x98, 0x79, 0xa8, 0x89, 0xa8,
    0x98, 0xc8, 0x79, 0x98, 0x8a, 0x7c, 0x79, 0xb8, 0x77, 0xca,
    0x89, 0x88, 0x99, 0x9b, 0xba, 0xa9, 0xb8, 0xa9, 0x99, 0x99,
    0x7a, 0xab, 0x8a, 0x88, 0x9a, 0xba, 0xaa, 0xa9, 0xb8, 0x88,
    0x99, 0x9a, 0x99, 0xba, 0x9a, 0x8a, 0x89, 0x9b, 0xa8, 0x88,
    0xb8, 0xca, 0xa8, 0x99, 0x99, 0x89, 0xa9, 0x99, 0x99, 0xb9,
    0x99, 0x7a, 0x88, 0xab, 0x87, 0x88, 0xa8, 0xcb, 0x98, 0x9a,
    0xb8, 0x88, 0x88, 0xb9, 0x97, 0xa9, 0xa9, 0x98, 0x97, 0x9b,
    0x98, 0x98, 0x9a, 0xc8, 0x97, 0x98, 0x86, 0x88, 0x97, 0x98,
    0xa8, 0xb8, 0x77, 0x78, 0x88, 0x8a, 0x86, 0x88, 0x97, 0xb9,
    0x96, 0x77, 0x98, 0x89, 0x98, 0xa8, 0x89, 0xa8, 0x88, 0x98,
    0x79, 0x89, 0x7a, 0x67, 0x98, 0xa9, 0x8b, 0x87, 0x9a, 0xb9,
    0xa9, 0x97, 0xb8, 0xa8, 0x87, 0xb7, 0x9a, 0x88, 0x8a, 0x98,
    0x97, 0x98, 0x8a, 0x88, 0x88, 0x9a, 0xa9, 0xaa, 0x9a, 0x9a,
    0x89, 0x89, 0x89, 0x9a, 0x99, 0x78, 0xa7, 0xa8, 0xa9, 0xa9,
    0x99, 0x99, 0x8a, 0xa9, 0x99, 0x9a, 0x9a, 0x89, 0xaa, 0x9b,
    0x99, 0xba, 0x9a, 0xa9, 0x89, 0x9a, 0x8a, 0xaa, 0x9a, 0xa9,
    0xa9, 0xa9, 0x89, 0x99, 0x9a, 0x9b, 0x8a, 0x98, 0x9b, 0xb9,
    0x9a, 0x9a, 0x9a, 0xaa, 0xa9, 0xa9, 0x99, 0xb9, 0x9a, 0x9a,
    0xaa, 0xaa, 0x9a, 0x9a, 0xaa, 0xba, 0xaa, 0xaa, 0x89, 0x79,
    0x98, 0x98, 0x99, 0xa9, 0xa8, 0x79, 0x98, 0x9a, 0x8a, 0x99,
    0xaa, 0xb9, 0x78, 0xa8, 0x77, 0x89, 0xa9, 0xa8, 0xb7, 0x88,
    0x88, 0x88, 0x89, 0x78, 0x78, 0x88, 0x88, 0xb8, 0xa8, 0x87,
    0xa7, 0x88, 0xa9, 0xaa, 0xb9, 0x99, 0x8a, 0x99, 0x69, 0x99,
    0x97, 0x76, 0xb7, 0xb8, 0xa8, 0x99, 0xa9, 0x9a, 0xab, 0xab,
    0x9b, 0x8a, 0x8a, 0xaa, 0x6b, 0x98, 0xaa, 0x78, 0x88, 0x8a,
    0xa9, 0x9b, 0x98, 0x8a, 0x9b, 0xba, 0x9a, 0x7a, 0x99, 0x8a,
    0x8a, 0xa7, 0x98, 0x88, 0x9b, 0x8b, 0x88, 0xa9, 0x89, 0xab,
    0xa9, 0x9a, 0xb9, 0x89, 0x8a, 0xaa, 0x9b, 0x89, 0x99, 0x88,
    0x88, 0x98, 0x9a, 0x99, 0xaa, 0x99, 0x9a, 0xa9, 0x8a, 0xaa,
    0xa9, 0xaa, 0xa9, 0xca, 0xa9, 0x98, 0xaa, 0xab, 0xa9, 0xaa,
    0xaa, 0xaa, 0x9a, 0x9a, 0x99, 0x99, 0x9a, 0xa9, 0x9a, 0x9b,
    0xb9, 0x77, 0x98, 0xa9, 0x9b, 0x99, 0x9a, 0x89, 0xab, 0xba,
    0xaa, 0xba, 0xba, 0x9a, 0x8a, 0xba, 0xa9, 0x67, 0xaa, 0x9a,
    0xaa, 0xab, 0xa9, 0xab, 0xaa, 0xba, 0xa9, 0x7a, 0x9b, 0x9a,
    0x8a, 0x97, 0xa8, 0x89, 0xaa, 0x8a, 0xb9, 0x99, 0xaa, 0x79,
    0x89, 0xaa, 0x9a, 0x9b, 0xb9, 0x7b, 0xba, 0xa7, 0xba, 0x99,
    0xba, 0x7b, 0x99, 0xb9, 0x89, 0x78, 0x97, 0xa8, 0x98, 0xa8,
    0x89, 0x78, 0x89, 0x89, 0x8a, 0x89, 0x88, 0xa8, 0x7a, 0x97,
    0x68, 0xa9, 0x77, 0xb8, 0x98, 0x98, 0x68, 0x98, 0x58, 0x79,
    0x59, 0x77, 0x66, 0x98, 0x79, 0x88, 0xba, 0xaa, 0xaa, 0xaa,
    0xa9, 0xaa, 0xaa, 0x9a, 0xca, 0xaa, 0xaa, 0x9a, 0xba, 0xaa,
    0xb9, 0xaa, 0xa9, 0x68, 0x88, 0x98, 0x99, 0x88, 0x98, 0x69,
    0x98, 0x97, 0x98, 0x89, 0xa9, 0x89, 0x77, 0x98, 0x88, 0x9a,
    0x88, 0xa9, 0xb8, 0xa9, 0x89, 0xa8, 0x99, 0x69, 0x89, 0x88,
    0x78, 0x98, 0x9b, 0x89, 0x99, 0x99, 0x99, 0x9b, 0xaa, 0x69,
    0x89, 0x8a, 0x89, 0x87, 0x98, 0x87, 0x87, 0x7b, 0x98, 0xa9,
    0x8a, 0x99, 0xaa, 0xba, 0xaa, 0x7a, 0x8a, 0x99, 0x7a, 0x86,
    0x99, 0x98, 0x98, 0x5a, 0xaa, 0x98, 0xba, 0x9a, 0xaa, 0xba,
    0x8a, 0x7a, 0x99, 0x8a, 0x7b, 0x96, 0xa9, 0x77, 0x89, 0x79,
    0xa9, 0xaa, 0xa9, 0x89, 0x9b, 0x8a, 0x89, 0x89, 0x8b, 0x9b,
    0x89, 0xa8, 0x98, 0x78, 0x79, 0x8b, 0xa8, 0xab, 0x9b, 0x8a,
    0xaa, 0xaa, 0x9a, 0x9a, 0x9a, 0x9b, 0x7a, 0x8a, 0x99, 0x88,
    0xa9, 0x9a, 0x99, 0xaa, 0xab, 0xb9, 0xa9, 0xda, 0x89, 0x99,
    0xb9, 0xb9, 0x8a, 0xba, 0x99, 0x68, 0xca, 0x8a, 0x9a, 0xa9,
    0x9b, 0xba, 0xa9, 0xc9, 0x99, 0x99, 0xba, 0xba, 0x9b, 0xb8,
    0x9b, 0x88, 0xba, 0x8b, 0xab, 0xab, 0x9c, 0xab, 0xba, 0xab,
    0x8b, 0xaa, 0x9a, 0x9a, 0x9c, 0x99, 0xbc, 0x67, 0xaa, 0x7a,
    0x9c, 0xaa, 0xbc, 0x7a, 0xcb, 0xba, 0x8a, 0x9b, 0xbb, 0x8b,
    0xab, 0xca, 0xbb, 0x9a, 0xbb, 0xab, 0xac, 0xcb, 0xb9, 0x68,
    0x9b, 0xa9, 0x98, 0x69, 0xba, 0x7a, 0xa7, 0xb7, 0xb9, 0xaa,
    0xba, 0x6a, 0xaa, 0xab, 0xa7, 0xa9, 0x79, 0x98, 0x98, 0xa7,
    0x78, 0xa8, 0x88, 0x76, 0x97, 0x99, 0xa8, 0x68, 0x97, 0x87,
    0xba, 0xba, 0xaa, 0x8a, 0xaa, 0xca, 0xaa, 0xca, 0xba, 0xac,
    0xba, 0xbb, 0xbb, 0xca, 0xca, 0xaa, 0xba, 0x79, 0x89, 0x99,
    0x99, 0x89, 0xb8, 0x7a, 0xb8, 0xa7, 0x88, 0xaa, 0xbb, 0x9a,
    0x98, 0xa9, 0xa8, 0xa8, 0x99, 0xb9, 0xb8, 0x88, 0x7a, 0xa8,
    0x78, 0x78, 0x99, 0x77, 0x87, 0x98, 0xb9, 0x89, 0xbb, 0xaa,
    0xab, 0xaa, 0xba, 0x8a, 0x99, 0xaa, 0x9a, 0x88, 0xaa, 0xa9,
    0xaa, 0x8b, 0xaa, 0x9a, 0xa8, 0x99, 0x9b, 0xbb, 0xaa, 0x9a,
    0x8b, 0xaa, 0x9a, 0x98, 0xa9, 0x89, 0xa8, 0x8a, 0x99, 0xaa,
    0x9a, 0xaa, 0x8a, 0xbb, 0xaa, 0x8b, 0x99, 0x99, 0xba, 0x98,
    0x9a, 0xab, 0xaa, 0x88, 0xaa, 0xaa, 0xaa, 0xaa, 0xab, 0x9a,
    0xab, 0x8a, 0xa9, 0xab, 0x9b, 0xa9, 0x99, 0x99, 0x99, 0x8a,
    0x8a, 0xaa, 0x9c, 0xab, 0xba, 0xaa, 0x8b, 0x9b, 0xa9, 0xbb,
    0x9c, 0xa8, 0xaa, 0x79, 0x8b, 0x7c, 0x9a, 0xbb, 0x9a, 0xaa,
    0xaa, 0xba, 0x7b, 0xaa, 0xcb, 0xbb, 0xab, 0xd9, 0x89, 0x79,
    0xbc, 0x8c, 0x8a, 0xc9, 0x9d, 0xcd, 0xba, 0xc9, 0x6b, 0xa9,
    0xba, 0xdb, 0x9c, 0xb9, 0xad, 0x7a, 0xcb, 0x9b, 0x7d, 0xaa,
    0x8a, 0xba, 0xaa, 0xb9, 0x6a, 0x9b, 0xc9, 0xca, 0xba, 0xc9,
    0x9c, 0x99, 0xcb, 0x7a, 0x7b, 0xaa, 0x9b, 0xcc, 0xba, 0xa9,
    0x8a, 0xa9, 0xc9, 0xca, 0xab, 0xab, 0x8d, 0xaa, 0xba, 0x9c,
    0x8c, 0xab, 0x9c, 0xaa, 0xb9, 0x98, 0x8a, 0x8a, 0xb9, 0xb9,
    0xab, 0xb8, 0x9b, 0xbb, 0xaa, 0x8c, 0x8a, 0xaa, 0x87, 0xa9,
    0x96, 0x88, 0xa9, 0x99, 0x99, 0xa8, 0x97, 0x88, 0x87, 0xa9,
    0x99, 0x98, 0x78, 0x97, 0xba, 0xbb, 0xab, 0x8a, 0x9a, 0xca,
    0xaa, 0xb9, 0xaa, 0x9c, 0xca, 0xaa, 0xba, 0xba, 0xc9, 0xab,
    0xba, 0x89, 0x9a, 0xa9, 0x9a, 0xba, 0x9a, 0x8a, 0xb9, 0xab,
    0xba, 0xcb, 0xba, 0xb9, 0x99, 0x9b, 0x99, 0xaa, 0x89, 0xa9,
    0xa9, 0xa8, 0xaa, 0xb9, 0x9b, 0x9b, 0x9a, 0xb9, 0x8a, 0x99,
    0xa9, 0x99, 0xab, 0xb9, 0xaa, 0x9a, 0xaa, 0x7a, 0x9b, 0x9a,
    0xab, 0x86, 0x9a, 0xaa, 0x98, 0x7a, 0xab, 0xbb, 0x88, 0xa9,
    0x9a, 0x7a, 0xbb, 0x99, 0x9b, 0xba, 0xba, 0x89, 0xa9, 0xbb,
    0x89, 0x99, 0xa9, 0xa9, 0xcb, 0xab, 0xba, 0x7a, 0xaa, 0x99,
    0x9b, 0x9a, 0xab, 0x98, 0xaa, 0xac, 0x9a, 0x8b, 0xbb, 0xab,
    0xab, 0xa9, 0xb9, 0x6a, 0xaa, 0x89, 0xa9, 0x89, 0x9a, 0x98,
    0xba, 0x9b, 0x79, 0x8a, 0xaa, 0xa9, 0x8c, 0xbb, 0xb9, 0xba,
    0x8b, 0xa9, 0xa9, 0xb9, 0xaa, 0x9a, 0x9c, 0xab, 0x7b, 0x89,
    0x7c, 0x9b, 0x7c, 0xcb, 0xaa, 0xda, 0x7a, 0x9a, 0xba, 0xca,
    0x9b, 0xb8, 0x8c, 0x9b, 0xab, 0x7a, 0x7d, 0xab, 0x6b, 0xbb,
    0xaa, 0xba, 0x9b, 0x8a, 0xbb, 0xca, 0xab, 0xc8, 0x6a, 0x9b,
    0xbb, 0x7a, 0x6b, 0xaa, 0x8c, 0xdb, 0xbb, 0xb9, 0x8b, 0x9a,
    0xca, 0xcb, 0xab, 0xb9, 0x8c, 0xab, 0xbb, 0x7a, 0x8b, 0xab,
    0x9b, 0xca, 0xab, 0x9a, 0xaa, 0x9b, 0xba, 0xda, 0xaa, 0xb8,
    0xab, 0xaa, 0xbb, 0x7b, 0x8b, 0xba, 0xbb, 0xba, 0xba, 0xa8,
    0x89, 0x89, 0xb8, 0xa8, 0xba, 0xb9, 0xac, 0xbb, 0xba, 0x9b,
    0x9b, 0x88, 0x68, 0xb9, 0x86, 0x99, 0xa9, 0x89, 0x89, 0xa9,
    0x79, 0x96, 0x69, 0x89, 0x88, 0x79, 0x78, 0x98, 0xa9, 0xba,
    0x99, 0x99, 0xaa, 0xb9, 0xa9, 0xa9, 0xba, 0xac, 0x9a, 0xca,
    0xaa, 0xca, 0xaa, 0xaa, 0x89, 0x9a, 0x98, 0xa9, 0x9a, 0x89,
    0xa9, 0x9a, 0xaa, 0xb8, 0x88, 0xa9, 0xa9, 0x89, 0x9a, 0x99,
    0x98, 0xba, 0x98, 0x99, 0xb8, 0x88, 0x9a, 0xb8, 0xba, 0x98,
    0x99, 0xdc, 0x8b, 0x69, 0xaa, 0x88, 0xbb, 0xbb, 0xba, 0x6b,
    0xba, 0x7b, 0xb9, 0xba, 0xcb, 0xb6, 0xaa, 0xcc, 0x8b, 0x7a,
    0xba, 0xb9, 0xc8, 0xb9, 0xb9, 0x5a, 0xca, 0x8a, 0xbb, 0xb9,
    0xbb, 0xa9, 0xb9, 0xbc, 0xac, 0x8a, 0xc9, 0xa9, 0xcb, 0xaa,
    0xbb, 0x8c, 0xaa, 0x8b, 0xab, 0xaa, 0xbb, 0xb7, 0xc9, 0xbb,
    0x9c, 0x7c, 0xb9, 0xaa, 0x99, 0x89, 0x88, 0xa9, 0x98, 0x89,
    0xc8, 0x99, 0xc8, 0xb7, 0x9a, 0xcc, 0x8c, 0x89, 0x68, 0xa9,
    0x68, 0xc8, 0x97, 0xc8, 0x78, 0x88, 0xb6, 0xb8, 0xa9, 0x99,
    0x69, 0xac, 0x8c, 0x88, 0x59, 0x77, 0x6b, 0xdb, 0x98, 0xa8,
    0xa9, 0x98, 0xa7, 0xd8, 0x9b, 0x98, 0x5b, 0x8b, 0x6b, 0x7a,
    0x6b, 0x89, 0x8a, 0xbb, 0x9a, 0x99, 0xb9, 0x8a, 0xb9, 0xaa,
    0xaa, 0x98, 0x7b, 0x8b, 0x99, 0x8a, 0x9b, 0xaa, 0x7b, 0xcb,
    0xaa, 0x79, 0xca, 0xaa, 0xa9, 0xca, 0xaa, 0xa9, 0x8b, 0xab,
    0x9b, 0x79, 0x8b, 0xb9, 0x9c, 0xda, 0xb9, 0x99, 0xba, 0x8a,
    0xca, 0xd9, 0xca, 0xb8, 0x8b, 0xbb, 0xab, 0x6b, 0x7b, 0xba,
    0x8b, 0xbb, 0xba, 0x99, 0x99, 0x79, 0xb9, 0xb8, 0xbb, 0xb7,
    0x9a, 0xab, 0xab, 0x7a, 0x6a, 0xa8, 0x98, 0x99, 0x97, 0x99,
    0xa9, 0x69, 0xaa, 0x9a, 0x99, 0xa6, 0x98, 0x98, 0x88, 0x6a,
    0x89, 0x98, 0x9a, 0xaa, 0xaa, 0xaa, 0x9a, 0xba, 0x99, 0x8a,
    0xaa, 0xab, 0x9a, 0x9a, 0xaa, 0xba, 0x9a, 0xaa, 0x87, 0x89,
    0x77, 0xa9, 0x88, 0x98, 0x98, 0x99, 0x98, 0x8a, 0x77, 0xaa,
    0xaa, 0x99, 0x88, 0x87, 0xaa, 0xba, 0xc9, 0x89, 0xb9, 0x99,
    0xab, 0xb8, 0xca, 0x89, 0xab, 0xcc, 0x79, 0x79, 0xbb, 0x8a,
    0xbb, 0xba, 0xbb, 0x6a, 0xbb, 0x7a, 0xbb, 0xca, 0xca, 0xa7,
    0xba, 0xcc, 0x7c, 0x6b, 0xba, 0xbb, 0xb9, 0xba, 0xbb, 0x6b,
    0xca, 0x7b, 0xab, 0xab, 0xbb, 0xa6, 0xca, 0xbc, 0x8c, 0x7a,
    0xb9, 0xba, 0xaa, 0xba, 0xa9, 0x8a, 0x99, 0x8b, 0xca, 0xab,
    0xba, 0xb8, 0x9a, 0xbc, 0x9c, 0x8a, 0x9a, 0xba, 0x79, 0xa8,
    0x89, 0x99, 0x99, 0x7a, 0xc7, 0xa9, 0xc8, 0xc7, 0x78, 0xbd,
    0xad, 0x6a, 0x77, 0x98, 0x68, 0x88, 0x97, 0xd7, 0x97, 0x66,
    0x96, 0x97, 0xa8, 0xa6, 0x68, 0x9b, 0x9c, 0x68, 0x79, 0x67,
    0x97, 0xc9, 0x88, 0xb8, 0xb7, 0x88, 0xa8, 0xc7, 0x98, 0x88,
    0x79, 0x9b, 0x8a, 0x67, 0xa8, 0x77, 0x8a, 0xba, 0x9a, 0x6a,
    0xba, 0x89, 0x99, 0xaa, 0x99, 0x98, 0x8a, 0xaa, 0x8a, 0x69,
    0x8a, 0x99, 0x9b, 0xca, 0xa9, 0x8a, 0xaa, 0x9a, 0xa9, 0xba,
    0xab, 0x88, 0xab, 0x9a, 0x9b, 0x7a, 0x9b, 0x9b, 0x9b, 0xda,
    0xb9, 0x79, 0xb9, 0xaa, 0xbb, 0xd9, 0xb9, 0xaa, 0x9b, 0xba,
    0xac, 0x9a, 0x8b, 0x99, 0xba, 0xba, 0x9a, 0x9a, 0x9a, 0x8b,
    0x9a, 0x9b, 0xb9, 0xb9, 0xbb, 0xab, 0xab, 0x8a, 0x7a, 0xcb,
    0x79, 0xa9, 0x88, 0xa8, 0xb9, 0x99, 0x99, 0x99, 0x89, 0xa9,
    0x69, 0xaa, 0x8a, 0xa8, 0x79, 0x99, 0x9a, 0x99, 0x99, 0x99,
    0xaa, 0xa9, 0xa9, 0x8a, 0xa9, 0x9b, 0xa9, 0x9a, 0xaa, 0xb9,
    0x89, 0x99, 0xa7, 0x98, 0xaa, 0x99, 0xa8, 0x88, 0x98, 0xb8,
    0x89, 0x89, 0xa7, 0x99, 0x89, 0x87, 0xa8, 0x98, 0xca, 0xbb,
    0xa9, 0x9a, 0xba, 0xab, 0xbb, 0xa9, 0xcb, 0xaa, 0xdb, 0xcd,
    0x9a, 0x9a, 0xca, 0x9a, 0xaa, 0xba, 0xbb, 0x8b, 0xaa, 0xaa,
    0xba, 0xb9, 0xca, 0xba, 0xba, 0xcb, 0x9b, 0x9b, 0xba, 0xaa,
    0xaa, 0xbb, 0xca, 0x8b, 0xbb, 0x7b, 0xca, 0xbb, 0xca, 0xb7,
    0xaa, 0xcb, 0xac, 0x5a, 0xaa, 0xaa, 0xa9, 0x99, 0xb9, 0x7a,
    0x9a, 0x6a, 0xba, 0x9a, 0xba, 0xb5, 0xa7, 0xcc, 0x9b, 0x6a,
    0xa8, 0xaa, 0x87, 0x97, 0x98, 0xa8, 0xc7, 0x78, 0xb8, 0x98,
    0xc7, 0xb6, 0xa7, 0xcd, 0xbc, 0x78, 0x88, 0x88, 0x97, 0xa8,
    0x98, 0xa9, 0xb8, 0x67, 0x88, 0xb8, 0x88, 0x85, 0x98, 0x79,
    0x8a, 0x67, 0xa7, 0x77, 0xb8, 0xa8, 0x79, 0xa8, 0xa8, 0x79,
    0x98, 0xa9, 0x98, 0x86, 0xa8, 0xab, 0x8a, 0x77, 0xa8, 0x88,
    0x98, 0xc8, 0x9a, 0x69, 0xc9, 0x98, 0x89, 0xb8, 0xa9, 0x89,
    0x8a, 0xaa, 0x79, 0xa9, 0xb8, 0x99, 0x9b, 0xba, 0x98, 0x89,
    0xba, 0xaa, 0xa9, 0xb9, 0xa9, 0x99, 0x9b, 0xa9, 0x99, 0x9a,
    0xab, 0xa9, 0xa9, 0xb9, 0xa8, 0x8b, 0xba, 0x9a, 0xab, 0xbb,
    0xa9, 0xa9, 0x99, 0xaa, 0x8b, 0xa9, 0xa8, 0xa9, 0x6b, 0x99,
    0x87, 0x99, 0xaa, 0x8a, 0xb9, 0x9a, 0xb9, 0xb9, 0x7a, 0xba,
    0xbb, 0xaa, 0x7b, 0xaa, 0x78, 0xb9, 0x77, 0xa8, 0xa8, 0x78,
    0x88, 0xc8, 0x88, 0x78, 0x89, 0x78, 0x87, 0x88, 0x98, 0x88,
    0xaa, 0x99, 0x99, 0xa9, 0x99, 0xaa, 0xaa, 0x8a, 0xa9, 0xab,
    0x99, 0xaa, 0xb9, 0xaa, 0x99, 0xaa, 0x77, 0xaa, 0x9b, 0xa9,
    0xb9, 0x98, 0xaa, 0x97, 0xca, 0x9a, 0x98, 0xba, 0x9a, 0x89,
    0xaa, 0x97, 0xab, 0xaa, 0x9b, 0x9a, 0xa9, 0xaa, 0xca, 0xa9,
    0xaa, 0xca, 0x9a, 0x9b, 0x9b, 0xab, 0xaa, 0xaa, 0x9a, 0x9a,
    0xab, 0x9b, 0x9a, 0x9a, 0x9a, 0xb9, 0x9b, 0x99, 0x8b, 0xab,
    0x89, 0x89, 0x9a, 0xaa, 0x8a, 0xca, 0xab, 0x8a, 0x9c, 0xb9,
    0xbb, 0xbb, 0xca, 0xca, 0x8a, 0xbc, 0xbc, 0x8a, 0x8b, 0xaa,
    0xab, 0xca, 0x99, 0x99, 0xb9, 0x9a, 0xca, 0xba, 0xda, 0xa9,
    0xab, 0xdd, 0xac, 0x8a, 0x9a, 0x9a, 0x98, 0xc8, 0xb9, 0xb8,
    0xd9, 0x89, 0xb9, 0xa9, 0xa9, 0xb7, 0x97, 0xab, 0xcb, 0x8a,
    0xa7, 0x99, 0xb7, 0xa8, 0x99, 0xc8, 0xb9, 0xa9, 0x99, 0xa8,
    0x98, 0x8a, 0xc8, 0x99, 0xa9, 0xa8, 0xb8, 0x89, 0xa8, 0xb8,
    0x99, 0x78, 0xb8, 0xb8, 0x89, 0xa8, 0xa8, 0x7b, 0xa8, 0xbb,
    0x89, 0xb8, 0xa8, 0x79, 0xc7, 0x98, 0x88, 0x7a, 0x99, 0xaa,
    0x89, 0x99, 0x98, 0x99, 0xa6, 0xba, 0x88, 0xb8, 0xb7, 0x99,
    0x98, 0xb8, 0x79, 0x89, 0xb9, 0xa9, 0x99, 0xa8, 0xa8, 0x99,
    0x8b, 0xaa, 0x89, 0xb8, 0xa8, 0x99, 0x99, 0x89, 0x99, 0x7a,
    0xaa, 0xaa, 0x9a, 0x89, 0xa8, 0x99, 0x98, 0xaa, 0x79, 0xaa,
    0x98, 0xa9, 0x69, 0x88, 0xa8, 0x9a, 0x9a, 0x9a, 0x99, 0x8a,
    0x98, 0x99, 0x78, 0x9a, 0x99, 0x99, 0x68, 0xa9, 0x78, 0xba,
    0x89, 0xa8, 0x99, 0xb8, 0x88, 0xb9, 0x78, 0x7a, 0x6a, 0x97,
    0x88, 0xa9, 0x88, 0x88, 0xaa, 0x9a, 0x89, 0xa9, 0x8a, 0x9a,
    0xa8, 0x9a, 0xa9, 0xaa, 0x99, 0xba, 0xaa, 0xba, 0x89, 0xaa,
    0x99, 0x99, 0x89, 0xa9, 0x88, 0xa9, 0x99, 0xa9, 0xb9, 0xba,
    0xa9, 0xbb, 0xab, 0x99, 0x89, 0x88, 0x7a, 0xa9, 0x98, 0xa9,
    0x8a, 0x99, 0xb8, 0x9a, 0x8b, 0xb9, 0x7a, 0x8a, 0x9c, 0x8c,
    0x8a, 0xaa, 0x79, 0xba, 0x88, 0xca, 0xaa, 0x8a, 0xba, 0xa9,
    0x9b, 0xa8, 0x7b, 0xaa, 0xaa, 0x99, 0x8b, 0xa8, 0x6b, 0xb9,
    0xb9, 0x79, 0x7a, 0x99, 0xba, 0xaa, 0xa9, 0xa8, 0x89, 0xac,
    0x9a, 0x8b, 0x8a, 0xaa, 0x9b, 0xda, 0xb9, 0x7a, 0x5a, 0xaa,
    0xa9, 0xdb, 0x9a, 0xbb, 0x9b, 0x8a, 0xbb, 0x9a, 0x8a, 0xaa,
    0xaa, 0x8a, 0xb9, 0x99, 0x7a, 0x9a, 0x9a, 0x7a, 0xa9, 0xba,
    0xa9, 0x99, 0xaa, 0xba, 0x99, 0xba, 0xb8, 0x78, 0xa9, 0x7a,
    0xa9, 0xaa, 0x79, 0x7a, 0x88, 0x8a, 0xa6, 0xa7, 0x88, 0xb9,
    0x97, 0xb8, 0xb7, 0x89, 0x8a, 0xa9, 0x8a, 0x99, 0x7a, 0x79,
    0x88, 0x79, 0xb7, 0x99, 0x98, 0xa9, 0xa7, 0x99, 0xa6, 0x67,
    0x88, 0x7a, 0xb9, 0x99, 0x7a, 0x69, 0x89, 0x99, 0x97, 0x98,
    0x58, 0xa9, 0x97, 0xa8, 0xa8, 0x88, 0xa8, 0x98, 0xb8, 0x98,
    0x89, 0x78, 0x89, 0x99, 0x97, 0x99, 0x69, 0xa8, 0xb8, 0x88,
    0xb7, 0x77, 0xa8, 0xbb, 0xaa, 0x8b, 0x89, 0x6a, 0x98, 0x88,
    0x97, 0x98, 0x78, 0x99, 0xa7, 0xb8, 0x98, 0x88, 0x77, 0x99,
    0x98, 0x98, 0x98, 0x88, 0xa8, 0x99, 0x87, 0x99, 0x8a, 0xa9,
    0xb8, 0x88, 0xaa, 0xba, 0x78, 0xa9, 0x99, 0x99, 0x79, 0x99,
    0x79, 0x87, 0x8a, 0x77, 0x97, 0x89, 0xc9, 0x99, 0x89, 0x79,
    0xa9, 0xa9, 0x9a, 0x89, 0x9a, 0x8a, 0xa9, 0x98, 0x99, 0xa9,
    0xaa, 0x8a, 0x9a, 0xa9, 0x99, 0x89, 0x88, 0x89, 0x99, 0x89,
    0xaa, 0x79, 0x98, 0x98, 0x88, 0x8a, 0xaa, 0x99, 0x88, 0x99,
    0x97, 0xa9, 0x98, 0xa9, 0x99, 0xa8, 0xaa, 0xb8, 0x8b, 0x9a,
    0x79, 0x89, 0x9a, 0x98, 0x99, 0x98, 0x9b, 0xab, 0xaa, 0xaa,
    0x7b, 0xab, 0xba, 0xab, 0x8b, 0xba, 0x8b, 0x89, 0xca, 0x8c,
    0x6b, 0xac, 0x7c, 0xab, 0xaa, 0xca, 0x6b, 0xaa, 0xcb, 0x9a,
    0x8a, 0xba, 0x7a, 0x88, 0xca, 0x8b, 0x6b, 0xba, 0x9b, 0xb9,
    0xaa, 0xca, 0x5a, 0xba, 0xaa, 0xba, 0xa9, 0xab, 0x9a, 0x89,
    0xdb, 0x9b, 0x79, 0xba, 0xac, 0x9a, 0xcb, 0xb9, 0x4a, 0xba,
    0x8a, 0xba, 0x9a, 0xba, 0xaa, 0x99, 0xba, 0x99, 0xab, 0xab,
    0xbb, 0x4a, 0xac, 0xab, 0x5c, 0xab, 0x6c, 0x5b, 0x7a, 0x7a,
    0xb9, 0x87, 0x86, 0xb9, 0xaa, 0xbb, 0xb9, 0x48, 0xab, 0xbb,
    0x9c, 0x9b, 0x7b, 0x4c, 0x89, 0x7a, 0xb8, 0x88, 0x68, 0xa8,
    0x9a, 0xcc, 0xb7, 0x57, 0x8a, 0xaa, 0xca, 0x9a, 0x8b, 0x49,
    0x97, 0x89, 0xb6, 0x99, 0x59, 0xa9, 0xc8, 0xaa, 0xb8, 0x49,
    0x8a, 0x9b, 0xba, 0x9a, 0x7b, 0x49, 0x88, 0x7a, 0xb8, 0x98,
    0x57, 0x98, 0xc8, 0x8b, 0x99, 0x68, 0xa9, 0x9b, 0xaa, 0xac,
    0x89, 0x6b, 0x9a, 0x89, 0x98, 0xa9, 0x69, 0xab, 0x89, 0xab,
    0x87, 0xc9, 0x98, 0xa8, 0xa8, 0x98, 0x88, 0xb8, 0x89, 0x89,
    0x97, 0x88, 0x88, 0x97, 0x97, 0x88, 0x9a, 0xaa, 0xa9, 0xba,
    0x9a, 0xca, 0x9a, 0xba, 0xba, 0x9b, 0x9c, 0xaa, 0x9a, 0xba,
    0xaa, 0x9a, 0xaa, 0x9a, 0xaa, 0xba, 0x9a, 0xa9, 0x9a, 0x9a,
    0xa9, 0xab, 0xa9, 0x9a, 0xba, 0xa9, 0xaa, 0x9a, 0x99, 0x79,
    0x99, 0xb9, 0xa9, 0x89, 0xaa, 0x89, 0xa9, 0xa7, 0xa9, 0xaa,
    0xaa, 0x89, 0x99, 0x9a, 0xa9, 0x89, 0x8b, 0xa8, 0xa9, 0x9b,
    0xaa, 0x89, 0xa8, 0xa9, 0xa9, 0xaa, 0xa9, 0x9a, 0x99, 0x9b,
    0x69, 0x99, 0x89, 0x98, 0x9a, 0x99, 0x98, 0x8a, 0x79, 0x99,
    0x79, 0x87, 0xa8, 0x98, 0x69, 0x89, 0x79, 0x99, 0xa9, 0x98,
    0x99, 0xaa, 0x99, 0x8a, 0x8a, 0x9a, 0x69, 0x97, 0xa6, 0xa9,
    0x69, 0x98, 0x69, 0x98, 0xb7, 0xa8, 0x79, 0x97, 0x77, 0x88,
    0x79, 0x8a, 0x59, 0x88, 0xa6, 0xa8, 0x68, 0x87, 0x8a, 0xaa,
    0xb7, 0x98, 0x7a, 0xa9, 0x67, 0xaa, 0x79, 0x6a, 0x7a, 0x88,
    0x77, 0xb7, 0x79, 0x98, 0x88, 0x59, 0x9a, 0xba, 0xab, 0x9b,
    0x5b, 0x6a, 0x8b, 0x5a, 0xaa, 0x86, 0x45, 0xb8, 0x8b, 0x9a,
    0x99, 0x48, 0xb8, 0xb9, 0xaa, 0xb9, 0x5a, 0x69, 0x8c, 0x5b,
    0x9a, 0x97, 0x46, 0xc8, 0x8b, 0x8a, 0x78, 0x59, 0xb7, 0xa8,
    0xa8, 0x98, 0x87, 0x58, 0x8a, 0x7b, 0x78, 0x99, 0x57, 0xa8,
    0x89, 0x88, 0x97, 0x58, 0x86, 0xa8, 0xa8, 0x88, 0x68, 0x58,
    0x7a, 0x68, 0x99, 0x77, 0x76, 0x87, 0x7a, 0x87, 0x88, 0x78,
    0x97, 0xb9, 0xa8, 0x88, 0x68, 0x78, 0x8a, 0x67, 0x89, 0x99,
    0x87, 0x98, 0x98, 0x87, 0x87, 0xa9, 0x88, 0x99, 0x98, 0x88,
    0x79, 0x89, 0x78, 0x77, 0x87, 0x88, 0x97, 0x88, 0xa8, 0x88,
    0x9a, 0x9a, 0x9a, 0x9a, 0xaa, 0xaa, 0x9a, 0x9a, 0x9a, 0xab,
    0xaa, 0xba, 0xaa, 0xaa, 0xaa, 0xaa, 0x99, 0xaa, 0xa9, 0x9a,
    0xaa, 0xaa, 0x9a, 0xaa, 0xaa, 0xab, 0x9a, 0xa9, 0xaa, 0xaa,
    0xa9, 0x99, 0xa9, 0xa9, 0xaa, 0xaa, 0xaa, 0xa9, 0xa9, 0x9a,
    0xaa, 0xab, 0x9a, 0xaa, 0xba, 0xba, 0xaa, 0xaa, 0x89, 0x68,
    0x99, 0xa9, 0x99, 0x89, 0xa8, 0x69, 0xa9, 0x96, 0x96, 0x99,
    0xba, 0x89, 0x98, 0x99, 0x97, 0x68, 0x68, 0xa9, 0xa8, 0x78,
    0x88, 0x79, 0x67, 0x97, 0x97, 0x77, 0xb7, 0x78, 0x96, 0x98,
    0x67, 0x78, 0x88, 0xa8, 0xa8, 0x78, 0x88, 0x78, 0x79, 0x86,
    0x87, 0x78, 0xa8, 0x88, 0x88, 0x88, 0x77, 0x69, 0x77, 0x98,
    0xa7, 0x78, 0x78, 0x78, 0x69, 0x76, 0x88, 0x75, 0xa5, 0x77,
    0x89, 0x87, 0x77, 0x58, 0x77, 0xb9, 0xa8, 0x68, 0x77, 0x68,
    0x78, 0x77, 0x77, 0x77, 0xb6, 0x77, 0x89, 0x87, 0x77, 0x58,
    0x77, 0xa8, 0xb8, 0x67, 0x77, 0x58, 0x77, 0x76, 0x77, 0x77,
    0xa6, 0x77, 0x88, 0x87, 0x77, 0x78, 0x78, 0xc8, 0xb8, 0x68,
    0x78, 0x79, 0x68, 0x76, 0x86, 0x66, 0x96, 0x58, 0x97, 0x87,
    0x87, 0x78, 0x78, 0xa9, 0xa8, 0x79, 0x79, 0x69, 0x67, 0x76,
    0x96, 0x77, 0xa7, 0x68, 0x87, 0x88, 0x87, 0x78, 0x78, 0xa9,
    0xa8, 0x79, 0x88, 0x79, 0x78, 0x86, 0x87, 0x67, 0xa7, 0x78,
    0x98, 0x88, 0x99, 0x8a, 0x88, 0xa9, 0xa9, 0x89, 0x79, 0x89,
    0x89, 0x87, 0x98, 0x77, 0xa7, 0x79, 0x98, 0x99, 0x99, 0xaa,
    0x99, 0x99, 0x9a, 0x99, 0x9a, 0x99, 0x99, 0x9a, 0x98, 0x98,
    0x99, 0x9a, 0xa9, 0x99, 0x9a, 0xaa, 0xaa, 0x9a, 0xa9, 0xaa,
    0xa9, 0x9a, 0xaa, 0x9c, 0x9a, 0xaa, 0xaa, 0xba, 0xa9, 0xaa,
    0xaa, 0xaa, 0xaa, 0xaa, 0xaa, 0xca, 0xaa, 0xaa, 0xaa, 0xab,
    0xaa, 0xaa, 0x9a, 0xba, 0xaa, 0xaa, 0xaa, 0xaa, 0xba, 0xaa,
    0xba, 0xda, 0xaa, 0xaa, 0xaa, 0xac, 0xba, 0xaa, 0xaa, 0xba,
    0xaa, 0xaa, 0xaa, 0x9a, 0xaa, 0xba, 0xaa, 0xca, 0xaa, 0xaa,
    0xaa, 0xab, 0xaa, 0xaa, 0x9a, 0xaa, 0xaa, 0xaa, 0xaa, 0x8a,
    0x99, 0xb9, 0xaa, 0xba, 0xaa, 0x8a, 0x99, 0x9b, 0xaa, 0xaa,
    0x9a, 0xaa, 0x9a, 0xaa, 0x89, 0x89, 0x99, 0xb9, 0xba, 0xc9,
    0x89, 0x89, 0xa9, 0x8c, 0x9a, 0xaa, 0x89, 0xa9, 0x8a, 0x9a,
    0x89, 0x89, 0x89, 0xb9, 0xb9, 0xc9, 0x89, 0x89, 0x89, 0x8b,
    0x89, 0xb9, 0x88, 0xa9, 0x89, 0x99, 0xba, 0xda, 0x9b, 0xaa,
    0xca, 0xca, 0xbb, 0xd9, 0x9a, 0x7b, 0xab, 0x9a, 0xa9, 0xac,
    0xbb, 0xaa, 0xda, 0xbb, 0xab, 0xba, 0xba, 0xcc, 0xcb, 0xbb,
    0xda, 0xdb, 0xcc, 0xbd, 0xdc, 0xad, 0xc9, 0xca, 0xa7, 0x99,
    0xb7, 0xba, 0xaa, 0xc9, 0xba, 0xb9, 0xa9, 0x9b, 0xa8, 0xbb,
    0xba, 0xaa, 0xb8, 0x98, 0xaa, 0xaa, 0xaa, 0xb9, 0xaa, 0xca,
    0xa9, 0xb9, 0x9a, 0xbb, 0xaa, 0x89, 0xb8, 0xab, 0xba, 0xaa,
    0xca, 0x9a, 0xa9, 0xb9, 0xaa, 0xda, 0xba, 0x9a, 0xca, 0xab,
    0xca, 0xbb, 0xcb, 0xaa, 0xba, 0xaa, 0x9a, 0x8a, 0x9a, 0xba,
    0xba, 0xca, 0x9a, 0x99, 0x99, 0xac, 0xaa, 0x9a, 0xaa, 0xa9,
    0x8a, 0xaa, 0x9a, 0xaa, 0xaa, 0xaa, 0xaa, 0xca, 0x9a, 0xaa,
    0x8a, 0xab, 0x9a, 0x99, 0xaa, 0xba, 0x9a, 0xaa, 0xaa, 0xaa,
    0xaa, 0xaa, 0xaa, 0xca, 0xaa, 0xaa, 0x9a, 0xab, 0xaa, 0xaa,
    0x9a, 0xaa, 0xaa, 0xaa, 0xaa, 0xba, 0xab, 0xba, 0xaa, 0xca,
    0xab, 0xba, 0xaa, 0xab, 0xaa, 0x9a, 0xab, 0xaa, 0xba, 0xaa,
    0xca, 0xaa, 0xaa, 0xba, 0xba, 0xcb, 0xba, 0x9a, 0xca, 0xab,
    0xba, 0x9b, 0xbb, 0xaa, 0xba, 0xaa, 0xa9, 0xaa, 0xb9, 0xaa,
    0xaa, 0xca, 0xaa, 0xaa, 0x9a, 0xbb, 0x9a, 0x99, 0xa9, 0xab,
    0xaa, 0xaa, 0xa8, 0x88, 0x88, 0xba, 0x98, 0xa9, 0xb9, 0x79,
    0xa8, 0xb9, 0x98, 0x99, 0xab, 0xab, 0x98, 0xb8, 0xa9, 0xa8,
    0x79, 0xc8, 0xc8, 0xa7, 0xb7, 0xa8, 0xc8, 0x79, 0xa9, 0x9b,
    0xb9, 0xa8, 0x99, 0x88, 0x99, 0xa8, 0x89, 0xb7, 0xb7, 0xa8,
    0x98, 0xa7, 0xe8, 0x7a, 0xaa, 0xdd, 0xa9, 0xa8, 0x9a, 0x89,
    0xac, 0xac, 0x89, 0xaa, 0xba, 0x8a, 0x8a, 0xaa, 0x9b, 0xb7,
    0x9b, 0xa9, 0x99, 0x8b, 0xbb, 0xa8, 0x97, 0xab, 0xb8, 0x9b,
    0xba, 0x5b, 0x89, 0x9a, 0xca, 0x86, 0x88, 0xcd, 0x9b, 0x69,
    0x99, 0xa7, 0x96, 0x99, 0xb7, 0xaa, 0xba, 0x6a, 0x99, 0x9a,
    0xaa, 0x96, 0x96, 0xbb, 0xaa, 0x79, 0x96, 0x98, 0x99, 0xdb,
    0xb7, 0x99, 0xc9, 0xa9, 0x99, 0xc8, 0xbb, 0x9a, 0xa9, 0xbb,
    0x99, 0xaa, 0xa9, 0x87, 0xa9, 0x99, 0x98, 0xa9, 0xb9, 0xc9,
    0xa9, 0x99, 0xc9, 0xab, 0x99, 0xab, 0xaa, 0xb9, 0x89, 0x98,
    0x99, 0x89, 0x99, 0xa8, 0xb9, 0xb8, 0x87, 0x98, 0x89, 0x8b,
    0x89, 0x88, 0x97, 0xa9, 0x89, 0x99, 0x89, 0x79, 0x88, 0xa8,
    0xa9, 0xc8, 0x88, 0x89, 0x89, 0x8b, 0x89, 0x88, 0x87, 0x99,
    0x89, 0x99, 0x7a, 0xaa, 0x98, 0xb9, 0xa9, 0xc9, 0x89, 0xa9,
    0x7a, 0x8c, 0x7a, 0x98, 0x88, 0xa9, 0x7a, 0x9a, 0xba, 0xca,
    0xab, 0x9a, 0xaa, 0xca, 0xaa, 0xb9, 0xaa, 0xad, 0xbb, 0xaa,
    0xaa, 0xba, 0xba, 0xab, 0xbb, 0xba, 0xab, 0xaa, 0xba, 0xca,
    0xba, 0xab, 0xb9, 0xbc, 0xcb, 0xcb, 0xbc, 0xca, 0xa9, 0xba,
    0xbb, 0xab, 0xab, 0xab, 0xbb, 0xbb, 0x9a, 0xbb, 0xab, 0xbb,
    0xcb, 0x9a, 0xa9, 0x8b, 0xab, 0xbc, 0xa9, 0x78, 0x8a, 0xc9,
    0x89, 0xc8, 0xc9, 0x89, 0x9a, 0xcc, 0x99, 0x98, 0xcc, 0x9a,
    0x89, 0xb9, 0x7b, 0xba, 0x79, 0xc8, 0xa8, 0xa8, 0xb9, 0xb9,
    0xba, 0xa9, 0x8c, 0x7b, 0xac, 0x6a, 0x8c, 0x9b, 0x8c, 0xcb,
    0x99, 0xa9, 0xc8, 0x79, 0xc8, 0xb9, 0xda, 0xb7, 0x8c, 0xbe,
    0xbd, 0x7b, 0x9c, 0x99, 0xab, 0xbb, 0xaa, 0xab, 0xba, 0x7a,
    0xb9, 0xb9, 0xcc, 0x97, 0xab, 0xbd, 0x9a, 0x7a, 0xaa, 0xa9,
    0x99, 0xc9, 0x9a, 0x9a, 0xd9, 0x6b, 0xaa, 0xb9, 0xd9, 0xa6,
    0xa9, 0xcd, 0xab, 0x7a, 0xa9, 0xba, 0x99, 0xba, 0x89, 0xaa,
    0xca, 0x6a, 0xa9, 0xab, 0xb9, 0xa6, 0x98, 0xbc, 0x9b, 0x6a,
    0xa9, 0xaa, 0xa7, 0xca, 0x98, 0x99, 0xd9, 0x6a, 0xaa, 0xba,
    0xb9, 0x96, 0xa7, 0xbb, 0xab, 0x59, 0xa7, 0x99, 0xa9, 0xca,
    0xba, 0x99, 0xca, 0x89, 0xaa, 0xca, 0xb9, 0xb7, 0xa9, 0xbb,
    0xaa, 0x89, 0xa8, 0x9a, 0xb9, 0xca, 0x9a, 0xaa, 0xba, 0x7b,
    0xaa, 0xaa, 0xb9, 0xa7, 0xb8, 0xaa, 0xbb, 0x7a, 0x98, 0xb9,
    0x98, 0x79, 0x88, 0xb9, 0xb9, 0x78, 0x99, 0x88, 0x99, 0x87,
    0x98, 0xa9, 0x99, 0x78, 0x78, 0x98, 0x79, 0x99, 0x78, 0xa9,
    0xa9, 0x99, 0x78, 0xa9, 0x6a, 0x78, 0x7a, 0x77, 0x86, 0x79,
    0x8a, 0x99, 0xaa, 0x89, 0x99, 0xaa, 0xaa, 0xca, 0xa9, 0x89,
    0xa9, 0xac, 0xa9, 0xaa, 0xaa, 0xaa, 0x89, 0xa9, 0x98, 0xb9,
    0xb9, 0xba, 0xca, 0xb9, 0x88, 0xa9, 0x99, 0x8b, 0xaa, 0x99,
    0x89, 0xda, 0x99, 0xa9, 0x9b, 0xaa, 0x99, 0xb8, 0x99, 0xa9,
    0xb8, 0x99, 0xba, 0xbb, 0xab, 0x9c, 0xab, 0xc9, 0x9a, 0xaa,
    0x8b, 0x8a, 0x99, 0xc8, 0x98, 0x88, 0xb7, 0x7a, 0x9a, 0xa9,
    0x99, 0x8a, 0xaa, 0x9b, 0x79, 0x98, 0x89, 0x98, 0xa8, 0xd7,
    0x88, 0xb7, 0xa8, 0xb7, 0x69, 0xba, 0x8a, 0x68, 0xd9, 0x98,
    0x8a, 0x89, 0x9c, 0xbb, 0x99, 0xc9, 0x89, 0x7a, 0xb9, 0xbb,
    0x9a, 0xb8, 0x9b, 0x9b, 0xbc, 0x7c, 0x8b, 0x9a, 0x7a, 0xab,
    0x9a, 0xdb, 0xb9, 0x7a, 0xba, 0xaa, 0xb9, 0x97, 0x89, 0xbc,
    0x9b, 0x7a, 0x9a, 0xaa, 0x99, 0xa9, 0x88, 0xaa, 0xb9, 0x69,
    0xb9, 0xaa, 0xb9, 0xb5, 0x88, 0xbc, 0x8b, 0x6a, 0xa8, 0xb8,
    0x88, 0xca, 0x89, 0x8a, 0xe9, 0x49, 0xa9, 0xba, 0xaa, 0x94,
    0x89, 0xab, 0x9a, 0x59, 0xa8, 0x99, 0x88, 0xc9, 0xa9, 0x8a,
    0xea, 0x6b, 0x99, 0xba, 0x98, 0xb5, 0xa7, 0xbb, 0x89, 0x7a,
    0xb6, 0xa9, 0xc9, 0xc9, 0x99, 0x9a, 0xb9, 0x69, 0xa9, 0xba,
    0xb9, 0xa6, 0xb7, 0xbb, 0x8a, 0x7b, 0xc7, 0x9a, 0x98, 0xab,
    0xb8, 0xba, 0xb9, 0x69, 0xa8, 0xa9, 0xb9, 0xa6, 0x97, 0xaa,
    0x8a, 0x7a, 0x98, 0x99, 0x87, 0x68, 0x97, 0xa8, 0xa8, 0x78,
    0xa9, 0x78, 0x97, 0x97, 0x87, 0x99, 0x99, 0x78, 0x67, 0x97,
    0x69, 0x99, 0x77, 0xb8, 0xa8, 0x98, 0x67, 0xa8, 0x68, 0x77,
    0x69, 0x67, 0x66, 0x88, 0x89, 0x88, 0x9a, 0x89, 0xa9, 0xb9,
    0x9a, 0xb9, 0x99, 0x9a, 0x99, 0x99, 0x99, 0xaa, 0x9a, 0x9a,
    0x99, 0xaa, 0x87, 0x99, 0x89, 0xa9, 0xb9, 0x89, 0x8a, 0x89,
    0x8a, 0x88, 0x8a, 0x99, 0x98, 0x79, 0xaa, 0x98, 0x88, 0x98,
    0x89, 0xa8, 0xa8, 0x79, 0xa8, 0xa7, 0xb8, 0xb8, 0xa8, 0xbb,
    0xba, 0x7a, 0x89, 0xa8, 0xab, 0xab, 0xaa, 0xb9, 0xba, 0x8a,
    0xa9, 0xaa, 0x8a, 0xb8, 0xaa, 0x89, 0xb9, 0x7b, 0x9b, 0x9a,
    0xa7, 0x87, 0x99, 0xb8, 0x99, 0x99, 0x9a, 0x89, 0x68, 0x99,
    0x99, 0x65, 0xb9, 0x89, 0x88, 0x98, 0x9c, 0x8b, 0xb8, 0xca,
    0x89, 0x8a, 0x7a, 0x89, 0x8b, 0x98, 0x9a, 0x88, 0xa8, 0x8b,
    0x8a, 0xa9, 0x8a, 0x9a, 0xa9, 0xda, 0x9a, 0x89, 0x8b, 0xa9,
    0x6b, 0x77, 0x89, 0x67, 0x87, 0x79, 0x9a, 0xa9, 0x7a, 0x9a,
    0x9a, 0xba, 0xdb, 0x79, 0xba, 0xbb, 0xab, 0xa7, 0x78, 0x9a,
    0x89, 0x6b, 0x9a, 0xaa, 0x79, 0xaa, 0xaa, 0xbc, 0xda, 0x5a,
    0x9a, 0x9b, 0x99, 0x95, 0x78, 0xab, 0x99, 0x4a, 0x98, 0xbb,
    0x89, 0x89, 0x9a, 0x8b, 0xea, 0x5b, 0x9b, 0x7c, 0xb9, 0xa6,
    0x86, 0xaa, 0x8a, 0x5b, 0x86, 0xbb, 0xa8, 0xa9, 0xb9, 0x9a,
    0xba, 0x9a, 0x9b, 0xba, 0x99, 0x88, 0xa7, 0xaa, 0x69, 0x99,
    0xa7, 0x9a, 0x99, 0x99, 0xaa, 0xab, 0xaa, 0x7a, 0xaa, 0xaa,
    0xa8, 0xb8, 0x98, 0xbb, 0x8b, 0x8a, 0x88, 0x9a, 0x68, 0xb8,
    0x88, 0xb8, 0xb9, 0x69, 0x97, 0xba, 0xa7, 0xa6, 0x66, 0x9a,
    0x99, 0x79, 0x67, 0x98, 0x88, 0xa9, 0x66, 0xa9, 0xb8, 0x98,
    0x58, 0x98, 0x58, 0x76, 0x79, 0x65, 0x75, 0x69, 0x98, 0x88,
    0xaa, 0x8a, 0xaa, 0xaa, 0xba, 0xaa, 0xa9, 0x9a, 0xb9, 0xab,
    0xba, 0xaa, 0xaa, 0xaa, 0x99, 0xaa, 0x98, 0xab, 0x89, 0xba,
    0xb9, 0xba, 0x9b, 0x99, 0x8b, 0x89, 0x9a, 0x99, 0x99, 0x79,
    0x9b, 0x99, 0x98, 0xa8, 0x77, 0xb7, 0xa8, 0x98, 0xb8, 0x78,
    0xb7, 0xb8, 0x98, 0xbb, 0xca, 0x8a, 0x77, 0x96, 0x9a, 0xa9,
    0x87, 0xb7, 0xa9, 0xc9, 0x97, 0x97, 0x89, 0x9a, 0x8a, 0x89,
    0xc9, 0xa8, 0x8a, 0x79, 0x98, 0x77, 0x97, 0xb7, 0xb8, 0xb8,
    0x58, 0x87, 0x98, 0x6b, 0x88, 0xa7, 0x86, 0xc7, 0xa8, 0x88,
    0xb9, 0x99, 0xb8, 0xc9, 0x99, 0xa9, 0x49, 0x89, 0x79, 0x5a,
    0xa9, 0xb7, 0x55, 0x98, 0x8a, 0x78, 0x98, 0x9a, 0xba, 0xda,
    0xcb, 0x7a, 0x7a, 0x9a, 0x8b, 0x76, 0x88, 0x89, 0x56, 0x78,
    0xba, 0xa9, 0xaa, 0xbb, 0xaa, 0xeb, 0xeb, 0x7b, 0x9b, 0xbb,
    0xaa, 0xa7, 0x99, 0x9a, 0x98, 0x7a, 0xc9, 0xbb, 0x79, 0x9b,
    0x9a, 0xeb, 0xcb, 0x6b, 0xac, 0xac, 0xab, 0x95, 0x79, 0xab,
    0xb9, 0x4a, 0x8b, 0xbc, 0x7b, 0x7a, 0xaa, 0x9a, 0xdb, 0x7a,
    0xa9, 0x8b, 0xbb, 0xa6, 0x79, 0xa9, 0x8a, 0x6a, 0x9a, 0xab,
    0xab, 0xb9, 0xab, 0x9b, 0xba, 0x9a, 0x9a, 0xca, 0xa9, 0xa8,
    0xa9, 0xba, 0xb9, 0x89, 0xb9, 0xb9, 0x98, 0x97, 0xa9, 0xba,
    0xaa, 0xa9, 0xa9, 0x99, 0xa9, 0x9b, 0x99, 0xab, 0xaa, 0xa9,
    0x98, 0x89, 0x99, 0xb9, 0x78, 0xa8, 0xa8, 0x98, 0x98, 0xb9,
    0x9a, 0x89, 0x99, 0x9a, 0x99, 0x99, 0x89, 0x87, 0x99, 0xba,
    0x79, 0xb9, 0xaa, 0xb9, 0x99, 0xb9, 0xa9, 0x88, 0xab, 0x9a,
    0x99, 0x8a, 0x99, 0x99, 0x9a, 0x8a, 0xa9, 0xc9, 0xaa, 0xca,
    0xa9, 0x8a, 0xa9, 0xab, 0xaa, 0x9a, 0xaa, 0xaa, 0x99, 0xaa,
    0x98, 0xba, 0xaa, 0xbb, 0xba, 0xba, 0x8b, 0xa9, 0x8a, 0xaa,
    0xbb, 0x98, 0x98, 0x99, 0xcb, 0x98, 0xc9, 0x99, 0xb9, 0xa8,
    0xb8, 0x79, 0xba, 0xa8, 0xc9, 0xb8, 0xca, 0xcc, 0xcb, 0x8b,
    0xa7, 0x88, 0x98, 0x87, 0x88, 0xb9, 0xa8, 0x8a, 0x69, 0x78,
    0x97, 0x77, 0x98, 0x88, 0x88, 0x89, 0x97, 0x79, 0xa9, 0x99,
    0x9b, 0xb7, 0xa8, 0xa9, 0x79, 0x88, 0xb7, 0x69, 0xb8, 0xb9,
    0x98, 0xa7, 0xa8, 0x79, 0xa8, 0x98, 0x89, 0xc9, 0xb8, 0x99,
    0x5a, 0xa8, 0x98, 0x5a, 0xa8, 0xa8, 0x46, 0xa6, 0x88, 0x89,
    0xba, 0xab, 0xab, 0xaa, 0xca, 0x7b, 0x7b, 0xab, 0xbb, 0x67,
    0x99, 0xab, 0x37, 0x79, 0xba, 0x9a, 0x9b, 0xbb, 0xba, 0xfb,
    0xda, 0x6b, 0xbb, 0xba, 0xbb, 0xa5, 0x9a, 0xbb, 0xa9, 0x4b,
    0xbb, 0xbb, 0x68, 0xaa, 0x98, 0xca, 0xdb, 0x5b, 0xb9, 0xbb,
    0xbb, 0xb5, 0x79, 0xaa, 0xaa, 0x49, 0x89, 0xb9, 0x69, 0xb9,
    0x87, 0x89, 0xd9, 0x88, 0xa8, 0xc8, 0xa9, 0xa8, 0x6b, 0xab,
    0x8b, 0x8b, 0xaa, 0x97, 0x8b, 0xba, 0xb8, 0xaa, 0xba, 0xaa,
    0xaa, 0xca, 0xaa, 0xaa, 0x8b, 0x9a, 0x88, 0xaa, 0x9a, 0x9a,
    0x98, 0x98, 0xa9, 0xa9, 0xa9, 0xa9, 0x98, 0x89, 0x99, 0xa9,
    0x78, 0xab, 0x99, 0x89, 0x89, 0x9a, 0x87, 0xc8, 0x87, 0xc8,
    0xb8, 0xa8, 0xa7, 0xc8, 0x87, 0x88, 0x87, 0x89, 0x88, 0xa7,
    0xa7, 0x87, 0x89, 0xba, 0x97, 0xb9, 0xb9, 0xa9, 0x78, 0xb8,
    0x89, 0x8a, 0x9a, 0x88, 0x97, 0x99, 0xa9, 0x98, 0xaa, 0xaa,
    0xaa, 0xba, 0xaa, 0xca, 0xaa, 0xba, 0xaa, 0xab, 0xaa, 0xaa,
    0xaa, 0xaa, 0xca, 0xaa, 0xca, 0xca, 0xaa, 0xaa, 0xaa, 0xcb,
    0xaa, 0xca, 0xc9, 0xac, 0xda, 0xab, 0xbb, 0xca, 0xc9, 0xba,
    0x98, 0x77, 0x77, 0xa8, 0xa8, 0xb8, 0xb7, 0x87, 0xc6, 0x8b,
    0x99, 0xcc, 0xbc, 0xc9, 0x86, 0x87, 0x77, 0x87, 0xa8, 0xb7,
    0xb8, 0xb7, 0x87, 0x97, 0x98, 0x8b, 0x87, 0xba, 0x98, 0xb8,
    0x98, 0x67, 0xb9, 0x89, 0x9a, 0xc8, 0x99, 0x98, 0x79, 0x88,
    0x77, 0x8a, 0xca, 0xb8, 0xb6, 0xc8, 0x99, 0x89, 0xa7, 0xa9,
    0x89, 0x99, 0xc9, 0x8a, 0x6a, 0xa8, 0xc8, 0x58, 0x98, 0xdd,
    0x49, 0xa7, 0xb7, 0x88, 0x9b, 0xbc, 0xaa, 0x9b, 0xbb, 0x7a,
    0x8b, 0xbb, 0x9b, 0x76, 0xab, 0xbb, 0x47, 0x6b, 0xab, 0xba,
    0x8a, 0xbb, 0xa9, 0xbb, 0xca, 0x7a, 0xbb, 0xba, 0xba, 0xb7,
    0x7a, 0xcc, 0xab, 0x8b, 0xa9, 0xaa, 0x59, 0xb9, 0x88, 0x78,
    0xea, 0x6a, 0xb8, 0xca, 0xb8, 0xb6, 0x6a, 0xaa, 0x9a, 0x6a,
    0x6a, 0xb9, 0x88, 0xb9, 0x88, 0x98, 0xc8, 0x79, 0x99, 0xb8,
    0x99, 0x98, 0x79, 0x9a, 0x89, 0x88, 0x97, 0x98, 0x78, 0xa7,
    0x88, 0xa9, 0xb9, 0x99, 0x88, 0x99, 0x87, 0x98, 0x69, 0x99,
    0x88, 0x78, 0x98, 0x98, 0x87, 0x77, 0x68, 0xa7, 0xa8, 0x88,
    0x79, 0x88, 0x78, 0x7a, 0x89, 0x99, 0x88, 0xb7, 0x78, 0x79,
    0x8a, 0xa9, 0xaa, 0xb8, 0xa9, 0xb8, 0x78, 0xb9, 0x79, 0x8a,
    0x9a, 0x99, 0x97, 0xb9, 0xba, 0x8a, 0xa9, 0xaa, 0x89, 0xa9,
    0xa9, 0xb9, 0x69, 0xa9, 0xa8, 0x8b, 0xb9, 0xaa, 0xc7, 0xb9,
    0xa9, 0x99, 0xaa, 0xca, 0xaa, 0xba, 0xaa, 0xca, 0xaa, 0xca,
    0xaa, 0xad, 0xba, 0x9a, 0xaa, 0xba, 0xba, 0xab, 0x99, 0x88,
    0x77, 0xb9, 0xa9, 0xc8, 0xa8, 0x79, 0xc8, 0x9c, 0xa8, 0xbc,
    0x9b, 0xd9, 0x77, 0xa9, 0x79, 0x87, 0x99, 0xa8, 0x98, 0xa8,
    0x87, 0x88, 0x97, 0x78, 0x88, 0xa9, 0x77, 0x97, 0x79, 0x89,
    0x96, 0x76, 0x78, 0xa7, 0xb7, 0xb8, 0x59, 0x87, 0x86, 0x69,
    0xa7, 0xb7, 0x75, 0xb7, 0x97, 0x79, 0x89, 0x89, 0x8a, 0xb8,
    0x98, 0xa8, 0x68, 0x88, 0x77, 0x79, 0x99, 0xb8, 0x76, 0xb7,
    0xa8, 0x89, 0x88, 0xba, 0x89, 0xe9, 0xa8, 0x79, 0x8a, 0xb8,
    0x9a, 0x67, 0x89, 0xbc, 0x68, 0x87, 0xaa, 0x78, 0x7b, 0xbb,
    0x99, 0xda, 0xbb, 0x9a, 0x9a, 0xca, 0xab, 0x9a, 0x6b, 0xbb,
    0x68, 0x6b, 0x8c, 0xba, 0x7a, 0xbb, 0x8a, 0x9a, 0xca, 0x7b,
    0xaa, 0xbb, 0xba, 0xa9, 0x7b, 0xbb, 0x9a, 0xaa, 0xaa, 0xba,
    0x78, 0x98, 0x89, 0x78, 0xe8, 0x69, 0xa8, 0x98, 0xa8, 0xa6,
    0x78, 0xaa, 0x9a, 0x79, 0x97, 0x89, 0x78, 0xaa, 0x89, 0xaa,
    0xb8, 0x6a, 0x99, 0x9a, 0x88, 0x95, 0x98, 0x78, 0x99, 0x6a,
    0xa8, 0x9a, 0x98, 0x77, 0x99, 0xa9, 0x99, 0xa9, 0x89, 0x69,
    0x87, 0x99, 0x97, 0x88, 0x88, 0x89, 0x87, 0x79, 0x97, 0xa7,
    0x89, 0xb8, 0xb7, 0xb8, 0x89, 0x98, 0x77, 0x8b, 0x99, 0x76,
    0xa8, 0xb8, 0xaa, 0x9a, 0xab, 0xbb, 0xab, 0xaa, 0xba, 0xca,
    0xaa, 0xba, 0x8b, 0xaa, 0xac, 0x88, 0xaa, 0xbb, 0xbb, 0x9b,
    0xaa, 0xaa, 0x97, 0xba, 0xba, 0xba, 0xba, 0xba, 0x99, 0xbb,
    0xba, 0xaa, 0xba, 0xba, 0xaa, 0xa9, 0xaa, 0xaa, 0xa9, 0xba,
    0xba, 0xca, 0xa9, 0x9a, 0xaa, 0xab, 0xba, 0x9a, 0x9a, 0xaa,
    0xaa, 0xaa, 0x87, 0x67, 0x66, 0xb8, 0xb7, 0x97, 0x97, 0x68,
    0xb7, 0x88, 0x77, 0x9b, 0x9a, 0x88, 0x77, 0x97, 0x76, 0x87,
    0x77, 0xb6, 0xb8, 0x87, 0x67, 0x66, 0x87, 0x68, 0x67, 0xa9,
    0x97, 0xb7, 0x77, 0x66, 0x98, 0x97, 0x9a, 0xa8, 0xb8, 0x89,
    0x49, 0x78, 0x67, 0x68, 0xa7, 0xb7, 0x95, 0xb6, 0xa7, 0x79,
    0xb9, 0x89, 0x8b, 0xda, 0x9a, 0x89, 0x7b, 0x88, 0x68, 0x78,
    0xb8, 0x88, 0xb6, 0xa8, 0xa8, 0x89, 0x98, 0x9a, 0x8a, 0xfa,
    0x89, 0x89, 0x9a, 0x99, 0x78, 0x97, 0x89, 0xa9, 0xc7, 0x69,
    0x9a, 0x99, 0x89, 0xba, 0x98, 0xea, 0xca, 0x79, 0x8b, 0xba,
    0xaa, 0x87, 0x78, 0xbb, 0x97, 0x78, 0xaa, 0xa9, 0x89, 0x9a,
    0x9a, 0xaa, 0xab, 0x8a, 0xa9, 0xba, 0xaa, 0xb8, 0x89, 0xaa,
    0x99, 0x9b, 0x99, 0xaa, 0x88, 0x59, 0xa9, 0xa9, 0xc9, 0x68,
    0xb9, 0x6a, 0x8a, 0xb7, 0x87, 0x89, 0xa9, 0x6a, 0x97, 0xb8,
    0xab, 0x79, 0xb9, 0xb9, 0x9a, 0xb9, 0xa9, 0x8a, 0x8a, 0xbb,
    0x9b, 0x77, 0xba, 0x9c, 0xaa, 0xb9, 0xba, 0x68, 0x9a, 0xa8,
    0x9a, 0xb8, 0x9a, 0x79, 0x89, 0xab, 0x9a, 0x88, 0xc9, 0xba,
    0xa9, 0x8a, 0xba, 0xba, 0xb9, 0xb8, 0xb9, 0x99, 0xaa, 0xb8,
    0x8b, 0xb9, 0x9a, 0x88, 0xca, 0x9a, 0xca, 0x99, 0xca, 0xcb,
    0x9a, 0xb9, 0xbb, 0x9a, 0xa9, 0xcb, 0x9b, 0xa8, 0xbc, 0x99,
    0xb9, 0xaa, 0xaa, 0xab, 0xab, 0xca, 0x8b, 0xba, 0xba, 0xba,
    0xbb, 0xca, 0xc9, 0xb9, 0xab, 0xcc, 0xcc, 0xab, 0x89, 0xb8,
    0xaa, 0x89, 0xa9, 0xb9, 0xa9, 0xba, 0x99, 0x9a, 0xa9, 0xab,
    0xa9, 0x9a, 0xaa, 0xaa, 0x89, 0xa9, 0xaa, 0xb9, 0xcc, 0xb9,
    0xaa, 0x89, 0x99, 0xa8, 0xb9, 0xb8, 0xb8, 0xaa, 0xbb, 0x9a,
    0xab, 0x99, 0xc7, 0x97, 0xbb, 0xa8, 0xc7, 0xa9, 0xba, 0xa9,
    0xb7, 0xca, 0xc6, 0xca, 0xcb, 0xb8, 0xb6, 0x9b, 0xc9, 0x98,
    0x8a, 0xca, 0xa8, 0xcb, 0x9a, 0x99, 0xa7, 0x8b, 0xda, 0xd9,
    0xb6, 0xd8, 0xc9, 0x8a, 0xa8, 0x99, 0x8b, 0xda, 0xba, 0xb9,
    0x8a, 0x9a, 0x99, 0x8a, 0xab, 0xc9, 0xa6, 0xd8, 0xbb, 0x8b,
    0xb9, 0x9a, 0x7a, 0xea, 0xab, 0x8a, 0x8a, 0x98, 0xaa, 0x89,
    0xba, 0xcc, 0xa6, 0xa7, 0xd9, 0x9a, 0x89, 0xab, 0x8b, 0xea,
    0xbb, 0x8a, 0xab, 0x9a, 0x9a, 0x98, 0x8a, 0x9a, 0x98, 0x79,
    0xba, 0xaa, 0x7a, 0x89, 0xbb, 0xeb, 0xab, 0x8b, 0xaa, 0x7b,
    0x7c, 0xa8, 0x79, 0x78, 0xa7, 0x7a, 0x6a, 0xab, 0x7a, 0x6a,
    0xab, 0xdb, 0xbb, 0xca, 0xab, 0x8a, 0x9b, 0xab, 0x9a, 0x88,
    0xb9, 0x99, 0x7c, 0xbc, 0x9c, 0x6a, 0x9b, 0xc9, 0xc9, 0xca,
    0xca, 0x7b, 0xa9, 0xcb, 0xac, 0x88, 0xca, 0xbc, 0x9c, 0xbc,
    0xac, 0x6b, 0x9b, 0xd9, 0xba, 0xc9, 0xb9, 0x8b, 0x9a, 0xab,
    0xab, 0x99, 0xdb, 0xb9, 0x8c, 0xab, 0x9a, 0xbb, 0x9b, 0xb9,
    0xba, 0xa9, 0x99, 0xb9, 0xab, 0x9c, 0x9b, 0xaa, 0x9a, 0xa9,
    0x7c, 0x9a, 0x9c, 0xdc, 0x9b, 0xab, 0xab, 0xc9, 0xba, 0xda,
    0xab, 0xbb, 0x9b, 0xbb, 0xab, 0xba, 0xbb, 0xbb, 0xbb, 0xba,
    0xc9, 0xaa, 0xab, 0xca, 0xcb, 0xbb, 0xc9, 0xac, 0xba, 0xcb,
    0xbb, 0xcb, 0xba, 0xba, 0xaa, 0x89, 0x99, 0xb9, 0xa9, 0xba,
    0xa9, 0x8a, 0xa9, 0xaa, 0x99, 0x9a, 0x9a, 0x9a, 0x89, 0xaa,
    0xa9, 0xb9, 0xa9, 0xaa, 0x99, 0xc9, 0xab, 0xa9, 0xa9, 0x9b,
    0xba, 0x9b, 0x9a, 0xba, 0xa9, 0xa9, 0xbb, 0xaa, 0x9b, 0xba,
    0xaa, 0xca, 0xaa, 0xba, 0xca, 0x9b, 0xdc, 0xc9, 0x87, 0xca,
    0xab, 0x8b, 0x9a, 0x99, 0x9a, 0xa9, 0xba, 0xaa, 0x99, 0x99,
    0xd9, 0x8a, 0xa9, 0xdd, 0x7b, 0xaa, 0xa9, 0xab, 0xb8, 0xab,
    0x7a, 0xd9, 0xc9, 0xaa, 0xaa, 0xb9, 0xca, 0x8a, 0xab, 0xcc,
    0x79, 0x98, 0xca, 0x8a, 0x79, 0x9a, 0x79, 0xea, 0xba, 0x9a,
    0xba, 0xa9, 0xbb, 0x99, 0x7a, 0xbc, 0x7a, 0x8a, 0x8a, 0x99,
    0x6b, 0xab, 0x89, 0xf9, 0xca, 0x99, 0xb8, 0xab, 0xab, 0xb9,
    0x6b, 0x89, 0xb9, 0x8b, 0x7b, 0xaa, 0x5b, 0x9a, 0x89, 0xe9,
    0xda, 0xa9, 0xc8, 0xaa, 0xbb, 0xb9, 0x5c, 0xa9, 0xab, 0x8a,
    0x7c, 0xa9, 0x6a, 0xb8, 0x89, 0xd9, 0xc9, 0xa8, 0xc8, 0xca,
    0xaa, 0xca, 0x7b, 0x9a, 0xd9, 0x99, 0x7a, 0xb8, 0x9a, 0xdc,
    0x98, 0xb9, 0xca, 0xb8, 0xa9, 0xd9, 0xbc, 0xca, 0x8c, 0xba,
    0xba, 0x9c, 0x9c, 0x99, 0x7b, 0x9a, 0x9b, 0xb9, 0xab, 0xba,
    0xb9, 0xa9, 0xba, 0xb9, 0x8b, 0xaa, 0xbb, 0xac, 0x79, 0xab,
    0x98, 0xb8, 0x99, 0xb8, 0xa8, 0x98, 0xb8, 0xb9, 0xa9, 0x99,
    0x8a, 0x99, 0xc9, 0xa8, 0x89, 0x89, 0x8b, 0xca, 0x98, 0xa9,
    0xaa, 0xb8, 0x78, 0xd9, 0x8a, 0x7b, 0x8c, 0xa8, 0x78, 0xaa,
    0xab, 0x88, 0xcb, 0xba, 0xac, 0xaa, 0xba, 0xcb, 0xba, 0xab,
    0xca, 0xac, 0xcc, 0xcb, 0xbc, 0xca, 0xcb, 0xab, 0xaa, 0x9a,
    0xaa, 0xaa, 0xaa, 0xca, 0xaa, 0xaa, 0xaa, 0xab, 0xaa, 0x9a,
    0xaa, 0xaa, 0xaa, 0xaa, 0x89, 0x69, 0x88, 0xb9, 0xb9, 0x89,
    0x98, 0x69, 0x98, 0x97, 0x88, 0x9a, 0xa9, 0x89, 0x88, 0xa9,
    0x98, 0x88, 0x87, 0xc8, 0xa8, 0x97, 0xa8, 0x88, 0x78, 0x99,
    0x79, 0x78, 0x98, 0x99, 0x98, 0x97, 0x99, 0xa9, 0xa7, 0xa8,
    0xb8, 0x98, 0xb8, 0xb8, 0xa9, 0xb9, 0xa9, 0xbc, 0x8c, 0x9b,
    0xa8, 0x87, 0xaa, 0x99, 0x89, 0xca, 0xba, 0x99, 0xb8, 0x99,
    0xaa, 0xca, 0x9a, 0xaa, 0xbb, 0x9c, 0x99, 0xa9, 0x98, 0xa8,
    0x88, 0xb7, 0xc9, 0xa7, 0xc9, 0xa8, 0xa9, 0xb9, 0x99, 0xab,
    0xba, 0x97, 0xa9, 0x88, 0x89, 0x89, 0xba, 0xc8, 0xa9, 0x99,
    0x99, 0x99, 0x8b, 0xa9, 0x89, 0x89, 0xc9, 0xa9, 0x89, 0x89,
    0xb8, 0xa8, 0x97, 0xc7, 0xb7, 0x97, 0xa6, 0xa8, 0xa9, 0xa9,
    0x89, 0xaa, 0xcb, 0x9a, 0xa8, 0xa7, 0x89, 0xc9, 0x97, 0xa7,
    0xa8, 0x98, 0x89, 0xb8, 0x8a, 0x99, 0x88, 0x89, 0x99, 0x98,
    0xaa, 0x88, 0xb9, 0xda, 0xad, 0xa9, 0xa9, 0xaa, 0xbc, 0xd9,
    0x98, 0xc9, 0xca, 0xaa, 0xba, 0xaa, 0xb9, 0x9a, 0xaa, 0x9a,
    0xba, 0xb9, 0xaa, 0xba, 0xba, 0x99, 0xab, 0xaa, 0xba, 0xaa,
    0xbb, 0xba, 0xb9, 0x9a, 0x88, 0x78, 0xaa, 0xa9, 0xa9, 0x88,
    0x9a, 0x79, 0xaa, 0x88, 0xa8, 0xaa, 0xa9, 0x99, 0x88, 0x99,
    0x88, 0xa9, 0x77, 0xb9, 0xa8, 0x98, 0x79, 0xa8, 0x68, 0x79,
    0x88, 0x76, 0x86, 0x88, 0xa9, 0x98, 0xba, 0xaa, 0xba, 0xba,
    0xaa, 0xca, 0x9a, 0xba, 0xba, 0x9c, 0xbb, 0xab, 0x9b, 0xbb,
    0xaa, 0xaa, 0xaa, 0x9a, 0xaa, 0xba, 0xaa, 0xba, 0x9a, 0xaa,
    0xaa, 0xab, 0xaa, 0xaa, 0x9a, 0x9a, 0xaa, 0xaa, 0x99, 0x79,
    0xa9, 0xb9, 0xaa, 0xaa, 0xa9, 0x79, 0xa9, 0xa8, 0xa9, 0xa9,
    0x9a, 0x8a, 0x99, 0xaa, 0x88, 0x78, 0x89, 0xb9, 0xa9, 0x79,
    0x98, 0x79, 0x77, 0x96, 0x97, 0x88, 0xa7, 0x79, 0x88, 0x99,
    0x87, 0x98, 0x88, 0xb9, 0xa8, 0x98, 0x88, 0x98, 0x77, 0x89,
    0x88, 0x78, 0x97, 0x98, 0x86, 0x98, 0x6a, 0x78, 0x97, 0xc8,
    0xa9, 0x98, 0xa7, 0x99, 0x9a, 0xa8, 0x7a, 0xba, 0xaa, 0x98,
    0x7a, 0x87, 0x87, 0x87, 0x86, 0xb8, 0xa8, 0x77, 0x76, 0x88,
    0x67, 0x77, 0x66, 0x78, 0x97, 0x78, 0x87, 0x86, 0x66, 0x8a,
    0x85, 0xb8, 0xb8, 0xa7, 0x55, 0x98, 0x8a, 0x58, 0x5b, 0x97,
    0xa6, 0xb7, 0x7b, 0x85, 0xab, 0x67, 0xa6, 0xa8, 0xc9, 0x88,
    0x79, 0x89, 0x8c, 0x78, 0x88, 0x9a, 0x79, 0x89, 0x8b, 0x79,
    0x85, 0x47, 0x78, 0xa8, 0xa7, 0x67, 0x97, 0x48, 0x75, 0xa5,
    0x94, 0x88, 0xa8, 0x77, 0x85, 0x89, 0x96, 0x68, 0x58, 0xa9,
    0xc8, 0x68, 0x69, 0x68, 0x46, 0x74, 0x94, 0x55, 0x94, 0x48,
    0x96, 0x87, 0x98, 0x89, 0x79, 0xa9, 0xa9, 0x99, 0x9a, 0x89,
    0x68, 0x87, 0xa7, 0x77, 0xa7, 0x69, 0x98, 0x98, 0x99, 0x8a,
    0x99, 0xaa, 0xa9, 0xaa, 0x9a, 0x89, 0x89, 0x99, 0xb8, 0x89,
    0x98, 0x9a, 0x99, 0xaa, 0xaa, 0xaa, 0x9a, 0xaa, 0xaa, 0xaa,
    0xaa, 0xaa, 0x8a, 0xa9, 0xaa, 0x89, 0x99, 0x8a, 0xaa, 0xaa,
    0xaa, 0x9a, 0xaa, 0xaa, 0xaa, 0xba, 0x9a, 0xaa, 0xaa, 0xac,
    0xaa, 0x9a, 0x9a, 0xaa, 0xaa, 0xaa, 0xaa, 0xaa, 0x99, 0xaa,
    0xba, 0x89, 0xa9, 0xaa, 0x9a, 0xa8, 0xaa, 0x9a, 0xa9, 0xaa,
    0xa9, 0xa9, 0xa9, 0xaa, 0x9a, 0xaa, 0xaa, 0x9a, 0x9a, 0xaa,
    0xa9, 0xa8, 0xaa, 0xaa, 0x9a, 0x9a, 0x9a, 0x99, 0x9a, 0xaa,
    0xa9, 0x9a, 0xba, 0x8a, 0xaa, 0xaa, 0x99, 0xa9, 0x9a, 0xaa,
    0x9a, 0x99, 0xaa, 0x9a, 0xaa, 0xb9, 0x99, 0xb9, 0xba, 0x8a,
    0xaa, 0xba, 0xa9, 0xa9, 0xaa, 0xa9, 0xaa, 0x89, 0xaa, 0x9a,
    0xca, 0xda, 0xbb, 0x9a, 0xa9, 0x8a, 0xca, 0xda, 0x8a, 0xb8,
    0xaa, 0x9a, 0xca, 0x9b, 0xd9, 0xaa, 0xd9, 0xca, 0xba, 0xaa,
    0xaa, 0x8b, 0xca, 0xba, 0xda, 0xc8, 0xc9, 0xac, 0xdc, 0x8a,
    0xd9, 0xa8, 0xca, 0x9a, 0xca, 0xaa, 0xa9, 0x89, 0xb9, 0x8a,
    0xba, 0xc9, 0xba, 0xab, 0xca, 0x99, 0xba, 0xaa, 0x9b, 0xaa,
    0xcb, 0x9a, 0x9a, 0xaa, 0xab, 0xba, 0x9a, 0x99, 0xab, 0x98,
    0x9a, 0x98, 0x9c, 0x9c, 0xbd, 0xbb, 0xad, 0xba, 0xaa, 0x8c,
    0xbb, 0x9b, 0xcb, 0xc8, 0xcd, 0xbb, 0xac, 0x8b, 0xac, 0xbd,
    0xa8, 0x78, 0x88, 0xaa, 0xa9, 0x89, 0x9a, 0x7a, 0xaa, 0x88,
    0xa9, 0xcb, 0x9b, 0x98, 0x89, 0x99, 0x79, 0x99, 0x99, 0xa8,
    0xaa, 0x89, 0x79, 0x89, 0x79, 0x98, 0x79, 0x88, 0x77, 0x99,
    0x89, 0x98, 0x9a, 0xba, 0xaa, 0xb9, 0xaa, 0x99, 0x89, 0xc9,
    0x89, 0x88, 0x9a, 0xa9, 0xa8, 0x9b, 0xba, 0x99, 0xca, 0xb9,
    0xba, 0xaa, 0xaa, 0x8a, 0xca, 0xaa, 0xca, 0xb8, 0xca, 0x9a,
    0xcb, 0x9a, 0xca, 0xaa, 0xba, 0xa9, 0xaa, 0xba, 0xaa, 0x8a,
    0xaa, 0xaa, 0xba, 0xa8, 0xba, 0x9a, 0xab, 0x8a, 0xaa, 0xa9,
    0xaa, 0xaa, 0xaa, 0xaa, 0xaa, 0x8a, 0xaa, 0x9a, 0xaa, 0xa8,
    0xaa, 0x9a, 0xba, 0x89, 0x9a, 0x9a, 0x99, 0x99, 0x99, 0x9a,
    0xaa, 0x89, 0x9a, 0x8a, 0x99, 0xa9, 0x99, 0x99, 0x99, 0x99,
    0x89, 0x9a, 0x89, 0xa9, 0x89, 0xa9, 0xa9, 0x98, 0x89, 0xb9,
    0x89, 0x88, 0x88, 0x99, 0x88, 0x8a, 0xa8, 0x89, 0x98, 0xa9,
    0xa8, 0x99, 0x9a, 0xa9, 0xb9, 0xa9, 0x89, 0xba, 0x98, 0xaa,
    0xbb, 0x9b, 0xb9, 0x99, 0xab, 0xcb, 0xcb, 0xab, 0xab, 0xcb,
    0x9b, 0xbb, 0x7c, 0xbc, 0xac, 0x88, 0xa9, 0xbb, 0xbc, 0xac,
    0x9b, 0xcb, 0xba, 0xab, 0xab, 0xcb, 0xca, 0xbb, 0xac, 0xba,
    0xab, 0x7a, 0xbc, 0x9a, 0xab, 0xca, 0xba, 0xa9, 0xbb, 0xba,
    0x9b, 0xea, 0xaa, 0xaa, 0xb9, 0xae, 0xba, 0xab, 0xbb, 0xca,
    0xaa, 0xbb, 0xac, 0xaa, 0xbc, 0xa9, 0x9b, 0xea, 0xba, 0x9b,
    0x8a, 0xbe, 0xbb, 0x77, 0xa9, 0xdb, 0xbb, 0xac, 0xac, 0x8b,
    0x9c, 0xaa, 0x89, 0xba, 0xba, 0x9b, 0x8a, 0xbc, 0xbd, 0x88,
    0xaa, 0xbb, 0xad, 0xcc, 0xa8, 0x59, 0x99, 0xb9, 0x88, 0x79,
    0xa9, 0x6b, 0x88, 0xb7, 0x99, 0x88, 0xba, 0x7a, 0xa8, 0xa9,
    0x99, 0x69, 0x98, 0xa8, 0xa9, 0x88, 0x89, 0x69, 0x89, 0x77,
    0x98, 0x77, 0x97, 0x88, 0x98, 0x88, 0x9a, 0x8a, 0x8b, 0xab,
    0x99, 0x8b, 0x9b, 0x99, 0x9a, 0xa8, 0xab, 0xa9, 0x89, 0x88,
    0x9b, 0xab, 0x8b, 0xca, 0x8b, 0xa9, 0x9a, 0x8a, 0x9a, 0xba,
    0x8a, 0xa8, 0x8b, 0xba, 0x9b, 0xaa, 0x8b, 0xba, 0x9a, 0x9a,
    0xaa, 0xaa, 0xaa, 0x8a, 0xaa, 0xaa, 0xaa, 0xb8, 0x9a, 0xa9,
    0xab, 0x9a, 0x9a, 0x9a, 0x9a, 0x9a, 0xa9, 0xaa, 0xba, 0x8a,
    0xa9, 0x8a, 0xa9, 0x98, 0xa9, 0x99, 0xaa, 0x99, 0x8a, 0x9a,
    0x9b, 0xab, 0xba, 0xaa, 0xaa, 0x8b, 0x8a, 0xba, 0x9b, 0x97,
    0x89, 0x9a, 0x99, 0x89, 0xbb, 0x99, 0xb8, 0x98, 0x99, 0xaa,
    0x99, 0x9a, 0xba, 0x99, 0x6a, 0x99, 0xa9, 0x88, 0xaa, 0x99,
    0xa8, 0x98, 0xab, 0x9a, 0xa9, 0x89, 0xba, 0xda, 0x8a, 0xaa,
    0x99, 0x9d, 0x99, 0xbb, 0x88, 0xda, 0x9a, 0x8a, 0xab, 0xa9,
    0xba, 0xaa, 0x9a, 0xda, 0xaa, 0x9b, 0x6a, 0xad, 0x9a, 0x86,
    0xaa, 0xdb, 0x9b, 0xa9, 0xbb, 0x9a, 0xca, 0xab, 0x9b, 0xca,
    0xaa, 0x9a, 0x6a, 0xbc, 0xa9, 0x75, 0x9b, 0xba, 0xa9, 0xaa,
    0xaa, 0x99, 0xa9, 0x9a, 0x8a, 0xca, 0xca, 0x8a, 0x99, 0xcb,
    0x99, 0x89, 0xac, 0xbb, 0x99, 0xba, 0x9a, 0x9a, 0xa9, 0xaa,
    0x89, 0xb9, 0xa9, 0xaa, 0x7b, 0xac, 0x9b, 0x66, 0xb9, 0xaa,
    0x9b, 0xa9, 0xac, 0x7b, 0xba, 0xaa, 0x89, 0xb9, 0xa9, 0x9a,
    0x9c, 0xaa, 0xac, 0x78, 0xa8, 0xab, 0x9c, 0xa9, 0x9b, 0x4a,
    0xc9, 0xa9, 0x8a, 0xc9, 0xa9, 0x6a, 0x9b, 0xac, 0xac, 0x89,
    0xa9, 0xa9, 0x9c, 0xaa, 0xaa, 0x49, 0x9c, 0xba, 0x89, 0xaa,
    0xaa, 0x6a, 0x88, 0xba, 0xab, 0x98, 0xa9, 0x6a, 0x9b, 0xab,
    0xc9, 0x68, 0x9a, 0xaa, 0x99, 0x69, 0xaa, 0x79, 0xa8, 0xb5,
    0xab, 0x9a, 0xb9, 0x5b, 0xac, 0xab, 0xaa, 0xba, 0x89, 0xaa,
    0x99, 0x89, 0xaa, 0xb9, 0x98, 0x97, 0x9b, 0x8a, 0xa9, 0x79,
    0x9a, 0x88, 0xba, 0xa9, 0x8a, 0xa9, 0xb9, 0x9a, 0xba, 0x9a,
    0xa9, 0x98, 0xba, 0xbb, 0xba, 0x89, 0xaa, 0xaa, 0x89, 0x89,
    0x99, 0xa9, 0xb9, 0x8a, 0xa9, 0x99, 0x99, 0xa7, 0x89, 0xaa,
    0x9a, 0x8a, 0x99, 0x99, 0xaa, 0xcb, 0xba, 0xaa, 0xba, 0xba,
    0x9a, 0xaa, 0xab, 0x9a, 0x9c, 0xaa, 0x89, 0xb9, 0xab, 0x9a,
    0xb9, 0x88, 0xaa, 0xaa, 0x9a, 0x9b, 0x9a, 0x8a, 0x98, 0xba,
    0xa8, 0xb8, 0x88, 0x9a, 0xb7, 0xba, 0xa8, 0xa8, 0xaa, 0xaa,
    0xb9, 0xca, 0x8b, 0x99, 0xb9, 0x8c, 0x99, 0xb9, 0x98, 0xc8,
    0xa8, 0x99, 0x99, 0x9b, 0x9b, 0x9a, 0x9b, 0xaa, 0x6b, 0x8a,
    0x8a, 0x8b, 0x98, 0x97, 0x87, 0xb9, 0xa9, 0x9a, 0xab, 0xbb,
    0xba, 0x9a, 0xbb, 0xba, 0x9a, 0xaa, 0x9a, 0x9b, 0x9a, 0x99,
    0x99, 0xc9, 0x99, 0xba, 0xab, 0x9b, 0xa9, 0xaa, 0xbb, 0xba,
    0x8a, 0xaa, 0x9b, 0x9b, 0xba, 0x89, 0x99, 0xaa, 0xaa, 0xaa,
    0xab, 0xaa, 0x9a, 0xca, 0x8a, 0xbb, 0xaa, 0xab, 0x9a, 0xbb,
    0xbb, 0x8a, 0xb9, 0xab, 0x9b, 0xa9, 0xab, 0xaa, 0x99, 0xba,
    0x7a, 0xb9, 0xba, 0xab, 0x9a, 0xbb, 0xaa, 0x79, 0xba, 0x9c,
    0x7b, 0xbb, 0x8b, 0x9b, 0xa9, 0xb9, 0x79, 0xb9, 0xb9, 0xab,
    0x9b, 0xab, 0xac, 0x8a, 0xaa, 0x8a, 0x8b, 0xa9, 0x8a, 0x9a,
    0xaa, 0xaa, 0x8a, 0x79, 0xaa, 0xa9, 0x9b, 0xa6, 0x7b, 0x89,
    0xa9, 0x49, 0x8c, 0x9a, 0x89, 0xaa, 0x99, 0xaa, 0xaa, 0x5a,
    0xb9, 0xaa, 0xbb, 0xb4, 0x8b, 0xba, 0xab, 0x4b, 0x8b, 0xa9,
    0x77, 0xca, 0x97, 0x98, 0xaa, 0x6a, 0x86, 0xba, 0x88, 0x95,
    0x88, 0x89, 0x89, 0x6a, 0x87, 0x98, 0xa9, 0xa9, 0x8a, 0xa9,
    0xa9, 0xb8, 0x9a, 0xa9, 0x99, 0x6a, 0x99, 0xbb, 0xaa, 0xb8,
    0x8a, 0x99, 0x99, 0x89, 0x99, 0xa9, 0xb9, 0x89, 0xa9, 0x8a,
    0x8a, 0xa8, 0x79, 0xa9, 0x99, 0x89, 0x7a, 0xa9, 0xba, 0xab,
    0x99, 0xab, 0xaa, 0xab, 0xbb, 0x9a, 0x99, 0x9a, 0xbb, 0x78,
    0x99, 0x9a, 0x9a, 0xa9, 0x89, 0x99, 0x9a, 0xa9, 0xaa, 0xa9,
    0xa8, 0x89, 0xc8, 0x9a, 0x8a, 0xcb, 0x9b, 0xb8, 0x9a, 0x99,
    0x97, 0x89, 0x89, 0x99, 0xa8, 0xa8, 0x69, 0x88, 0xa8, 0x6b,
    0x98, 0xca, 0x87, 0xc8, 0xa7, 0x87, 0x98, 0x9a, 0x89, 0x9a,
    0xa9, 0xb9, 0x79, 0xa8, 0x8a, 0x7b, 0x8a, 0x99, 0x77, 0xc8,
    0x99, 0x99, 0xa9, 0xa9, 0x9b, 0xa9, 0x9a, 0xab, 0xa9, 0x9a,
    0x9a, 0x9b, 0xab, 0xaa, 0x99, 0xb9, 0x9a, 0xba, 0x9a, 0xa9,
    0xb9, 0xb9, 0x89, 0xb9, 0x9a, 0x99, 0xaa, 0x9b, 0x8a, 0xab,
    0x9b, 0xb9, 0x99, 0x89, 0x89, 0xaa, 0x99, 0xe9, 0x89, 0xb8,
    0xa8, 0xa9, 0x9b, 0xaa, 0x7b, 0x9a, 0xbb, 0xaa, 0x8a, 0xa9,
    0x8b, 0xba, 0xa8, 0xd9, 0xca, 0xa9, 0xa8, 0xc9, 0xaa, 0xb9,
    0x7b, 0x9a, 0xa9, 0x9a, 0x7a, 0xa8, 0x8a, 0xb9, 0x98, 0xb8,
    0xd8, 0x89, 0xa8, 0xb9, 0xba, 0xa9, 0x8b, 0x9a, 0xaa, 0x8a,
    0x8b, 0x99, 0x8a, 0xcb, 0xa9, 0x98, 0xc9, 0x78, 0xa9, 0xca,
    0xa9, 0xa7, 0x9a, 0xba, 0x9a, 0x5a, 0x9b, 0x89, 0xaa, 0xb8,
    0xb9, 0x99, 0xca, 0x6a, 0x99, 0xc9, 0xaa, 0xa6, 0xa8, 0x9a,
    0x9a, 0x6b, 0xa9, 0xaa, 0xb6, 0xa8, 0x96, 0xa8, 0x98, 0xa8,
    0x98, 0xa8, 0x97, 0x77, 0xa6, 0xa9, 0xaa, 0x97, 0x86, 0x77,
    0x68, 0xb9, 0x85, 0x98, 0xb8, 0x88, 0x46, 0xa9, 0x58, 0x59,
    0x69, 0x87, 0x65, 0x98, 0x89, 0x87, 0x99, 0x69, 0x98, 0xa9,
    0xa9, 0x7a, 0xa8, 0x6a, 0x99, 0xa7, 0x87, 0x9a, 0xa9, 0x7a,
    0x78, 0xa9, 0xaa, 0x89, 0x9a, 0xa9, 0xaa, 0x99, 0x88, 0x9a,
    0x99, 0x8a, 0x9a, 0xb7, 0x78, 0x9b, 0x98, 0x99, 0xb8, 0x99,
    0x9b, 0xa8, 0xa9, 0xb9, 0x7a, 0x97, 0x78, 0x7b, 0xc8, 0x98,
    0xb7, 0xb7, 0x98, 0x9a, 0x98, 0x77, 0x89, 0xb9, 0x98, 0xb9,
    0x79, 0x78, 0x97, 0x6c, 0xa8, 0xc9, 0x86, 0xc8, 0x97, 0x8a,
    0x98, 0x78, 0x69, 0xc8, 0x88, 0xb8, 0x88, 0x77, 0x78, 0x7a,
    0x89, 0x98, 0x86, 0xc7, 0x89, 0x79, 0x7a, 0x79, 0x87, 0xba,
    0x8a, 0xb9, 0x87, 0x88, 0x79, 0x8b, 0x6a, 0x87, 0x77, 0xc9,
    0x7a, 0x89, 0x78, 0x87, 0x87, 0xd9, 0x89, 0xb8, 0x98, 0x89,
    0x88, 0x8b, 0x79, 0xa9, 0xa9, 0xc7, 0x89, 0x98, 0x79, 0xa8,
    0x88, 0xd8, 0xa9, 0xb8, 0x98, 0xb8, 0xa9, 0x8a, 0x78, 0xba,
    0x89, 0xa8, 0x99, 0x88, 0x8a, 0xa9, 0x88, 0xb8, 0xb8, 0xa8,
    0xa8, 0xa8, 0xaa, 0x9a, 0x8a, 0xab, 0x9a, 0xa9, 0x8a, 0x98,
    0x8a, 0xc9, 0x99, 0xb7, 0xb8, 0x88, 0xa8, 0xc8, 0xaa, 0xb8,
    0x9b, 0xba, 0xba, 0x6a, 0x9b, 0x99, 0xaa, 0xd9, 0x88, 0xa8,
    0xc8, 0x89, 0xa9, 0xd9, 0xa9, 0x97, 0xaa, 0xab, 0x9b, 0x7a,
    0xaa, 0x98, 0x98, 0xd8, 0xb7, 0x98, 0xc9, 0x98, 0x98, 0xc9,
    0xa8, 0x99, 0x99, 0xba, 0x89, 0x99, 0xa9, 0x88, 0x87, 0xd8,
    0x88, 0xa8, 0xa8, 0x78, 0x89, 0xc8, 0x97, 0x98, 0x98, 0xaa,
    0x99, 0x89, 0xa7, 0x88, 0xaa, 0xba, 0x88, 0xb9, 0xa9, 0x78,
    0x99, 0xa9, 0x99, 0x75, 0x9a, 0x99, 0x99, 0x6b, 0x89, 0x88,
    0x8a, 0x69, 0x99, 0x99, 0xb9, 0x79, 0x99, 0x6a, 0xa9, 0x96,
    0x98, 0xaa, 0xaa, 0x7a, 0x79, 0x99, 0xa8, 0x88, 0x89, 0xb9,
    0x99, 0xa8, 0x89, 0x88, 0x78, 0x89, 0xa8, 0x87, 0xa8, 0x98,
    0x89, 0x98, 0x87, 0x87, 0x88, 0xb7, 0x98, 0xb8, 0x77, 0x78,
    0x77, 0x8c, 0x78, 0x97, 0xb7, 0xd8, 0x87, 0x78, 0x96, 0x76,
    0x88, 0xb8, 0xc7, 0xc7, 0x58, 0x77, 0x86, 0x6c, 0x87, 0xa8,
    0xc6, 0xe6, 0xb7, 0x78, 0xc8, 0x68, 0x79, 0xc8, 0xa8, 0xb9,
    0x5a, 0x68, 0x77, 0x6c, 0xb8, 0x86, 0xb5, 0xd7, 0xc8, 0x6a,
    0xa6, 0x67, 0x7b, 0xb8, 0xa8, 0xb8, 0x79, 0x79, 0x88, 0x7c,
    0xb7, 0x96, 0xb6, 0xd7, 0xb7, 0x79, 0xb7, 0x77, 0x89, 0xd9,
    0xc8, 0xa9, 0x79, 0x78, 0x87, 0x7a, 0xc7, 0xa8, 0xb7, 0xd8,
    0xb7, 0x79, 0xa7, 0x98, 0x78, 0xd8, 0x99, 0x88, 0x99, 0x98,
    0xa7, 0x89, 0x88, 0xa9, 0xb9, 0x98, 0x97, 0x98, 0x98, 0xb8,
    0x88, 0xb8, 0xd8, 0x78, 0x98, 0xb8, 0x98, 0x87, 0x99, 0xaa,
    0x8a, 0x78, 0x98, 0x88, 0xa8, 0xc8, 0x87, 0x88, 0xc9, 0x79,
    0x99, 0xb8, 0x99, 0xa6, 0x99, 0xbb, 0x7a, 0x79, 0x88, 0x97,
    0x9a, 0xda, 0x99, 0x89, 0xd9, 0x79, 0xa9, 0xc9, 0xb8, 0x98,
    0xa8, 0xaa, 0x8a, 0x89, 0xc9, 0x99, 0xa6, 0xb6, 0x98, 0x98,
    0xc7, 0xba, 0xab, 0x78, 0x96, 0xab, 0xb7, 0xaa, 0x9a, 0xb9,
    0xb6, 0x98, 0xc9, 0xda, 0xaa, 0xa9, 0x98, 0xab, 0x8a, 0xb8,
    0xa9, 0x9c, 0xba, 0x98, 0x8a, 0xba, 0xc9, 0x98, 0xb8, 0xbb,
    0xb9, 0xab, 0xaa, 0x9a, 0xbb, 0xb9, 0xb9, 0xb9, 0xb7, 0xaa,
    0xca, 0x9a, 0xd8, 0x99, 0x99, 0xb9, 0xa9, 0xa9, 0xa9, 0x8a,
    0xa9, 0xb9, 0xaa, 0x98, 0x99, 0x9a, 0x99, 0x99, 0xba, 0x99,
    0xbb, 0x99, 0xbb, 0xa9, 0xa9, 0x7b, 0xa9, 0xaa, 0x88, 0xb8,
    0xbb, 0x99, 0xc9, 0xaa, 0xb9, 0x9a, 0xa8, 0x88, 0xaa, 0x99,
    0xb9, 0x8a, 0x7a, 0xaa, 0x88, 0x88, 0xa8, 0x98, 0x97, 0xb8,
    0xa9, 0x9a, 0xa8, 0x9a, 0x9b, 0x8b, 0xba, 0x9b, 0x6a, 0x9a,
    0x89, 0x78, 0xc9, 0xa7, 0x86, 0xc9, 0xc8, 0xaa, 0xb8, 0x78,
    0xab, 0x8b, 0xb9, 0x9a, 0x6b, 0x7a, 0x88, 0x6b, 0xc6, 0xa6,
    0x95, 0xb9, 0x96, 0xb9, 0xb8, 0x79, 0xab, 0x9b, 0xd9, 0x8a,
    0x7b, 0x79, 0xa9, 0x78, 0xc7, 0xa5, 0x86, 0xb9, 0xc8, 0x98,
    0xc8, 0x8a, 0xaa, 0xaa, 0xa9, 0xa9, 0xba, 0x7a, 0x99, 0x99,
    0xb8, 0x99, 0xa9, 0xba, 0xa8, 0x9a, 0xb8, 0x99, 0x99, 0xda,
    0xc9, 0x7b, 0x98, 0x9a, 0xba, 0x98, 0xa8, 0xbb, 0xaa, 0x99,
    0xc9, 0xa9, 0xb7, 0xa9, 0x89, 0x9a, 0xb9, 0x89, 0x99, 0x99,
    0xa7, 0x97, 0xb7, 0xba, 0x99, 0xa8, 0xb8, 0x99, 0xa9, 0xa9,
    0x99, 0x6a, 0xd9, 0x89, 0x8a, 0x98, 0xa8, 0x88, 0xa8, 0xba,
    0x88, 0x99, 0xd8, 0x88, 0xa7, 0x89, 0x89, 0x89, 0xca, 0x9a,
    0x99, 0x69, 0x98, 0x99, 0x98, 0xaa, 0x98, 0xa8, 0xa8, 0x98,
    0x97, 0x57, 0x99, 0x9a, 0xda, 0xd9, 0x8a, 0x58, 0x87, 0x7c,
    0x98, 0xa8, 0x98, 0xd8, 0xa9, 0x99, 0xb9, 0xc9, 0x9b, 0x9a,
    0x9a, 0xda, 0x8a, 0x89, 0x98, 0x9d, 0xa9, 0xa8, 0x98, 0xd9,
    0xc8, 0x8a, 0xcb, 0xbb, 0xcd, 0xab, 0x9b, 0xdb, 0xa8, 0xab,
    0xca, 0xac, 0xbb, 0xbb, 0xbb, 0xcb, 0xdc, 0xad, 0xb9, 0xaa,
    0xbb, 0x9a, 0xaa, 0xba, 0x9b, 0xb9, 0x9b, 0xab, 0xbb, 0x9a,
    0x9a, 0xaa, 0xbc, 0xaa, 0xcc, 0xab, 0xbb, 0xbb, 0xab, 0x8c,
    0xba, 0xab, 0xaa, 0xb9, 0xbb, 0xa9, 0x9b, 0x9c, 0xab, 0xbb,
    0xb9, 0xaa, 0xbb, 0x9b, 0xba, 0x8a, 0x8b, 0xba, 0xab, 0x98,
    0x8a, 0xba, 0x98, 0x8a, 0xcb, 0x9a, 0xbb, 0x9b, 0xab, 0x7b,
    0xbb, 0x9c, 0x8c, 0x9b, 0xbb, 0x88, 0xca, 0xb8, 0x87, 0xaa,
    0xba, 0xbb, 0xc9, 0x9a, 0xbb, 0x6b, 0xca, 0x8b, 0x8b, 0x9a,
    0xac, 0x98, 0xc9, 0xba, 0x89, 0x9a, 0xba, 0xbb, 0xbb, 0xab,
    0xbc, 0x6b, 0xdb, 0x8c, 0x9c, 0xac, 0xba, 0x98, 0xc9, 0xbc,
    0x79, 0x8b, 0xbb, 0xab, 0xb9, 0x8a, 0xab, 0x7c, 0xdb, 0x8b,
    0xab, 0x8a, 0xbb, 0xa8, 0xb8, 0xaa, 0x8b, 0x8a, 0xb8, 0xbb,
    0xa9, 0xa9, 0x9a, 0x8b, 0xca, 0xaa, 0xab, 0x99, 0xb9, 0xaa,
    0xc7, 0xbc, 0x8a, 0xb9, 0xb8, 0x9b, 0xa9, 0x9a, 0xb9, 0x79,
    0xca, 0x99, 0x99, 0x8a, 0xbb, 0xa8, 0xa7, 0x9a, 0x8a, 0xa9,
    0xa9, 0x89, 0xb7, 0x7a, 0xaa, 0x8a, 0xd9, 0xaa, 0x9a, 0x69,
    0x99, 0xaa, 0xb8, 0x98, 0x99, 0xba, 0xb8, 0xa9, 0xaa, 0x69,
    0xab, 0x9a, 0xba, 0xcb, 0x99, 0x7a, 0x8a, 0x9c, 0xba, 0x89,
    0xa8, 0xca, 0xb8, 0x9a, 0xc8, 0x57, 0x8b, 0xa9, 0x99, 0xe9,
    0x9a, 0x69, 0x98, 0x9d, 0xc9, 0x99, 0xa8, 0xe8, 0xb8, 0x99,
    0xc9, 0xa9, 0x9b, 0xaa, 0xa9, 0xda, 0x89, 0xa9, 0x9a, 0x8d,
    0xca, 0x98, 0x88, 0xd8, 0xcb, 0x99, 0xcb, 0xab, 0xcc, 0xab,
    0xab, 0xdc, 0xbc, 0x9b, 0xcc, 0x9d, 0xdd, 0xcb, 0xbc, 0xda,
    0xbb, 0xac, 0xb9, 0xca, 0x89, 0xaa, 0xaa, 0xaa, 0x9a, 0xaa,
    0x9a, 0xab, 0x8a, 0x99, 0x9a, 0xb9, 0xab, 0x99, 0xbc, 0xaa,
    0xcb, 0x9a, 0x9a, 0xca, 0xa8, 0xb9, 0xbb, 0x9b, 0xac, 0xab,
    0x9a, 0xca, 0xba, 0x9b, 0xbb, 0xaa, 0xaa, 0x8a, 0x9a, 0xbb,
    0x8b, 0xb9, 0xbb, 0x9b, 0xbb, 0xbb, 0x89, 0xaa, 0xab, 0xaa,
    0xac, 0xbb, 0xba, 0x6b, 0xbc, 0x8b, 0xab, 0xab, 0xcb, 0xb9,
    0xac, 0xbc, 0x7a, 0x8c, 0xac, 0xab, 0xaa, 0xbb, 0xba, 0x6b,
    0xc9, 0x8b, 0xab, 0xba, 0xcb, 0xb8, 0xba, 0xdb, 0x7b, 0x8b,
    0xaa, 0xaa, 0xaa, 0xbb, 0xca, 0x5b, 0xdb, 0x9c, 0xca, 0xbb,
    0xcb, 0xc9, 0xa9, 0xcb, 0x7c, 0xac, 0xa8, 0xca, 0xba, 0xa9,
    0xca, 0x5b, 0xbb, 0xbb, 0x9b, 0x9b, 0xb9, 0xab, 0xb8, 0xca,
    0x8b, 0xba, 0xb8, 0xaa, 0xb8, 0x88, 0xba, 0x7a, 0xb9, 0xab,
    0xab, 0x8a, 0xa8, 0x9a, 0xc8, 0xa9, 0x9a, 0xba, 0xb9, 0xaa,
    0xca, 0x99, 0x9c, 0xca, 0xaa, 0xbb, 0x9b, 0x8a, 0x99, 0xab,
    0xc9, 0x99, 0xb9, 0xba, 0xc9, 0x9a, 0xb8, 0x69, 0x9a, 0xbb,
    0x9a, 0xba, 0x99, 0x79, 0x9a, 0x9c, 0xba, 0x98, 0xb9, 0xba,
    0x9a, 0xab, 0xaa, 0x8a, 0x9a, 0xca, 0x99, 0xc9, 0xa9, 0x99,
    0x89, 0x9c, 0xab, 0x98, 0xb9, 0xca, 0xbc, 0x9a, 0xab, 0x78,
    0x9b, 0xb9, 0x89, 0xca, 0x9a, 0x9a, 0x99, 0x9c, 0xba, 0x98,
    0xb9, 0xc9, 0xaa, 0xab, 0xbb, 0x8a, 0x9c, 0xab, 0x9b, 0xba,
    0x8b, 0x99, 0x8a, 0x9c, 0xbb, 0xa9, 0x89, 0xb8, 0xdb, 0x8a,
    0xba, 0x9b, 0xcc, 0xab, 0x9b, 0x9b, 0xcb, 0x9b, 0xbc, 0xbb,
    0xc9, 0xbb, 0xab, 0xba, 0xcc, 0xbc, 0xab, 0xbb, 0xcc, 0xaa,
    0xab, 0xaa, 0x9c, 0xca, 0xac, 0xa9, 0xbc, 0xa9, 0x9a, 0x8b,
    0xcc, 0x9b, 0xcb, 0xab, 0xbc, 0xab, 0xbc, 0xac, 0x8c, 0x9c,
    0x7b, 0xaa, 0xcb, 0x88, 0xa8, 0xbb, 0xbb, 0xcc, 0xaa, 0xaa,
    0xaa, 0xab, 0xba, 0xab, 0x8b, 0xaa, 0xda, 0x9a, 0x9b, 0xec,
    0x69, 0x9a, 0xaa, 0xaa, 0x9b, 0xbb, 0xb9, 0x8b, 0x8b, 0x89,
    0x9b, 0xba, 0xdb, 0x98, 0x9a, 0xcc, 0x5a, 0x8b, 0x9a, 0xaa,
    0x8c, 0xbb, 0xaa, 0x6b, 0xaa, 0x8b, 0xab, 0xca, 0xcc, 0x98,
    0x8b, 0xbc, 0x7b, 0x8b, 0x8b, 0xba, 0x7b, 0xab, 0xba, 0x7b,
    0xbb, 0xac, 0x9c, 0xac, 0xbb, 0x99, 0x9a, 0xa9, 0x79, 0x9b,
    0x79, 0xbb, 0x9a, 0x8b, 0xba, 0x9b, 0x9b, 0x9b, 0x8b, 0x8b,
    0xab, 0x9b, 0x99, 0xa8, 0x88, 0xab, 0xaa, 0xba, 0xaa, 0x89,
    0xca, 0x9a, 0x9b, 0xba, 0xaa, 0x8b, 0x99, 0xab, 0xa9, 0x98,
    0x99, 0xba, 0xba, 0xba, 0xcb, 0x9b, 0xbb, 0xba, 0x6a, 0xca,
    0xa9, 0xab, 0x9b, 0xbd, 0xcc, 0x9a, 0xca, 0xca, 0xab, 0x9a,
    0xbb, 0x8a, 0xbc, 0xda, 0x5b, 0xca, 0xab, 0x9b, 0x9b, 0xbc,
    0xbb, 0x88, 0xd9, 0xcb, 0x9c, 0xbc, 0xaa, 0x9a, 0xac, 0xc9,
    0x6a, 0xca, 0xb9, 0xba, 0x89, 0xcc, 0xbb, 0x99, 0xdb, 0xc9,
    0xab, 0xac, 0xcc, 0x98, 0xab, 0xc8, 0x89, 0xd8, 0xaa, 0xb9,
    0x8a, 0x9c, 0xbc, 0x89, 0xd9, 0xd9, 0xdb, 0x9a, 0xea, 0x89,
    0x9c, 0xcb, 0x99, 0xab, 0x9a, 0x89, 0x9b, 0x8b, 0xda, 0x88,
    0xba, 0xa9, 0xdc, 0xaa, 0x9b, 0x9a, 0xac, 0xaa, 0xaa, 0xba,
    0xa9, 0x9a, 0xbc, 0xab, 0xbb, 0xa9, 0xaa, 0xaa, 0x9b, 0xab,
    0xca, 0xcb, 0xbb, 0xab, 0xaa, 0xca, 0x9c, 0xca, 0xaa, 0xac,
    0xbc, 0x9a, 0x99, 0xca, 0xcb, 0xab, 0xaa, 0x99, 0x99, 0xaa,
    0x9a, 0xba, 0xa8, 0x9a, 0xca, 0x9c, 0x8b, 0xd9, 0x88, 0xb9,
    0x89, 0xba, 0x8a, 0xa9, 0x88, 0xb9, 0x9a, 0xb8, 0x9b, 0xb9,
    0xda, 0x8a, 0x9b, 0xdd, 0x8b, 0x99, 0x7b, 0x88, 0x8a, 0xbb,
    0x9a, 0xaa, 0x8b, 0x9a, 0x7a, 0xaa, 0xab, 0x89, 0x8b, 0xab,
    0x69, 0x99, 0x8a, 0xaa, 0x8b, 0xbc, 0xb8, 0xab, 0x7b, 0x99,
    0x79, 0xab, 0xab, 0x79, 0x8a, 0x9b, 0x69, 0x8b, 0x7a, 0xbb,
    0x7b, 0x9a, 0xb9, 0x9a, 0x9a, 0x9a, 0x7a, 0xab, 0x9a, 0xa9,
    0x7a, 0xa8, 0x68, 0x9b, 0x7a, 0xba, 0xaa, 0x8b, 0xb9, 0xab,
    0x8b, 0x9a, 0x6b, 0x8a, 0x89, 0x7a, 0x99, 0x97, 0x76, 0xaa,
    0x9a, 0xab, 0x9b, 0x7a, 0xca, 0xcb, 0x6c, 0xaa, 0xab, 0x8b,
    0x8a, 0xaa, 0x9a, 0x87, 0xa8, 0xab, 0x7b, 0xcb, 0xac, 0x99,
    0xba, 0xda, 0x5a, 0xbb, 0xa8, 0x9a, 0x8a, 0xcb, 0x9b, 0x77,
    0xda, 0xbb, 0x7b, 0xba, 0xac, 0xba, 0xc9, 0xd7, 0x6a, 0xc8,
    0xb8, 0xb9, 0x9a, 0xbc, 0xbb, 0xaa, 0xeb, 0xca, 0x9c, 0x9a,
    0xad, 0xba, 0xb9, 0xc8, 0x69, 0xb8, 0x98, 0xc9, 0x9c, 0x9c,
    0x9b, 0xa9, 0xdb, 0xaa, 0x8c, 0x99, 0xbb, 0xa9, 0x9b, 0xa8,
    0x89, 0xba, 0x8a, 0x99, 0x9b, 0x8b, 0xbc, 0x98, 0xc8, 0xa8,
    0xbc, 0xaa, 0xbb, 0xa9, 0xbb, 0xb9, 0xa9, 0xb9, 0x99, 0xba,
    0xab, 0x9c, 0xab, 0xbb, 0xaa, 0xba, 0xaa, 0xaa, 0x9a, 0xaa,
    0xa8, 0xba, 0xaa, 0x8a, 0x8a, 0x9a, 0x9a, 0x99, 0x98, 0x9a,
    0x88, 0x99, 0x8a, 0x99, 0xaa, 0xaa, 0xaa, 0xaa, 0xaa, 0x8a,
    0xaa, 0x8a, 0xaa, 0xa8, 0x9a, 0x9a, 0x9a, 0x8a, 0x99, 0x9a,
    0x88, 0x78, 0x77, 0xa9, 0xa8, 0x78, 0x97, 0x78, 0xa8, 0x98,
    0x78, 0x9a, 0xa9, 0x79, 0x78, 0x97, 0x76, 0x98, 0x76, 0xa7,
    0xa7, 0x76, 0x77, 0x87, 0x77, 0x89, 0x58, 0x87, 0xa7, 0x97,
    0x67, 0x85, 0x89, 0x8a, 0x78, 0xa9, 0x99, 0xa9, 0x58, 0x89,
    0x79, 0x5a, 0x78, 0x75, 0x84, 0xa8, 0x9a, 0x98, 0x6a, 0x99,
    0x98, 0xaa, 0x9a, 0xa8, 0x87, 0x9a, 0x89, 0x8a, 0x69, 0x87,
    0x87, 0xb8, 0x69, 0x99, 0x89, 0x89, 0x99, 0xba, 0x9a, 0xba,
    0x5b, 0x99, 0x7b, 0x6a, 0x9b, 0x86, 0x86, 0xa7, 0x9a, 0xa9,
    0x8a, 0x7b, 0xab, 0xbb, 0x9b, 0xaa, 0x8a, 0x8b, 0x7c, 0x8a,
    0x8b, 0x87, 0xa6, 0xa8, 0x7c, 0x9c, 0x8c, 0x5c, 0xcc, 0xcb,
    0x8c, 0xac, 0x5a, 0x6b, 0x7b, 0x7a, 0x8b, 0x75, 0xb4, 0xa9,
    0x7c, 0xbc, 0x9b, 0x78, 0xab, 0xba, 0x8b, 0xaa, 0x99, 0x7b,
    0x79, 0xba, 0x89, 0x77, 0xd8, 0xa9, 0x9a, 0xbb, 0xba, 0x78,
    0x8b, 0xb8, 0x8a, 0xb8, 0x9a, 0x7a, 0x98, 0xaa, 0xb9, 0x89,
    0xd9, 0xa9, 0xa9, 0x8b, 0xc8, 0xb8, 0xaa, 0xb8, 0xa8, 0xa8,
    0x8a, 0xb9, 0x8a, 0x8a, 0xc9, 0x99, 0xc8, 0xa7, 0xaa, 0x89,
    0xb9, 0x99, 0xaa, 0xb8, 0xa8, 0xa8, 0x8a, 0x99, 0x9a, 0x7b,
    0xba, 0xaa, 0xa9, 0xa9, 0xa9, 0x99, 0x9a, 0x99, 0xb9, 0xa9,
    0xaa, 0xa9, 0x89, 0x99, 0xaa, 0x8a, 0xaa, 0x99, 0x98, 0xb9,
    0xa9, 0x8a, 0xa9, 0x9a, 0x9b, 0xab, 0xaa, 0x8a, 0xbb, 0x9a,
    0x99, 0xa8, 0xb9, 0x99, 0xa9, 0x8a, 0x99, 0xab, 0xaa, 0xaa,
    0xa9, 0xa9, 0xaa, 0x8a, 0x9a, 0x9a, 0x99, 0xa8, 0xaa, 0x99,
    0xaa, 0x99, 0x9a, 0x9a, 0x8a, 0x79, 0x99, 0xa9, 0xa9, 0x79,
    0xa9, 0x7a, 0xa9, 0xa6, 0xa7, 0xaa, 0xaa, 0x7a, 0x99, 0x9a,
    0x87, 0x88, 0x78, 0xa9, 0xa8, 0x68, 0x88, 0x69, 0x77, 0x86,
    0x95, 0x77, 0x97, 0x79, 0x86, 0x88, 0x77, 0x79, 0x78, 0xa8,
    0xa8, 0x88, 0x78, 0x88, 0x59, 0x77, 0x89, 0x75, 0xa4, 0x87,
    0x78, 0x87, 0x76, 0x38, 0x67, 0xa8, 0xa8, 0x68, 0x57, 0x58,
    0x59, 0x66, 0x77, 0x73, 0xa2, 0x77, 0x69, 0x87, 0x66, 0x79,
    0x66, 0xa8, 0xa8, 0x87, 0x67, 0x68, 0x6a, 0x67, 0x78, 0x76,
    0x95, 0x97, 0x79, 0x86, 0x89, 0x8a, 0x77, 0xa9, 0xa8, 0xb8,
    0x68, 0x89, 0x7b, 0x6a, 0x79, 0x86, 0x94, 0xa7, 0x89, 0x87,
    0x79, 0x79, 0x96, 0xa9, 0xaa, 0xb9, 0x67, 0x99, 0x9a, 0x6b,
    0x6b, 0xa8, 0xa6, 0xc7, 0x79, 0x87, 0x67, 0x59, 0x87, 0xa9,
    0xa9, 0x88, 0x67, 0x68, 0x9a, 0x78, 0x79, 0xa7, 0xa4, 0x97,
    0x79, 0x97, 0x88, 0x68, 0x87, 0xa8, 0xa8, 0x78, 0x78, 0x69,
    0x79, 0x77, 0x87, 0x87, 0x86, 0x98, 0x78, 0x87, 0x88, 0x68,
    0x87, 0xb8, 0xb8, 0x88, 0x88, 0x78, 0x89, 0x88, 0x89, 0x88,
    0xa7, 0x98, 0x89, 0x88, 0x97, 0x79, 0x88, 0xa8, 0xa9, 0x89,
    0x79, 0x79, 0x87, 0x87, 0x97, 0x99, 0x97, 0x88, 0x98, 0x88,
    0xa8, 0xaa, 0x89, 0xaa, 0xa9, 0x89, 0x89, 0xa9, 0x78, 0x97,
    0x98, 0x88, 0xa7, 0x79, 0xa8, 0x99, 0xaa, 0xaa, 0xa9, 0xba,
    0xaa, 0x8a, 0xaa, 0xaa, 0xaa, 0xa9, 0xaa, 0xaa, 0xaa, 0x9a,
    0x9a, 0xaa, 0x9a, 0x99, 0xaa, 0xa9, 0x9a, 0x89, 0xaa, 0xaa,
    0xaa, 0xa9, 0x99, 0xaa, 0xaa, 0x8a, 0xa9, 0xa9, 0xa9, 0x9a,
    0xaa, 0xaa, 0x9a, 0x8a, 0xaa, 0xaa, 0xaa, 0xa8, 0xaa, 0xaa,
    0x9a, 0x9a, 0x9a, 0xaa, 0x99, 0xaa, 0x9a, 0xa9, 0xaa, 0x9a,
    0xaa, 0x9a, 0xaa, 0xa8, 0xaa, 0xa9, 0x9a, 0x9a, 0x9a, 0xa9,
    0x9a, 0xa9, 0x99, 0x99, 0xaa, 0x99, 0xaa, 0x99, 0xa9, 0x98,
    0xaa, 0xaa, 0x9a, 0x9a, 0x99, 0xa9, 0x99, 0xaa, 0x99, 0xa9,
    0x9a, 0x99, 0x99, 0xa9, 0x99, 0x99, 0x9a, 0xaa, 0xa9, 0x9a,
    0x9a, 0x9a, 0x89, 0x89, 0x99, 0xa9, 0x99, 0x99, 0xa9, 0x9a,
    0x89, 0x98, 0x99, 0x9a, 0x9a, 0x9b, 0x99, 0xa9, 0x9a, 0x79,
    0x88, 0xa9, 0x99, 0x99, 0x89, 0x7a, 0xa9, 0x98, 0x98, 0xa9,
    0x99, 0x99, 0x89, 0x99, 0x78, 0x88, 0x89, 0xa9, 0x99, 0x88,
    0x69, 0x89, 0x78, 0x88, 0x79, 0xa8, 0x77, 0x98, 0x79, 0x98,
    0x89, 0x78, 0x98, 0xaa, 0x99, 0xa9, 0x88, 0x79, 0x59, 0x88,
    0x88, 0x96, 0x96, 0x98, 0x89, 0x99, 0x89, 0x79, 0x89, 0xa9,
    0xa9, 0x99, 0x89, 0x79, 0x89, 0x89, 0x89, 0xa8, 0x88, 0x99,
    0x89, 0x99, 0x7a, 0x79, 0x89, 0x99, 0x9a, 0xa9, 0x69, 0x89,
    0x79, 0x88, 0x8a, 0x98, 0x87, 0x98, 0x69, 0x99, 0x79, 0x9a,
    0x99, 0x99, 0xaa, 0x99, 0x89, 0x99, 0x7a, 0x89, 0x8a, 0xa9,
    0x99, 0x99, 0x79, 0x9a, 0x89, 0xaa, 0xaa, 0x9a, 0x8a, 0xa9,
    0x89, 0x9a, 0x99, 0x98, 0x8a, 0xa9, 0xa9, 0x99, 0x9a, 0xa9,
    0xa9, 0xaa, 0xaa, 0xaa, 0xb9, 0x99, 0xaa, 0xaa, 0xaa, 0xa9,
    0x9a, 0xaa, 0xaa, 0x9a, 0xa9, 0xa9, 0xaa, 0x9a, 0x99, 0x9a,
    0xba, 0x9a, 0xa9, 0x9a, 0xaa, 0xa8, 0x9a, 0xa9, 0x9a, 0x99,
    0x9a, 0xa9, 0x9a, 0xba, 0xaa, 0xaa, 0xaa, 0x9a, 0xaa, 0xba,
    0xaa, 0xa8, 0x9a, 0xa9, 0xaa, 0x9a, 0xba, 0xa9, 0xbb, 0xbb,
    0xcc, 0x9a, 0x9a, 0x8b, 0xcb, 0xbb, 0x9b, 0xc9, 0xbc, 0x99,
    0xbb, 0x9a, 0xbb, 0xbb, 0xcb, 0xba, 0xac, 0xab, 0xbb, 0x9b,
    0x9c, 0xcb, 0xcb, 0xa8, 0xcb, 0xaa, 0x9a, 0x99, 0xab, 0xbb,
    0xb9, 0x9a, 0x8a, 0xab, 0x99, 0x8b, 0xbb, 0x9a, 0xc9, 0xa9,
    0xca, 0xcb, 0xac, 0x99, 0x99, 0xb9, 0xab, 0xba, 0xab, 0xaa,
    0x9a, 0x9a, 0x9a, 0x9b, 0x68, 0xbb, 0x8a, 0x87, 0x9a, 0xab,
    0x9b, 0xbb, 0x9b, 0x9a, 0x9b, 0x9a, 0x9b, 0x8a, 0xab, 0x9a,
    0x98, 0xa8, 0xaa, 0xa8, 0xa9, 0x88, 0x9a, 0x9c, 0x8a, 0xa9,
    0xac, 0x9a, 0xab, 0xaa, 0x9b, 0xbb, 0x7a, 0xa8, 0xa9, 0x56,
    0x99, 0x8b, 0x99, 0xac, 0xab, 0x99, 0xab, 0xaa, 0x9a, 0x9a,
    0xbb, 0x9b, 0x99, 0xb9, 0xab, 0x88, 0xbb, 0x7a, 0xbb, 0xbb,
    0xaa, 0x59, 0xac, 0x9c, 0x8a, 0x8b, 0xab, 0x6b, 0x89, 0xb7,
    0xa7, 0x77, 0xaa, 0x7c, 0xb8, 0xbd, 0x98, 0x69, 0x8b, 0xbb,
    0x9a, 0x9a, 0xac, 0x7a, 0x99, 0xb8, 0xb8, 0x99, 0xbb, 0x8b,
    0xa8, 0xca, 0x98, 0x58, 0x77, 0xa8, 0x99, 0x97, 0x88, 0x68,
    0x98, 0x78, 0x87, 0x88, 0xa8, 0x88, 0x88, 0x87, 0x59, 0x99,
    0x88, 0x98, 0xa9, 0x88, 0x57, 0x98, 0x69, 0x68, 0x6a, 0x88,
    0x66, 0x88, 0x69, 0x88, 0x89, 0xa9, 0xaa, 0x8a, 0xaa, 0x9a,
    0x8a, 0xaa, 0x8a, 0xa8, 0x9a, 0xa9, 0x99, 0x8a, 0x89, 0xaa,
    0xaa, 0x9a, 0xaa, 0x9a, 0x9a, 0xaa, 0x9a, 0xaa, 0x9a, 0xa8,
    0x9a, 0xaa, 0x9a, 0x9a, 0xaa, 0xaa, 0x9b, 0xbb, 0xcb, 0xba,
    0xaa, 0xba, 0xbb, 0xba, 0x8b, 0xbb, 0xbc, 0xa9, 0xaa, 0xba,
    0xaa, 0xaa, 0x99, 0x9a, 0xaa, 0xbb, 0x8a, 0xca, 0xaa, 0x9a,
    0xba, 0xbc, 0x99, 0xa9, 0x9b, 0xca, 0x99, 0xba, 0x9b, 0xaa,
    0x99, 0x9a, 0x9a, 0xbb, 0x9a, 0x99, 0xca, 0x9b, 0xab, 0xab,
    0x97, 0xab, 0xa9, 0x99, 0x99, 0xaa, 0xa9, 0x9a, 0xaa, 0xb9,
    0xa9, 0x99, 0xb8, 0x9c, 0x8a, 0xbc, 0x9b, 0xd9, 0xa9, 0x99,
    0xaa, 0x99, 0xb9, 0x8a, 0x9a, 0xca, 0x9a, 0x9a, 0x8a, 0x9c,
    0xab, 0x79, 0xb8, 0xba, 0x9a, 0xab, 0xa9, 0x99, 0xba, 0xa9,
    0x98, 0xd9, 0xb9, 0x99, 0xb8, 0xbe, 0xab, 0x8b, 0xbb, 0xcb,
    0xab, 0xaa, 0xbb, 0x9b, 0xb9, 0xa9, 0x7a, 0xc9, 0xba, 0xba,
    0x7a, 0xbd, 0x9c, 0x67, 0xb9, 0xc9, 0xbc, 0x9b, 0xaa, 0x8a,
    0xaa, 0xaa, 0x6a, 0xab, 0xbb, 0xaa, 0xaa, 0xb9, 0x9b, 0x88,
    0xaa, 0xab, 0x9b, 0xba, 0x9c, 0x6b, 0xbb, 0xab, 0x7b, 0x9a,
    0x9a, 0x9b, 0x8c, 0xa8, 0x9b, 0x78, 0xa9, 0x6b, 0xbb, 0xaa,
    0xac, 0x5b, 0xaa, 0xba, 0x7b, 0x79, 0xba, 0x6b, 0x9b, 0xa6,
    0x9c, 0x88, 0xaa, 0x5c, 0x9c, 0xbb, 0x9a, 0x49, 0x9b, 0xba,
    0x9a, 0x6a, 0xba, 0x6b, 0x88, 0xb6, 0xb8, 0x89, 0xaa, 0x6b,
    0x99, 0xbb, 0xb8, 0x89, 0x89, 0xbb, 0xa9, 0x68, 0xab, 0x88,
    0xa8, 0xa5, 0xb8, 0xaa, 0xca, 0x68, 0x98, 0x97, 0x69, 0xaa,
    0x87, 0x99, 0xa9, 0x89, 0x68, 0x99, 0x6a, 0x88, 0x6a, 0x87,
    0x76, 0x89, 0x7a, 0x99, 0xbb, 0xaa, 0xaa, 0x9a, 0x9a, 0xaa,
    0xa9, 0x8a, 0xb9, 0xa9, 0xba, 0x99, 0xba, 0xa9, 0x99, 0xaa,
    0xaa, 0xa9, 0x9b, 0x99, 0x9b, 0xcb, 0x7a, 0xaa, 0xa8, 0x8c,
    0xc9, 0xaa, 0x99, 0xbb, 0xba, 0xab, 0xaa, 0xa9, 0xaa, 0x9a,
    0x9a, 0xcb, 0x8a, 0x9b, 0x8a, 0x9c, 0xab, 0x99, 0xb9, 0xca,
    0xaa, 0xab, 0xab, 0x99, 0xaa, 0x8a, 0xaa, 0xca, 0x9a, 0xb9,
    0xaa, 0x9a, 0xba, 0xca, 0x9a, 0xbb, 0xa9, 0x9a, 0xb9, 0x99,
    0xb9, 0x8a, 0x9a, 0xc9, 0x9a, 0x99, 0x89, 0x9c, 0xb9, 0x77,
    0xa8, 0xca, 0x9a, 0xa9, 0x9a, 0x89, 0xba, 0x89, 0x8b, 0xc9,
    0x89, 0x8a, 0x8b, 0x9c, 0xb9, 0x87, 0xb9, 0xca, 0x9a, 0xab,
    0xab, 0x9b, 0xca, 0xca, 0x6a, 0xca, 0xba, 0x9a, 0x7c, 0xbc,
    0xac, 0x77, 0xca, 0xba, 0xab, 0xaa, 0xab, 0x8b, 0xaa, 0xca,
    0x5a, 0xba, 0xaa, 0x8a, 0x9b, 0xab, 0x9b, 0x99, 0xb9, 0xa9,
    0x9c, 0xab, 0x8b, 0x8b, 0xa9, 0xb9, 0x6a, 0x9a, 0xb9, 0xaa,
    0x9c, 0xba, 0x9b, 0x99, 0x9a, 0x89, 0x8a, 0xab, 0x9a, 0xbb,
    0x9a, 0x9a, 0x7a, 0x89, 0xb9, 0xa9, 0x9a, 0xb8, 0x8a, 0x99,
    0xaa, 0x7b, 0x8b, 0x99, 0x8c, 0xab, 0xaa, 0x9b, 0x7a, 0x69,
    0xb9, 0xba, 0x9c, 0xa6, 0x8b, 0x9a, 0xab, 0x6b, 0x8b, 0xba,
    0x7c, 0xcb, 0xc9, 0x99, 0x9c, 0x79, 0xa8, 0xcb, 0x8c, 0x96,
    0x7c, 0x89, 0x99, 0x5a, 0x7c, 0xaa, 0x68, 0x69, 0x98, 0x98,
    0xaa, 0x6a, 0xb8, 0x6a, 0xb8, 0xa6, 0x76, 0xba, 0xaa, 0x7a,
    0x47, 0xb9, 0x49, 0x99, 0x76, 0x98, 0x98, 0x78, 0x56, 0x98,
    0x39, 0x66, 0x5a, 0x66, 0x55, 0x78, 0x69, 0x87, 0x9a, 0x89,
    0x88, 0xaa, 0x99, 0x9a, 0xa9, 0x99, 0xb8, 0xa8, 0xa9, 0xba,
    0xac, 0x8a, 0x98, 0xa9, 0xa8, 0xa9, 0xa9, 0x99, 0x98, 0xa9,
    0xa9, 0x98, 0xd8, 0x7b, 0xa8, 0xca, 0x99, 0xa9, 0x98, 0xb8,
    0x9a, 0x89, 0x99, 0x99, 0x99, 0xa9, 0x79, 0x9a, 0x9b, 0x7a,
    0xaa, 0xa9, 0xa7, 0xba, 0x9a, 0x9b, 0x99, 0x89, 0xa9, 0x9a,
    0x9a, 0xba, 0x78, 0x9a, 0x89, 0x8b, 0x99, 0xa9, 0xa7, 0xca,
    0x99, 0x9a, 0x99, 0x89, 0xaa, 0x8a, 0xa9, 0xca, 0x6a, 0x89,
    0x99, 0x6b, 0xa8, 0xb9, 0x76, 0xc8, 0xb8, 0x89, 0xa8, 0x89,
    0x99, 0x89, 0x89, 0xc9, 0x69, 0x89, 0x78, 0x7b, 0xa8, 0x98,
    0x86, 0xc8, 0xa8, 0x98, 0xb8, 0x89, 0x9a, 0x7a, 0x99, 0xba,
    0x79, 0x8a, 0x89, 0x8b, 0xc9, 0xb9, 0x87, 0xb9, 0xb9, 0x9a,
    0xc9, 0x8a, 0xa9, 0x7a, 0x9a, 0xba, 0x9a, 0x8a, 0xba, 0x9a,
    0xc9, 0xbb, 0xa9, 0xc9, 0xb9, 0x99, 0xb9, 0x9a, 0xa8, 0x89,
    0x89, 0xaa, 0xa9, 0x99, 0xb9, 0x9a, 0xb9, 0xab, 0x9a, 0xaa,
    0xb9, 0xaa, 0xaa, 0xaa, 0xa8, 0x8a, 0xaa, 0x8a, 0xba, 0x9a,
    0x9a, 0x98, 0xa8, 0xba, 0x89, 0x89, 0x99, 0xa9, 0x8a, 0xcb,
    0xb9, 0x8a, 0xda, 0x6a, 0xaa, 0xcb, 0xab, 0x96, 0x88, 0xaa,
    0x8a, 0x6a, 0x79, 0xba, 0x98, 0xbb, 0xa9, 0x9b, 0xba, 0x6b,
    0xb9, 0x8c, 0x9a, 0xb6, 0xa7, 0x99, 0x99, 0x6b, 0x87, 0xca,
    0x86, 0xa8, 0x85, 0x97, 0xb9, 0x86, 0xa8, 0x97, 0xa7, 0x87,
    0x75, 0xaa, 0x89, 0x79, 0x46, 0x66, 0x79, 0x9a, 0x55, 0xa8,
    0xa8, 0x68, 0x57, 0x98, 0x59, 0x64, 0x68, 0x55, 0x73, 0x59,
    0x79, 0x86, 0x89, 0x99, 0x88, 0x99, 0x99, 0x99, 0x98, 0x99,
    0xa9, 0x99, 0x77, 0xba, 0x9b, 0xaa, 0x78, 0xa8, 0x9b, 0x99,
    0x99, 0x99, 0x9a, 0xaa, 0x99, 0x9b, 0xb9, 0xd9, 0xa9, 0xbc,
    0xbc, 0xab, 0x99, 0xaa, 0x97, 0x87, 0x88, 0xa8, 0x98, 0xb8,
    0x89, 0x78, 0x98, 0x7b, 0xa8, 0xaa, 0xb7, 0xc8, 0x97, 0x88,
    0x89, 0x88, 0x99, 0x99, 0x99, 0xb8, 0x48, 0x89, 0x89, 0x5b,
    0xa9, 0xa7, 0x75, 0xc7, 0xa8, 0x79, 0x97, 0x79, 0x98, 0x79,
    0xa9, 0xa8, 0x5a, 0x88, 0x99, 0x5b, 0xa8, 0xb9, 0x56, 0xb7,
    0x98, 0x78, 0xa7, 0x88, 0xa9, 0x69, 0xd9, 0xb9, 0x59, 0x79,
    0x98, 0x5b, 0xa8, 0xa8, 0x76, 0xd8, 0xc7, 0x98, 0xb8, 0x8a,
    0xb9, 0x6a, 0xda, 0xca, 0x6a, 0x79, 0x8a, 0x6c, 0xc8, 0xb8,
    0x76, 0xd9, 0xc9, 0x88, 0xb9, 0x8b, 0xa8, 0x5a, 0xca, 0xaa,
    0x89, 0x7a, 0x9a, 0x9b, 0xc8, 0xa8, 0x89, 0xca, 0xb9, 0x9a,
    0xb8, 0x79, 0xba, 0x6b, 0xba, 0xba, 0x9a, 0x8a, 0xa9, 0xaa,
    0xb8, 0xaa, 0x89, 0xca, 0xb8, 0xb9, 0xb9, 0x8a, 0xa9, 0x8a,
    0xca, 0x9a, 0xab, 0x89, 0xa9, 0x99, 0xc8, 0xba, 0x9a, 0xa9,
    0xc8, 0x98, 0xb7, 0x79, 0xa8, 0x9b, 0xcb, 0x9a, 0x9b, 0x6a,
    0xa9, 0x9a, 0x96, 0xaa, 0x8a, 0x99, 0xa7, 0xa9, 0x69, 0x59,
    0x97, 0x7b, 0xba, 0x8b, 0x98, 0x5c, 0x99, 0xa8, 0x56, 0xaa,
    0x6a, 0x8c, 0x78, 0xca, 0x55, 0xb8, 0x76, 0x87, 0x98, 0x56,
    0x98, 0xa7, 0x75, 0x86, 0x45, 0x89, 0x89, 0x86, 0x65, 0x76,
    0x79, 0x99, 0x67, 0x99, 0xa9, 0x79, 0x79, 0xa9, 0x79, 0x94,
    0x89, 0x66, 0x97, 0x69, 0x69, 0x97, 0x89, 0x79, 0x99, 0xa9,
    0x99, 0x79, 0xa8, 0x7a, 0x89, 0xa6, 0x88, 0xa9, 0x9a, 0x79,
    0x88, 0xa8, 0x99, 0x98, 0x88, 0x99, 0x99, 0x99, 0x88, 0x8a,
    0x88, 0x89, 0x99, 0x98, 0xb8, 0xaa, 0x88, 0x98, 0xa7, 0x77,
    0x79, 0xa8, 0xa7, 0xa8, 0x89, 0x87, 0xb7, 0x7b, 0xa7, 0xca,
    0xc8, 0xc6, 0x97, 0x88, 0xb7, 0x78, 0x77, 0xb8, 0xa8, 0xa8,
    0x69, 0x88, 0xa7, 0x6b, 0xa7, 0xda, 0x96, 0xc8, 0xb7, 0x88,
    0xa7, 0xa9, 0x99, 0x98, 0xc8, 0x99, 0x69, 0x98, 0xa8, 0x5b,
    0xa8, 0xcc, 0x76, 0xc7, 0xb8, 0x88, 0xa9, 0x98, 0x9a, 0x59,
    0xd8, 0xa9, 0x6a, 0xa9, 0xa9, 0x6a, 0xa9, 0xca, 0x66, 0xb9,
    0xa9, 0x89, 0xb9, 0xab, 0xab, 0x5b, 0xca, 0xbb, 0x5c, 0xa9,
    0x8a, 0x6b, 0xb9, 0xa6, 0x85, 0xc9, 0xc9, 0xab, 0xcb, 0x89,
    0xab, 0x5a, 0xcb, 0xcb, 0x7c, 0x8b, 0x99, 0x8c, 0xc9, 0xb8,
    0x88, 0xca, 0xb9, 0xbb, 0xca, 0x6a, 0xbb, 0x9c, 0x9b, 0xcb,
    0x9b, 0x7b, 0x99, 0xac, 0xc9, 0x98, 0x99, 0xdb, 0xc9, 0xbb,
    0xca, 0x69, 0x9a, 0xba, 0x4b, 0xb9, 0xab, 0x7a, 0xaa, 0xac,
    0xc9, 0xa9, 0xa9, 0xd8, 0xb9, 0xbb, 0x9a, 0x38, 0xba, 0xba,
    0x8a, 0x9b, 0x9a, 0x5b, 0x89, 0x99, 0xa7, 0x89, 0x98, 0xba,
    0x78, 0xab, 0x99, 0x48, 0x88, 0xa9, 0x99, 0xa8, 0x8a, 0x59,
    0x88, 0x8a, 0xa5, 0x89, 0x89, 0xba, 0x86, 0x99, 0xa6, 0x98,
    0x67, 0xa9, 0xa8, 0x6a, 0x9a, 0xa8, 0x86, 0x86, 0xa6, 0x88,
    0xa7, 0x77, 0x86, 0x97, 0x69, 0x99, 0x87, 0x99, 0x9a, 0x89,
    0x98, 0xaa, 0x68, 0x96, 0x68, 0x88, 0x77, 0x79, 0x79, 0x98,
    0x9b, 0x9a, 0xaa, 0x9a, 0x9a, 0x9a, 0x9a, 0xaa, 0x9a, 0xa7,
    0x9a, 0x99, 0x99, 0x8b, 0xab, 0xaa, 0x98, 0x98, 0x98, 0x98,
    0xa9, 0xa7, 0xc8, 0x89, 0xb9, 0xaa, 0x97, 0xba, 0xbc, 0xb8,
    0x88, 0x98, 0x87, 0x78, 0x88, 0xb7, 0x87, 0x88, 0x97, 0x78,
    0x97, 0xa9, 0x88, 0xa9, 0xb9, 0x97, 0x97, 0x97, 0x78, 0x87,
    0x79, 0xc8, 0x88, 0xa7, 0x98, 0x79, 0x78, 0x9a, 0x88, 0x78,
    0xb7, 0xb9, 0x78, 0x88, 0x8a, 0x99, 0x7a, 0xd8, 0x88, 0xa8,
    0xa8, 0x98, 0x7a, 0x9b, 0x8b, 0x89, 0xba, 0xa9, 0x9b, 0x89,
    0x99, 0xaa, 0x99, 0xa8, 0xa9, 0xa8, 0x79, 0xc9, 0x6b, 0x7a,
    0x8a, 0x66, 0x86, 0x98, 0x9a, 0x99, 0x9b, 0xcb, 0xab, 0x7a,
    0xcb, 0xbb, 0x8a, 0xba, 0x89, 0x9b, 0xab, 0x76, 0x86, 0xcb,
    0xbb, 0xab, 0xbc, 0x8a, 0xbb, 0x8a, 0x6a, 0xcb, 0x8b, 0x9a,
    0x8b, 0xac, 0xcb, 0x97, 0xaa, 0xcb, 0xbb, 0xbc, 0xba, 0x79,
    0x9b, 0xdb, 0x6a, 0xcb, 0xab, 0x8a, 0xaa, 0xac, 0xba, 0xa8,
    0xaa, 0xcb, 0x9b, 0xaa, 0x9a, 0x9b, 0xba, 0xc9, 0x7a, 0xb9,
    0x9a, 0xaa, 0xaa, 0x9b, 0x89, 0x99, 0xa9, 0xca, 0x9a, 0xba,
    0x9a, 0x7a, 0xaa, 0xaa, 0x8a, 0x89, 0x9a, 0x9b, 0x99, 0xa9,
    0x99, 0x89, 0xaa, 0xaa, 0x99, 0x99, 0xaa, 0x7b, 0xaa, 0xba,
    0x8a, 0x7b, 0x9a, 0x9a, 0x8b, 0x86, 0xa9, 0x78, 0xa8, 0x6a,
    0xbb, 0x9a, 0x9a, 0x98, 0x9a, 0x9a, 0xab, 0x6b, 0xaa, 0x9b,
    0x97, 0xa5, 0xa7, 0x99, 0xaa, 0x6b, 0x86, 0xb9, 0x6a, 0xb9,
    0x78, 0x98, 0xa9, 0x88, 0x68, 0xa9, 0x69, 0x77, 0x79, 0x77,
    0x75, 0x89, 0x89, 0x89, 0x9b, 0xba, 0xbb, 0x8a, 0xaa, 0xaa,
    0xaa, 0xbb, 0x9b, 0x99, 0xab, 0xa9, 0xaa, 0x9a, 0xaa, 0xaa,
    0xaa, 0xab, 0xab, 0xaa, 0x9b, 0x9b, 0xca, 0x9b, 0x9a, 0xc8,
    0xa9, 0x9a, 0xcc, 0x79, 0xaa, 0xca, 0x8a, 0x79, 0x88, 0xa7,
    0x88, 0x89, 0xb8, 0x8a, 0x89, 0xc8, 0x98, 0x77, 0xba, 0x6b,
    0x79, 0xba, 0x89, 0x88, 0x99, 0xd7, 0x89, 0x97, 0xa8, 0x89,
    0x69, 0xb9, 0x88, 0x57, 0xc9, 0x89, 0x79, 0x99, 0x7a, 0x88,
    0x89, 0xe7, 0x79, 0xb8, 0x88, 0x89, 0x69, 0x8b, 0x8a, 0x56,
    0xd7, 0xa7, 0x7a, 0x78, 0x89, 0x99, 0x88, 0xe8, 0x79, 0xb8,
    0x98, 0xa9, 0x6a, 0xab, 0x7b, 0x66, 0xc8, 0xa9, 0x79, 0x99,
    0x9b, 0xbb, 0x99, 0xd8, 0x7b, 0xca, 0x79, 0xaa, 0x6a, 0x8c,
    0x8b, 0x76, 0xb7, 0xba, 0x8b, 0x9a, 0x9b, 0x9a, 0xa9, 0xc9,
    0x9a, 0xc9, 0xa8, 0xaa, 0x9a, 0xbc, 0x8b, 0xa9, 0xba, 0xcb,
    0x7b, 0xa9, 0x9b, 0xaa, 0xb9, 0xc9, 0xaa, 0xc8, 0xa9, 0xa9,
    0x9b, 0xbc, 0x9a, 0x88, 0xba, 0xda, 0xaa, 0xa9, 0xab, 0x9b,
    0x9a, 0xca, 0x89, 0xaa, 0xaa, 0xb9, 0xab, 0xaa, 0x9b, 0x99,
    0x9a, 0xaa, 0x9b, 0x9a, 0x9a, 0xab, 0xba, 0xab, 0x9a, 0x7a,
    0x9b, 0xaa, 0xab, 0xa7, 0x89, 0x99, 0xaa, 0x7b, 0x8a, 0xaa,
    0x8a, 0xba, 0x98, 0x9b, 0xaa, 0x5b, 0xaa, 0xbb, 0xaa, 0xb5,
    0x89, 0xa9, 0x99, 0x5a, 0x79, 0xaa, 0x8a, 0xa9, 0xaa, 0x99,
    0xbb, 0x8a, 0xa9, 0x8b, 0xa9, 0xb8, 0xa7, 0xba, 0x9a, 0x8b,
    0x67, 0xab, 0x58, 0x99, 0x76, 0xa9, 0x98, 0x98, 0x56, 0xa8,
    0x49, 0x66, 0x6a, 0x66, 0x64, 0x88, 0x69, 0x87, 0xa9, 0xa9,
    0x99, 0x9a, 0x99, 0xba, 0xa9, 0xaa, 0x99, 0xab, 0xb9, 0xa9,
    0x99, 0xa9, 0xa8, 0xaa, 0x9c, 0x9b, 0x89, 0x9a, 0xab, 0x8b,
    0x99, 0x9b, 0x8a, 0xa9, 0xab, 0x99, 0xa8, 0xaa, 0x9a, 0x9b,
    0x9a, 0x9a, 0xaa, 0xb8, 0x9a, 0x99, 0xb9, 0xaa, 0x8b, 0xc9,
    0x99, 0x67, 0xcb, 0x8b, 0xa9, 0xa9, 0x99, 0x89, 0x9a, 0xda,
    0x89, 0xa8, 0xb9, 0x9b, 0x69, 0xba, 0x99, 0x56, 0xc9, 0xaa,
    0x99, 0xa8, 0x99, 0x88, 0x98, 0xd9, 0x89, 0xa8, 0x98, 0x89,
    0x6a, 0x9a, 0x89, 0x57, 0xc8, 0xa8, 0x99, 0x88, 0x99, 0x88,
    0x99, 0xc7, 0x89, 0xc8, 0x99, 0x98, 0x79, 0x9c, 0x99, 0x66,
    0xb7, 0xb8, 0x9a, 0x89, 0xab, 0x89, 0x99, 0xc8, 0x79, 0xd9,
    0x88, 0x89, 0x79, 0x9d, 0x9b, 0x76, 0xc7, 0xd9, 0x9b, 0x9a,
    0xbb, 0x99, 0xbb, 0xda, 0x9a, 0xc9, 0xaa, 0xaa, 0x7a, 0xbd,
    0xb9, 0x67, 0xb9, 0xc9, 0xa9, 0xa9, 0xba, 0x9a, 0xaa, 0xbb,
    0xaa, 0xba, 0x9a, 0xaa, 0xaa, 0xab, 0xb9, 0x9a, 0xab, 0xcb,
    0xba, 0xbb, 0x9b, 0xab, 0xa9, 0x99, 0xb9, 0x89, 0x9a, 0xb9,
    0xba, 0xa9, 0x9a, 0xaa, 0x8a, 0x9b, 0x8b, 0x99, 0x8a, 0xaa,
    0xba, 0x9a, 0xca, 0x7b, 0xaa, 0xba, 0xab, 0x97, 0x99, 0x99,
    0x8a, 0x7a, 0x89, 0xba, 0x99, 0xbb, 0xb9, 0x9b, 0xaa, 0x6a,
    0xb8, 0xbb, 0xbb, 0xa7, 0x98, 0x9a, 0x9a, 0x7a, 0xa9, 0xa9,
    0x87, 0x98, 0xa7, 0xaa, 0x99, 0x8a, 0x99, 0x9a, 0xa7, 0xb7,
    0x86, 0x99, 0x99, 0x8b, 0x56, 0xb9, 0x69, 0x89, 0x67, 0xa8,
    0xa9, 0x78, 0x47, 0x88, 0x38, 0x65, 0x68, 0x55, 0x83, 0x69,
    0x79, 0x88, 0x99, 0xa9, 0x98, 0xa9, 0xa9, 0x9a, 0xa7, 0x8a,
    0x98, 0xa9, 0xa7, 0xaa, 0xaa, 0x8a, 0x98, 0xa8, 0x9a, 0xaa,
    0x89, 0xa8, 0xa9, 0xa9, 0xc8, 0x99, 0x99, 0xaa, 0xa9, 0x9a,
    0xc9, 0x99, 0x99, 0x9a, 0x9a, 0x9b, 0x8a, 0xa9, 0x8a, 0xa9,
    0xca, 0x9b, 0x7a, 0xbb, 0x9a, 0x57, 0xdb, 0xaa, 0x9b, 0x99,
    0xab, 0x9a, 0xab, 0xb9, 0x9a, 0xba, 0xa9, 0xab, 0x69, 0xcb,
    0xaa, 0x55, 0xb9, 0xaa, 0xab, 0xbb, 0xaa, 0x88, 0xab, 0xc9,
    0x89, 0xb9, 0x99, 0x8a, 0x78, 0xab, 0xbb, 0x66, 0xc8, 0xb9,
    0x99, 0x9a, 0xaa, 0x68, 0xa9, 0xb9, 0xa9, 0xa9, 0x99, 0x79,
    0x79, 0x9a, 0x99, 0x66, 0xa8, 0xba, 0xaa, 0x99, 0xa9, 0x8a,
    0xb8, 0x9a, 0xb8, 0xba, 0x89, 0x89, 0x79, 0x7b, 0xb8, 0x75,
    0x97, 0xb8, 0xa8, 0x98, 0xb9, 0x89, 0x99, 0xba, 0xb9, 0xb9,
    0x89, 0x8a, 0xa9, 0x8c, 0xa8, 0xb9, 0x9a, 0xc9, 0xa8, 0xaa,
    0xba, 0xab, 0xa9, 0x9a, 0xba, 0xaa, 0x8a, 0xa9, 0xbb, 0x8a,
    0xa8, 0xaa, 0x8a, 0xba, 0xaa, 0xa9, 0xb9, 0xba, 0xb9, 0x79,
    0xb9, 0x8b, 0x99, 0xaa, 0xaa, 0x98, 0xb8, 0xab, 0x7a, 0x9a,
    0xb7, 0xa9, 0xb9, 0xaa, 0x98, 0x8b, 0xca, 0x7a, 0xab, 0x99,
    0xab, 0x97, 0xa8, 0xbb, 0x79, 0x8a, 0xb9, 0x99, 0x99, 0x8b,
    0x99, 0x8c, 0xaa, 0x7b, 0xaa, 0x7b, 0x9a, 0xa7, 0x98, 0x99,
    0x79, 0x7a, 0x78, 0xa9, 0x7a, 0x88, 0x88, 0xa9, 0xaa, 0x79,
    0xba, 0x6a, 0xa7, 0xb7, 0x84, 0xbb, 0x9a, 0x79, 0x56, 0x99,
    0x79, 0x9a, 0x77, 0xa8, 0xa9, 0x89, 0x68, 0xa8, 0x59, 0x76,
    0x7a, 0x76, 0x85, 0x79, 0x89, 0x88, 0x8a, 0x9a, 0xab, 0x99,
    0x9a, 0x99, 0xa8, 0xaa, 0xaa, 0xaa, 0x98, 0xaa, 0xaa, 0x9a,
    0x99, 0xaa, 0xab, 0xab, 0xcb, 0xa9, 0xaa, 0xab, 0xb9, 0xbb,
    0x99, 0xb9, 0xaa, 0x8a, 0xbd, 0xab, 0xca, 0xaa, 0xb9, 0x99,
    0xbb, 0x9a, 0xb9, 0x9a, 0xca, 0x9a, 0x79, 0xc9, 0x99, 0x66,
    0xdb, 0x9a, 0xc9, 0xaa, 0xaa, 0x99, 0xaa, 0xba, 0x9a, 0xa9,
    0xab, 0xaa, 0x6a, 0x9a, 0xa9, 0x74, 0xe8, 0xa9, 0xaa, 0xb9,
    0xaa, 0x98, 0xaa, 0xa9, 0x99, 0xa9, 0x9a, 0x9a, 0x79, 0xab,
    0xab, 0x86, 0xd8, 0xa8, 0xba, 0xa9, 0xdb, 0x99, 0xbb, 0xaa,
    0xba, 0xba, 0x7b, 0x9a, 0x7a, 0x8a, 0xca, 0x96, 0xa7, 0xb9,
    0xdb, 0xab, 0xc9, 0x89, 0xbb, 0x7b, 0xda, 0xaa, 0x7b, 0x7a,
    0x99, 0x8b, 0xc9, 0xa8, 0x97, 0xb9, 0xa9, 0xaa, 0xc8, 0x88,
    0xba, 0x7a, 0xd9, 0xaa, 0x7a, 0x8a, 0xa8, 0x8a, 0xb7, 0xb9,
    0x89, 0xb9, 0xc8, 0x9a, 0xc8, 0xaa, 0xaa, 0x6a, 0xb9, 0x99,
    0x8b, 0x99, 0x99, 0x89, 0xc8, 0xbb, 0x6a, 0xb8, 0xc8, 0x99,
    0xba, 0x8a, 0x99, 0x8c, 0xca, 0x9a, 0x8a, 0x9a, 0xb9, 0x99,
    0xa8, 0xba, 0x69, 0xaa, 0xb8, 0xba, 0xb8, 0xab, 0xb9, 0x9a,
    0xca, 0x8b, 0x9a, 0x9a, 0xa9, 0x99, 0xa9, 0xab, 0x89, 0x99,
    0xb7, 0xaa, 0x78, 0x89, 0xa8, 0xab, 0xab, 0x89, 0xb9, 0x9a,
    0xa9, 0x98, 0x87, 0xaa, 0x7a, 0x8b, 0x97, 0xa9, 0x98, 0xa8,
    0x88, 0xa9, 0xb8, 0x88, 0xaa, 0x78, 0xa8, 0x97, 0xa7, 0x9a,
    0xba, 0x87, 0xa7, 0x88, 0x8a, 0x99, 0x88, 0x99, 0xa9, 0x99,
    0x79, 0xa9, 0x69, 0x87, 0x99, 0x87, 0x96, 0x7a, 0x99, 0x99,
    0xaa, 0xaa, 0xaa, 0xaa, 0xaa, 0xaa, 0xaa, 0xaa, 0xaa, 0x99,
    0x9a, 0xaa, 0x9a, 0xaa, 0x9a, 0x9a, 0xbb, 0xcc, 0xbb, 0xab,
    0x9b, 0xbb, 0xac, 0xca, 0xbb, 0x9c, 0xbc, 0xbb, 0xaa, 0xca,
    0xbc, 0xab, 0xbc, 0xbb, 0xbc, 0x9b, 0xab, 0xcb, 0xbb, 0xcb,
    0xa9, 0xcb, 0xcc, 0xab, 0xcc, 0x9b, 0xbb, 0xbc, 0xba, 0xa9,
    0xbc, 0xaa, 0xaa, 0xba, 0xbb, 0xa9, 0xaa, 0xca, 0xdc, 0xb8,
    0xd9, 0xba, 0xca, 0x9c, 0xda, 0x98, 0xdd, 0x8a, 0xaa, 0xaa,
    0x7c, 0x99, 0xab, 0x9a, 0xeb, 0xb7, 0xd6, 0xb7, 0xda, 0x9c,
    0xd9, 0x9a, 0xbc, 0x8b, 0xaa, 0xab, 0x7b, 0xaa, 0xbb, 0x8b,
    0xdb, 0xa9, 0xb7, 0xaa, 0xca, 0xba, 0xe9, 0xaa, 0xdb, 0x8b,
    0xba, 0xab, 0x7b, 0x89, 0xba, 0x7a, 0xd9, 0xb9, 0x88, 0xa8,
    0xda, 0xaa, 0xe8, 0x7a, 0xab, 0x8c, 0xc9, 0xbb, 0x8c, 0x79,
    0xa9, 0x6a, 0xe9, 0xba, 0x49, 0xb8, 0xda, 0x9a, 0xc9, 0x79,
    0xcc, 0x9b, 0xca, 0x9c, 0x7c, 0x8b, 0x9a, 0x8b, 0xda, 0xc9,
    0x58, 0xab, 0xda, 0xbb, 0xda, 0xba, 0xca, 0x9a, 0xb9, 0xac,
    0x9b, 0xaa, 0xba, 0x99, 0xda, 0xca, 0x7b, 0x9a, 0xca, 0xaa,
    0xc9, 0x9a, 0x9b, 0x9c, 0xab, 0xac, 0xac, 0x9a, 0xb9, 0xba,
    0xca, 0xab, 0x8a, 0x9a, 0xba, 0xab, 0x7a, 0x89, 0x99, 0x8a,
    0xab, 0xa9, 0xb9, 0x89, 0xa8, 0xba, 0x78, 0xaa, 0x88, 0xab,
    0x89, 0x99, 0x77, 0xb9, 0xa8, 0x99, 0xa9, 0xa9, 0xa8, 0xb9,
    0xb8, 0xb9, 0x8a, 0xaa, 0xaa, 0xba, 0x98, 0x98, 0x9a, 0x9a,
    0x9a, 0xba, 0xa9, 0x99, 0x9a, 0xa9, 0x9a, 0x98, 0x9a, 0xa9,
    0xa9, 0x9a, 0x9a, 0xaa, 0xaa, 0x9a, 0x9a, 0xaa, 0xaa, 0x99,
    0xaa, 0x9a, 0xaa, 0xa9, 0xa9, 0x9a, 0x9a, 0x8a, 0xa9, 0xa9,
    0x99, 0xaa, 0x99, 0x99, 0x99, 0x99, 0xa9, 0x99, 0x99, 0xa8,
    0x88, 0xaa, 0xaa, 0x9a, 0x99, 0xa9, 0x99, 0xbb, 0x88, 0xaa,
    0x9a, 0xb8, 0x99, 0xba, 0x9a, 0x9b, 0x8b, 0xa7, 0x97, 0xba,
    0x8b, 0x98, 0x7a, 0x9a, 0x88, 0x9a, 0xaa, 0xba, 0x77, 0x7b,
    0xab, 0x7b, 0x6c, 0xa8, 0x86, 0xb9, 0x8c, 0xaa, 0x89, 0x8a,
    0x77, 0xaa, 0xab, 0xc9, 0x79, 0x9b, 0xab, 0x6b, 0x7b, 0xb6,
    0x94, 0xb7, 0x8a, 0xa9, 0xab, 0x9b, 0x99, 0x9a, 0x9c, 0xcb,
    0x59, 0xab, 0xac, 0x5c, 0xac, 0xb8, 0x96, 0xb8, 0x8b, 0xab,
    0x8b, 0x9b, 0xb9, 0x9a, 0x9b, 0xba, 0x98, 0x9a, 0xcb, 0x8c,
    0xac, 0xcb, 0x7a, 0xb8, 0x9b, 0x99, 0x99, 0x88, 0xba, 0xbb,
    0xaa, 0x9a, 0x79, 0x9a, 0x8b, 0x69, 0x99, 0x99, 0x77, 0xa7,
    0xa9, 0xa9, 0xcc, 0x9b, 0xaa, 0xaa, 0x9b, 0xbb, 0x9a, 0x9a,
    0xac, 0x9a, 0xbb, 0xa8, 0x88, 0xab, 0xbc, 0x9b, 0x8a, 0xaa,
    0xa9, 0x9a, 0x9a, 0xba, 0xaa, 0x9a, 0xbb, 0xaa, 0xab, 0xab,
    0xa9, 0xb7, 0x9a, 0x99, 0xaa, 0x69, 0xc8, 0xaa, 0x9a, 0x89,
    0x8a, 0x68, 0x9b, 0x7b, 0x98, 0xaa, 0x88, 0xa8, 0xaa, 0x98,
    0x88, 0x89, 0x8a, 0x99, 0x99, 0x89, 0x89, 0x79, 0x88, 0xa8,
    0x96, 0x88, 0x87, 0x89, 0xa8, 0x89, 0x99, 0x99, 0x89, 0xa9,
    0xaa, 0x99, 0x99, 0xaa, 0x89, 0x97, 0xa9, 0x98, 0x98, 0x9a,
    0xa9, 0xaa, 0xaa, 0xa9, 0xaa, 0xaa, 0xaa, 0x9a, 0xa9, 0x9a,
    0xaa, 0x98, 0xaa, 0xaa, 0x9a, 0x9a, 0xaa, 0x9a, 0xaa, 0x9a,
    0xaa, 0xaa, 0x9a, 0xba, 0xaa, 0xaa, 0x9a, 0xaa, 0xaa, 0xaa,
    0x9a, 0xa9, 0xaa, 0xa9, 0xaa, 0x9a, 0xaa, 0xaa, 0x99, 0xba,
    0xaa, 0x9a, 0xa9, 0xa9, 0x9a, 0x9a, 0x9a, 0xa9, 0x89, 0xa9,
    0x9a, 0x8a, 0x99, 0x99, 0xa9, 0xc9, 0xa9, 0x89, 0x99, 0xaa,
    0x99, 0x99, 0x99, 0xa9, 0x89, 0xa9, 0x88, 0x78, 0x88, 0x98,
    0x99, 0xb8, 0x89, 0x78, 0x88, 0x8a, 0x88, 0x9a, 0x88, 0xb8,
    0x78, 0x88, 0x79, 0x78, 0x88, 0x98, 0xa9, 0xb8, 0x78, 0x78,
    0x78, 0x7a, 0x79, 0x88, 0x77, 0xa8, 0x68, 0x88, 0x78, 0x78,
    0x77, 0x98, 0x99, 0xc8, 0x77, 0x88, 0x78, 0x7b, 0x88, 0x89,
    0x77, 0xb7, 0x78, 0x88, 0x89, 0x89, 0x98, 0x99, 0xa9, 0xb8,
    0x78, 0x88, 0x6a, 0x9a, 0x79, 0x87, 0x87, 0xa9, 0x89, 0x88,
    0x77, 0x67, 0x67, 0x88, 0x98, 0xc8, 0x88, 0x68, 0x87, 0x79,
    0x77, 0xa9, 0x88, 0xa7, 0x67, 0x87, 0x67, 0x67, 0x66, 0x88,
    0x98, 0xc7, 0x67, 0x68, 0x68, 0x6a, 0x67, 0x88, 0x66, 0xa6,
    0x67, 0x76, 0x68, 0x58, 0x67, 0x97, 0x98, 0xb7, 0x57, 0x68,
    0x69, 0x5a, 0x68, 0x77, 0x67, 0xa7, 0x48, 0x88, 0x58, 0x79,
    0x78, 0x99, 0x99, 0xc8, 0x69, 0x89, 0x59, 0x7b, 0x78, 0x98,
    0x77, 0xa8, 0x68, 0x88, 0x69, 0x88, 0x89, 0x99, 0x99, 0xc9,
    0x79, 0x89, 0x69, 0x8a, 0x79, 0x88, 0x78, 0xa9, 0x79, 0x89,
    0x8a, 0x9a, 0x99, 0x99, 0xa9, 0xb9, 0x8a, 0xa9, 0x7a, 0x9b,
    0x9a, 0x99, 0x89, 0xa9, 0x89, 0x9a, 0xaa, 0x9a, 0xaa, 0x9a,
    0xaa, 0xba, 0xaa, 0xaa, 0x9a, 0xaa, 0xaa, 0x9a, 0x8a, 0xaa,
    0xaa, 0xaa, 0xaa, 0x9a, 0xaa, 0x9a, 0x99, 0xba, 0xa9, 0xaa,
    0xa9, 0xaa, 0xaa, 0x9a, 0x9a, 0xaa, 0xa9, 0xaa, 0x9a, 0x79,
    0x99, 0x99, 0x9a, 0xa9, 0xa9, 0x8a, 0x99, 0xa9, 0x88, 0x9a,
    0x99, 0x89, 0x79, 0xaa, 0x88, 0x78, 0x78, 0xa8, 0xa9, 0xa8,
    0xa8, 0x89, 0x88, 0x78, 0x78, 0x88, 0x78, 0xa8, 0x87, 0x98,
    0x87, 0x78, 0x77, 0x98, 0x98, 0x98, 0x77, 0x78, 0x78, 0x88,
    0x97, 0x88, 0x87, 0xb9, 0x77, 0x88, 0x86, 0x67, 0x77, 0x98,
    0x87, 0xb7, 0x86, 0x67, 0x77, 0x89, 0x76, 0x77, 0x87, 0xb8,
    0x77, 0x87, 0x67, 0x76, 0x77, 0x97, 0x97, 0xa7, 0x67, 0x77,
    0x69, 0x68, 0x67, 0x77, 0x76, 0x96, 0x78, 0x77, 0x78, 0x99,
    0x97, 0xa9, 0x97, 0x88, 0x78, 0xa8, 0x79, 0x76, 0x79, 0x77,
    0x77, 0x78, 0x98, 0x87, 0x97, 0x88, 0x97, 0x98, 0xa8, 0x78,
    0x88, 0x97, 0x98, 0x86, 0xa7, 0x98, 0x98, 0x78, 0x87, 0x87,
    0xa7, 0x88, 0x98, 0xa8, 0x97, 0x69, 0x99, 0x88, 0x97, 0x86,
    0xa6, 0x98, 0xaa, 0x88, 0xa7, 0x97, 0x98, 0xc8, 0x78, 0x97,
    0xa7, 0xb7, 0x77, 0xb6, 0xa9, 0x68, 0x88, 0x99, 0x88, 0x96,
    0x89, 0x77, 0xa8, 0x99, 0xa7, 0xa9, 0xa8, 0x99, 0x98, 0x89,
    0x89, 0xb8, 0x97, 0x89, 0xa8, 0x9b, 0xa7, 0xa7, 0xb8, 0xa9,
    0x98, 0x99, 0xa9, 0x98, 0xa8, 0xb9, 0xa9, 0x88, 0x99, 0x78,
    0xb8, 0x8b, 0xa9, 0x97, 0xba, 0x9a, 0xb8, 0x99, 0xa9, 0xb9,
    0x89, 0x99, 0x9a, 0x98, 0xaa, 0x78, 0xa8, 0x99, 0xa9, 0x98,
    0xaa, 0x9a, 0xa9, 0x99, 0x9a, 0xb9, 0xaa, 0xa9, 0xaa, 0x99,
    0xca, 0xab, 0xa9, 0xaa, 0x99, 0xaa, 0xaa, 0x9a, 0xaa, 0x9a,
    0x99, 0xba, 0xaa, 0x9a, 0xaa, 0xaa, 0xaa, 0x99, 0x9a, 0xa9,
    0xaa, 0xaa, 0x9b, 0x7a, 0x89, 0x99, 0x99, 0x99, 0x9a, 0x89,
    0x99, 0x88, 0x99, 0x89, 0x89, 0x98, 0x7a, 0x9a, 0x89, 0x88,
    0x9a, 0x99, 0x99, 0x79, 0xa9, 0x88, 0x78, 0x98, 0x89, 0x88,
    0x89, 0x99, 0x98, 0xa9, 0xa9, 0x98, 0x89, 0x9a, 0x99, 0x7a,
    0x89, 0x89, 0x88, 0x86, 0xa9, 0x77, 0x88, 0x88, 0xa8, 0x8a,
    0xb8, 0x88, 0x99, 0xc8, 0xa8, 0x88, 0xc8, 0x88, 0xb8, 0xa7,
    0xb9, 0x9a, 0xca, 0x88, 0x99, 0x99, 0x79, 0xa8, 0x79, 0xb7,
    0x97, 0x77, 0x88, 0xb7, 0xc9, 0x78, 0x9a, 0xac, 0x99, 0x68,
    0x7a, 0x97, 0x8c, 0xba, 0x89, 0xa9, 0xa9, 0x89, 0x98, 0xca,
    0xb9, 0x87, 0x8c, 0xab, 0x98, 0x69, 0x8c, 0x99, 0x9a, 0xca,
    0x89, 0xba, 0xc9, 0x69, 0xa9, 0xc9, 0xc9, 0x86, 0x9a, 0xcc,
    0x8a, 0x58, 0x8b, 0xa8, 0x88, 0xc8, 0x89, 0x98, 0xc8, 0x7a,
    0x99, 0xc8, 0xc8, 0x78, 0x9a, 0xcc, 0x8a, 0x98, 0x99, 0x8a,
    0x98, 0xea, 0x99, 0xa9, 0xc8, 0x79, 0x99, 0xe8, 0xc8, 0x77,
    0x88, 0xcb, 0x9b, 0xa7, 0x98, 0x88, 0xa9, 0xc9, 0x89, 0x9a,
    0xba, 0x8b, 0x99, 0xca, 0xa9, 0x89, 0x98, 0x9a, 0x99, 0x99,
    0x98, 0xa9, 0xab, 0xca, 0x9b, 0x98, 0xab, 0xaa, 0xaa, 0xc9,
    0xa9, 0x9b, 0xbb, 0xcb, 0x9b, 0xb9, 0xbb, 0x8a, 0x99, 0x7a,
    0x9c, 0xaa, 0x8a, 0xaa, 0xab, 0x7a, 0xbb, 0xbb, 0xb9, 0xbb,
    0x9a, 0xb9, 0xa8, 0xac, 0x8a, 0x99, 0xba, 0x99, 0xaa, 0xb9,
    0x8b, 0xa9, 0x9a, 0x8b, 0x79, 0xa9, 0x8b, 0xa9, 0x7a, 0xaa,
    0x9a, 0x9a, 0x99, 0x9a, 0x99, 0xba, 0xaa, 0xaa, 0x99, 0xaa,
    0xaa, 0xaa, 0x9a, 0xba, 0xaa, 0xaa, 0x99, 0x89, 0x99, 0x99,
    0x99, 0x89, 0xa9, 0x99, 0x88, 0x97, 0x89, 0x99, 0x99, 0x88,
    0x98, 0xa9, 0xab, 0xaa, 0xb9, 0x99, 0x9a, 0x8b, 0x9a, 0xab,
    0xa9, 0xb8, 0xbb, 0x88, 0xc9, 0x7b, 0xab, 0x8b, 0xa8, 0x89,
    0x99, 0xaa, 0x89, 0xa8, 0xb9, 0x89, 0xb9, 0x99, 0xa8, 0x9a,
    0xab, 0x89, 0x8a, 0xb9, 0x7b, 0x98, 0x88, 0xa7, 0xb8, 0x88,
    0xd7, 0xa8, 0xda, 0xa8, 0x7a, 0xcd, 0xcd, 0x89, 0x8a, 0x88,
    0x79, 0xca, 0x88, 0xd6, 0xb7, 0x67, 0xd7, 0xc8, 0xd8, 0xc6,
    0x7b, 0xde, 0xbd, 0x6a, 0x8a, 0x87, 0x88, 0xd9, 0x78, 0xb8,
    0xa8, 0x48, 0xd7, 0xd8, 0xda, 0xc4, 0x8c, 0xbe, 0xbd, 0x3a,
    0x8a, 0x87, 0x88, 0xea, 0x97, 0x98, 0xe8, 0x49, 0xb7, 0xd8,
    0xd9, 0x93, 0x79, 0xee, 0x8b, 0x4a, 0x88, 0x97, 0x97, 0xe8,
    0x88, 0x88, 0xe8, 0x48, 0xa7, 0xd7, 0xc7, 0xa4, 0x98, 0xdd,
    0x9b, 0x5a, 0xa7, 0x97, 0xa7, 0xe8, 0x99, 0x88, 0xe9, 0x58,
    0x99, 0xd7, 0xb9, 0x76, 0x87, 0xcb, 0x8a, 0x77, 0xa7, 0x77,
    0xa8, 0xe8, 0x9b, 0x89, 0xd8, 0x9a, 0xa9, 0xd8, 0xb6, 0x99,
    0xb7, 0xcc, 0x9a, 0xb8, 0xb7, 0x99, 0xc9, 0xea, 0x9a, 0x9a,
    0xb9, 0xc9, 0x8a, 0xd8, 0xb8, 0x8c, 0xb9, 0xcb, 0x8a, 0xc9,
    0xb8, 0x89, 0x99, 0x88, 0x9a, 0xab, 0x9a, 0x99, 0xaa, 0x9a,
    0xb9, 0xba, 0x99, 0xaa, 0xaa, 0x99, 0xba, 0xaa, 0xb8, 0x8a,
    0xbb, 0xa9, 0x9a, 0x8b, 0xaa, 0xa9, 0xaa, 0xa8, 0xb9, 0x89,
    0xb9, 0x8a, 0xa9, 0xaa, 0x89, 0xa9, 0x9a, 0x99, 0xa9, 0xa9,
    0xaa, 0xb8, 0x99, 0x9a, 0x99, 0x99, 0x99, 0x99, 0xb9, 0x99,
    0xba, 0xa9, 0x8a, 0x9a, 0x9a, 0x8b, 0xa9, 0x9a, 0xa8, 0x98,
    0xb9, 0x89, 0xa8, 0x8a, 0xaa, 0xaa, 0x8a, 0x9b, 0x9a, 0xa9,
    0x8b, 0xc9, 0xa9, 0xaa, 0x8b, 0xbc, 0x8a, 0x78, 0xda, 0xbb,
    0x8a, 0x9b, 0x8b, 0x99, 0x89, 0xb8, 0xa8, 0x88, 0xb8, 0xa9,
    0xca, 0xb9, 0x8a, 0xbd, 0xbb, 0x69, 0x9a, 0xa9, 0xa9, 0xb9,
    0x88, 0xb9, 0xa8, 0x69, 0xd8, 0xb8, 0xd9, 0xb6, 0x9a, 0xce,
    0xcd, 0x59, 0xaa, 0x88, 0xa9, 0xba, 0x88, 0x99, 0xb9, 0x59,
    0xb8, 0xb8, 0xb9, 0xa5, 0x9b, 0xcd, 0xbc, 0x5a, 0x9a, 0x98,
    0x88, 0xc9, 0x88, 0x78, 0xd9, 0x59, 0xb8, 0xc9, 0xc7, 0xa4,
    0xaa, 0xbc, 0x8c, 0x49, 0x98, 0x98, 0x88, 0xd9, 0x78, 0x78,
    0xd8, 0x69, 0xb9, 0xc8, 0xc8, 0xa6, 0x98, 0xcd, 0x8b, 0x6a,
    0x98, 0x88, 0x89, 0xca, 0x99, 0x59, 0xe8, 0x59, 0xb8, 0xb9,
    0xc9, 0x95, 0x89, 0xbc, 0x7b, 0x49, 0xa9, 0x98, 0xa7, 0xd9,
    0x99, 0x6a, 0xe9, 0x4a, 0xa9, 0xc9, 0xc7, 0x85, 0x97, 0xcc,
    0x8b, 0x57, 0xb7, 0xa8, 0xa9, 0xd8, 0x9a, 0x79, 0xda, 0x8a,
    0x9a, 0xca, 0xa8, 0x98, 0xa8, 0xba, 0x8a, 0x9a, 0xb7, 0xa9,
    0xb8, 0xe7, 0x99, 0x99, 0xa8, 0xb8, 0xa9, 0xc7, 0xa7, 0x8b,
    0xba, 0xbc, 0x9a, 0xc7, 0xb9, 0x89, 0xac, 0xa9, 0xaa, 0x8a,
    0x9a, 0xba, 0x8a, 0x9a, 0x8b, 0x8c, 0xab, 0xa9, 0x88, 0xba,
    0xcc, 0xab, 0x89, 0x89, 0xab, 0x98, 0x99, 0xc8, 0xaa, 0x99,
    0xa9, 0xbb, 0x88, 0xbc, 0xac, 0xb9, 0x79, 0x9a, 0x99, 0x89,
    0xa9, 0xaa, 0x9a, 0xa9, 0xab, 0xa8, 0x9a, 0x9a, 0xab, 0x9a,
    0x99, 0x98, 0xba, 0xa9, 0xab, 0x99, 0x8a, 0x99, 0x99, 0x8b,
    0xb8, 0x9a, 0xa9, 0xa8, 0xba, 0xbb, 0xba, 0x9a, 0x88, 0x99,
    0x8b, 0x99, 0x9a, 0x9a, 0xb9, 0x9a, 0x79, 0xa9, 0x9a, 0x88,
    0x79, 0x89, 0x98, 0x89, 0x99, 0x89, 0xba, 0xba, 0xaa, 0x99,
    0xaa, 0x8a, 0xbb, 0xb9, 0xa9, 0xa8, 0xb8, 0xbc, 0xbc, 0x6a,
    0xa9, 0xb8, 0xbb, 0xba, 0xba, 0x9a, 0xba, 0x8a, 0xda, 0xbc,
    0xba, 0xc7, 0xb9, 0xac, 0xcd, 0x6c, 0xaa, 0xbb, 0xb9, 0xb9,
    0xa9, 0x9a, 0xb9, 0x8a, 0xd9, 0xca, 0xb9, 0xb8, 0xb8, 0xcc,
    0xbc, 0x7a, 0xa8, 0xb9, 0xa9, 0xba, 0x98, 0x99, 0xb8, 0x89,
    0xc9, 0xa9, 0xb8, 0xb8, 0xba, 0xbb, 0xbc, 0x9b, 0x97, 0xa8,
    0x88, 0xb8, 0x88, 0x79, 0xa8, 0x88, 0xa8, 0xb8, 0xb8, 0xa8,
    0x69, 0xbc, 0x8a, 0x79, 0x98, 0x87, 0xaa, 0xca, 0xa9, 0x7a,
    0xb9, 0x7a, 0xb9, 0xb9, 0xb9, 0xa7, 0x9a, 0xbb, 0x9c, 0x5a,
    0xaa, 0x89, 0x99, 0xda, 0x99, 0x69, 0xda, 0x7b, 0xb9, 0xc9,
    0xb9, 0xa6, 0xab, 0xbb, 0x9b, 0x69, 0xaa, 0x9a, 0xa9, 0xc9,
    0x89, 0x89, 0xc9, 0x88, 0x99, 0xb9, 0xb8, 0x9a, 0x97, 0xba,
    0x89, 0xba, 0xb7, 0x98, 0xa7, 0x98, 0x88, 0x99, 0x88, 0x88,
    0x99, 0x78, 0x97, 0x9a, 0x98, 0xaa, 0xaa, 0xa8, 0xb7, 0x78,
    0x99, 0x69, 0x88, 0x98, 0x98, 0xa8, 0x68, 0x79, 0x7a, 0x89,
    0x88, 0x88, 0x88, 0xa9, 0x99, 0x88, 0x78, 0x89, 0x77, 0x98,
    0x99, 0x98, 0x68, 0x99, 0x69, 0x79, 0x78, 0x87, 0x86, 0x98,
    0x88, 0x88, 0xb9, 0x99, 0x98, 0xa9, 0x99, 0xb9, 0xab, 0xb9,
    0x99, 0xab, 0xba, 0x8a, 0x9a, 0xba, 0x99, 0x99, 0x8a, 0xa9,
    0xaa, 0x89, 0x99, 0x88, 0xb7, 0x99, 0xba, 0xbb, 0x9a, 0xbc,
    0x8c, 0xab, 0x88, 0x99, 0xba, 0xbb, 0xca, 0x9b, 0xba, 0x8b,
    0x8b, 0xbb, 0x6b, 0x88, 0xb9, 0x67, 0x68, 0x6b, 0xbc, 0xaa,
    0xbb, 0xaa, 0xcb, 0x7b, 0x9c, 0x8b, 0xcc, 0xac, 0x8b, 0xc7,
    0x99, 0x89, 0x8b, 0x6b, 0x9a, 0xca, 0xbb, 0xab, 0xda, 0x6c,
    0xab, 0x9c, 0xab, 0xac, 0xab, 0xb9, 0xba, 0x9a, 0x7a, 0x9b,
    0xb9, 0xbb, 0xba, 0xaa, 0xba, 0x7b, 0x9b, 0x9b, 0xbb, 0xab,
    0xaa, 0xba, 0xb8, 0xab, 0x9c, 0xaa, 0xaa, 0xba, 0xbb, 0x8a,
    0xab, 0x8a, 0x6b, 0x9a, 0xba, 0x8b, 0x99, 0xd9, 0xbb, 0x99,
    0xbb, 0x9b, 0x9a, 0xbc, 0x99, 0x89, 0x8a, 0xba, 0x79, 0x79,
    0x8a, 0x8a, 0x79, 0x96, 0x99, 0x8a, 0xaa, 0x5a, 0x9a, 0x99,
    0x9a, 0xbb, 0xb9, 0x8a, 0xaa, 0x6a, 0xaa, 0xca, 0xaa, 0xa5,
    0x8b, 0x9a, 0xba, 0x4b, 0xab, 0xa9, 0x9a, 0xda, 0xa9, 0x7a,
    0xca, 0xaa, 0xaa, 0xda, 0xaa, 0xb9, 0xa9, 0xaa, 0xba, 0x9a,
    0xa9, 0xba, 0xa9, 0xba, 0x9a, 0x99, 0xab, 0xb9, 0xaa, 0xba,
    0xa8, 0x8b, 0xb8, 0xbb, 0x9a, 0x9a, 0xa9, 0x9c, 0xa8, 0x67,
    0x8b, 0xa9, 0x9a, 0xb9, 0xaa, 0x79, 0xa8, 0xab, 0xb7, 0x99,
    0xba, 0xb8, 0xa9, 0xba, 0x9a, 0x78, 0x8a, 0x98, 0xa8, 0xb8,
    0x88, 0x88, 0x79, 0x8b, 0xaa, 0x88, 0x98, 0xb7, 0x8b, 0x69,
    0x8a, 0x98, 0x88, 0x99, 0x99, 0x89, 0x88, 0x99, 0x89, 0x87,
    0x89, 0x88, 0x88, 0x88, 0x89, 0x99, 0x9a, 0x9a, 0x99, 0xa9,
    0xa9, 0xa9, 0xa9, 0x89, 0x99, 0xa9, 0xa9, 0xaa, 0x9a, 0x9a,
    0x89, 0x9a, 0x9b, 0xbb, 0xcc, 0x9a, 0xba, 0x8b, 0x8b, 0xb9,
    0x8c, 0x88, 0x9a, 0x89, 0x88, 0x89, 0xcb, 0xab, 0xac, 0xac,
    0xab, 0x9c, 0x8c, 0xab, 0xab, 0xac, 0x7c, 0xba, 0xac, 0x67,
    0x89, 0x9b, 0x9c, 0xcd, 0xab, 0xbb, 0xcb, 0x6a, 0xbc, 0xba,
    0xbb, 0xab, 0x8c, 0xcc, 0xab, 0x88, 0x7b, 0xba, 0xab, 0xbc,
    0xcb, 0x9b, 0xbb, 0x7b, 0x8c, 0xbc, 0xbb, 0xab, 0xab, 0xbb,
    0xcb, 0xaa, 0x9b, 0xbb, 0xbb, 0xbc, 0xa9, 0x8a, 0xbc, 0xaa,
    0x6b, 0xba, 0xaa, 0x8b, 0x89, 0xab, 0x99, 0x98, 0xaa, 0xa8,
    0x9a, 0xab, 0xab, 0x89, 0x9b, 0xd9, 0x5b, 0xb9, 0xb9, 0xab,
    0x8b, 0xcb, 0xab, 0x99, 0xcb, 0xaa, 0x9b, 0xab, 0x9a, 0x9a,
    0xab, 0xcb, 0x8b, 0x8a, 0x7a, 0xaa, 0x7b, 0x89, 0x9a, 0x76,
    0xa7, 0x89, 0x9b, 0xaa, 0xab, 0xbb, 0xaa, 0x5b, 0x8b, 0x9b,
    0x9b, 0xbb, 0xaa, 0xa9, 0xba, 0xaa, 0x9a, 0x9b, 0xa9, 0xab,
